#version: 0.2
Ġ t
h e
Ġ a
o n
i n
Ġ o
Ġt he
r e
i t
Ġo f
i s
e n
a t
e r
Ġ w
Ġ c
i on
Ġ s
Ġ p
a l
i c
Ġ in
n d
e s
Ġ b
Ġt h
o r
Ġ m
Ġt o
c e
c t
Ġ f
in g
a n
e d
Ġ n
Ġ e
s e
o u
Ġ is
l y
l e
Ġ Ġ
Ġ re
Ġ it
Ġa nd
Ġc on
Ġ d
Ġb e
s t
o m
en t
Ġw h
o t
a r
a s
u t
ic h
e ct
Ġ h
Ġp r
Ġa s
l l
Ġ u
Ġwh ich
Ġth at
t he
i v
i m
it ion
at ion
o s
it y
Ġa n
Ġe x
Ġ on
Ġ l
ic al
Ġn ot
ĠĠ ĠĠ
p t
j ect
Ġth is
es s
o w
Ġw e
it h
Ġf or
i d
i b
b ject
Ġs u
en ce
ce pt
t er
u re
l d
i r
Ġ g
Ġw ith
t h
u r
c i
v er
Ġ I
q u
o g
iv e
re s
is t
Ġo r
cept ion
as on
Ä ł
a y
e re
g h
a in
Ġc an
e c
i f
Ġb y
a nd
p er
se l
â Ģ
s ib
u l
Ġa ll
e m
r om
p p
Ġpr o
Ġre ason
Ġ T
Ġo bject
c on
Ġa re
v e
at e
c h
Ġf rom
en d
i l
Ġd e
Ġa l
u st
o re
Ġin t
p le
a ct
the r
Ġb ut
u s
he n
Ġit s
os sib
Ġh a
Ġcon ception
i ll
Ġa t
Ġon ly
a w
a m
a b
p l
Ġu n
ou ld
d ition
nd er
d e
ou gh
âĢ Ķ
u m
o l
sel f
i g
in ci
ĠĠĠĠ ĠĠĠĠ
Ġc a
Ġ (
an s
t ain
Ġo ur
Ġthe re
m in
i es
Ġl aw
ter min
t r
Ġm ust
Ġs p
Ġc om
n ot
c c
o f
Ġ r
al ity
es t
Ġp ossib
Ġpr inci
ec ess
ou s
res ent
Ġe m
Ġw or
Ġs o
id e
Ġp ure
Ġex ist
Ġo ther
he r
Ġm e
Ġu nder
i ence
Ġha ve
per ience
Ġ v
Ġde termin
Ġt r
st and
ct ion
Ġd o
Ġs en
og n
Ġm ere
Ġw ill
f ore
o d
p r
im e
ĠT he
Ġ B
u se
ar y
Ġcon dition
ver y
g e
Ġan y
a k
Ġn ecess
Ġ he
Ġ im
Ġa b
om en
a d
Ġit self
ou nd
Ġm ay
Ġp er
hen omen
or i
Ġfor m
al l
Ġthe m
Ġn at
Ġn o
ar d
Ġthe y
stand ing
s u
Ġth ing
am e
p ir
p os
Ġs y
u ition
Ġ k
ab le
in d
e ver
Ġt ime
Ġre g
Ġu s
Ġex perience
il ity
o se
i ori
pir ical
an t
e x
Ġ if
p h
f f
Ġs h
Ġ F
Ġbe ing
Ġs e
ar t
end ent
Ġcan not
a ce
ation s
act ical
ou t
Ġc ogn
om e
Ġs t
Ġon e
u d
Ġh as
Ġ qu
Ġ ide
Ġp henomen
Ġthe se
Ġre l
Ġe v
v es
ĠB ut
gh t
Ġpossib le
or d
p resent
i re
w h
Ġm or
an ce
Ġcon s
Ġpr iori
n ow
Ġ A
ou r
Ġg iv
Ġint uition
a c
Ġ j
at ive
Ġnat ure
Ġa cc
Ġm an
Ġem pirical
ul t
th ing
u n
on e
ans c
Ġw ould
pl es
Ã ł
Ġthere fore
em ent
Ġsu ch
Ġa pp
Ġunder standing
Ġthe ir
c a
Ġexist ence
ansc endent
it e
Ġa d
Ġconception s
se qu
f or
Ġpr actical
er s
Ġcogn ition
p on
Ġprinci ple
al ly
Ġ y
ut e
n the
Ġsu bject
ĠF or
Ġreg ard
Ġ P
t o
Ġd is
Ġ Ãł
sel ves
pos ition
Ġgiv en
ent ly
) ,
Ġobject s
e t
s o
ion s
Ġwor ld
ic t
i ght
Ġmere ly
Ġk now
anscendent al
st r
wh ich
m ent
on g
Ġ le
Ġp re
he re
f ere
t e
c l
ĠT h
Ġa r
Ġc h
Ġwith out
fere n
en er
Ġp art
t ical
Ġphenomen a
Ġre present
Ġs ame
s p
er tain
Ġs ome
Ġmor al
Ġthing s
c es
Ġe very
Ġme ans
Ġprinci ples
ĠĠĠĠĠĠĠĠ ĠĠĠĠĠĠĠĠ
ter n
ough t
i e
g ement
ak e
Ġsy nthe
is e
Ġ S
s is
sequ ently
Ġwh at
Ġh ow
at ter
Ġun ity
Ġp h
at ed
h ing
e l
s ol
Ġnecess ary
en s
ord ing
p re
res s
Ġev en
Ġm y
l ed
ay s
Ġwh o
o p
Ġh is
a g
f in
Ġ N
o y
pp os
Ġca se
n ess
ph y
th at
ca use
Ġ O
ud gement
tern al
in t
Ġsu b
th ough
m at
Ġth an
Ġlaw s
ener al
p ossib
Ġs er
im it
Ġm ore
Ġide a
Ġf re
Ġrel ation
ce d
sol ute
Ġn e
Ġa ction
Ġm a
con dition
Ġcon tain
i z
ec ul
d u
n ect
Ġbe cause
Ġal so
b e
Ġf ar
Ġd if
il os
Ġdo es
b er
ĠI n
led ge
w ays
Ġp resent
Ġp l
Ġu pon
Ġc ertain
Ġtr anscendental
Ġ end
Ġca us
Ġcom ple
Ġcondition s
Ġbe l
or t
Ġnot hing
Ġcon t
og ical
ĠI t
Ġ G
re at
Ġpossib ility
o ll
Ġ W
on d
he ther
Ġint o
ation al
Ġj udgement
oll ow
ci ous
ult y
o st
u e
Ġu se
Ġthe n
Ġw hen
Ġacc ording
ff ect
Ġca use
Ġn ever
Ġsen se
Ġpro position
pl oy
ig n
Ġg r
g or
m e
c om
ir st
Ġg eneral
Ġcon tr
Ġg o
r it
ate gor
T he
i al
u ch
Ġcon sequently
Ġ C
Ġal one
Ġo w
st em
a st
Ġab solute
iv ers
Ġpro per
s er
Ġth ought
Ġh im
Ġsp ace
is m
for m
Ġp os
at es
Ġl imit
Ġre qu
Ġal ways
Ġo b
Ġcon nect
a re
pr o
Ġd es
con ception
it her
Ġf ound
o ld
Ġcom m
Ġthem selves
Ġd ist
Ġow n
Ġc ould
Ġknow ledge
Ġf ac
Ġsh ould
f ect
possib le
ar i
Ġph ilos
Ġf ollow
Ġem ploy
Ġs ay
ic i
Ġal though
Ġser ies
r o
Ġw as
Ã Ħ
Ġobject ive
Ġc all
sp ect
Ġf irst
Å Ĥ
ÃĦ ÅĤ
Ġqu est
is h
ed om
Ġr ational
Ġdif feren
Ġre spect
Ġbe en
w ith
Ġp ur
Ġre m
Ġdis c
ot her
Ġcons id
i ed
Ġcomple te
in k
a ch
in e
ĠN ow
Ġin de
ere d
Ġsy stem
Ġ H
Ġex am
d er
Ġa ct
w e
Ġha pp
Ġw hether
Ġth us
Ġf e
ut h
âĢ ľ
âĢ Ŀ
ĠTh is
Ġex t
Ġ en
Ġbel ong
in ation
Ġfac ulty
x im
Ġa g
Ġre ality
Ġform er
re e
in ess
Ġc ategor
s ess
o ver
ecul ative
Ġ very
Ġsynthe sis
d ic
Ġor der
Ġv al
p ar
Ġsome thing
u nder
Ġm ake
Ġl atter
m it
Ġhow ever
su ous
l ess
Ġgr ound
Ġwe re
um an
m ed
cious ness
Ġpl ace
Ġun ivers
Ġs ci
st it
o de
Ġ âĢľ
Ġnecess ity
Ġ E
Ġ R
p ose
Ġy ou
Ġfre edom
Ġgo od
Ġf ind
Ġcaus ality
Ġth ose
Ġe ffect
b y
h a
Ġwho le
ic s
ad ict
e ll
Ġt er
o bject
Ġp res
s y
al y
Ġth ink
Ġo ut
i le
k e
pre me
t y
Ġd ut
Ġex p
Ġquest ion
w o
Ġma xim
Ġsen sib
o phy
re ason
Ġh uman
Ġpos sess
ex ist
e ar
u al
ig in
Ġas s
Ġa m
Ġre al
o ve
Ġj ust
r ough
Ġpro du
Ġapp l
Ġ ent
Ġp ow
a v
Ġm ind
Ġper fect
ut en
ĠI f
ber g
ou n
ari ly
Ġy et
uten berg
Ġm at
o int
Ġn ame
m an
s en
Ġc rit
th is
phy s
Ġs im
ib le
Ġat t
Ġsp eculative
ed u
Ġdetermin ed
ic ation
Ġsub st
Ġdifferen t
og it
k s
le ct
Ġ D
ere st
ie w
he d
ce ed
iv ed
in ce
l f
Ġrepresent ation
ur al
Ġsp here
Ġsynthe tical
ol ogical
as s
Ġg reat
id ent
b le
) .
i ke
Ġt wo
Ġb as
con s
he mat
Ġman if
or y
Ġf act
Ġdut y
Ġs ec
an g
ff ici
Ġval id
Ġide as
ro ject
u le
Ġsen suous
de termin
r ib
Ġin cl
c ogn
Ġin ternal
Ġim p
Ġse lf
Ġth rough
Ġdetermin ation
Ġsh all
Ġcall ed
Ġwor d
Ġsci ence
pr inci
Ġper ception
ut ion
ar act
o o
condition ed
Ġv iew
Ġor igin
y p
ic e
ul ar
Ġfe el
under standing
Ġsubject ive
aract er
ĠW e
T h
Ġc or
Ġcon stit
y ond
f ul
the re
fin ite
Ġphilos ophy
og y
Ġin v
Ġh ig
e ci
Ġp oint
Ġpur pose
v ed
Ġ est
Ġhe re
Ġr ule
Ġabsolute ly
n ecess
us ion
Ġexam ple
t ed
Ġnat ural
ent s
Ġcons ciousness
d is
an ge
Ġm ode
ot h
Ġsh ow
Ġwh ile
Ġ _
Ġunivers al
er n
Ġin f
Ġst ill
Ġe ach
Ġim possible
Ġhim self
i ate
Ġbe t
ire ct
Ġc ogit
Ġnecess arily
s ion
Ġphenomen on
ĠP roject
c an
Ġex ternal
Ġex pl
Ġdetermin e
Ġad mit
Ġpow er
i res
Ġint erest
act ion
at ing
Ġconnect ion
n er
a phys
Ġan other
Ġsen s
Ġle ast
w ise
Ġg ive
Ġaction s
Ġw ay
ell ig
Ġint ellig
Ġrequ ire
Ġbe yond
Ġqu ite
Ġqu ant
ĠG utenberg
at is
Ġl ike
Ġ M
Ġwe ll
ex perience
ĠR e
Ġhapp iness
Ġname ly
y s
Ġk ind
a pp
Ġdetermin ing
Ġs tr
Ġmanif old
u ght
Ġn or
Ġe ither
Ġour selves
Ġa p
Ġh and
an ces
Ġcontain s
ab l
Ġcategor ies
a ge
t ic
Ġw here
cc ess
it s
Ġinde ed
Ġconsid er
Ġch aracter
Ġd em
Ġlimit s
r a
Ġcon c
Ġapp ear
atis f
p henomen
ot he
Ġpro ceed
Ġre st
Ġan aly
. ,
Ġst ate
em pt
ing u
g in
oo k
Ġmor ality
iz e
g um
i ous
Ġre f
ffici ent
re g
Ġter m
Ġd iv
e v
Ġsu m
Ġcomm on
ppos ition
Ġcontr ary
ar k
yp othe
ol ogy
u nd
r ing
Ġpro of
Ġnot ion
m uch
Ġ L
Ġcom p
Ġad v
Ġse e
is hed
Ġcontr adict
Ġm atter
Ġd edu
ĠTh us
con tr
ak es
Ġab le
Ġass um
Ġfre e
Ġfollow s
Ġfeel ing
Ġre s
E R
feren ce
B ut
Ġsu preme
Ġcon ce
ab ly
exist ence
Ġcon cl
Ġrepresent ations
conception s
l u
en ces
Ġo ught
Ġsec ond
sib le
Ġtr ue
Ġtr uth
Ġrem ain
Ġb oth
Ġ 1
p endent
ic ism
Ġm ost
str u
Ġha d
med iate
f rom
Ġs ince
Ġd ec
Ġt ake
Ġdist in
iv es
ĠRe ason
f ter
t en
Ġ U
Ġme t
Ġpart s
Ġpres u
Ġsensib ility
ic ular
Ġsubst ance
f ic
Ġ ill
ir m
a cc
we en
Ġm uch
le ar
Ġbe gin
Ġm ight
Ġbeing s
Ġman ner
Ġregard s
Ġat tain
Ġsu pp
Ġl ogical
Ġpre dic
as much
Ġexp ress
Ġcons ist
Ġph ys
Ġwor k
Ġcont ent
Ġn ow
on str
I n
int uition
Ġ i
Ġregard ed
Ġma de
it ed
Ġ er
Ġto t
Ġd irect
Ġbe fore
Ġfound ation
m a
a id
Ġa im
b ut
Ġcon f
re present
Ġmat hemat
he st
p end
Ġdisc over
os m
ppos ed
v ing
Ġc l
Ġm ot
Ġa ff
su b
Ġar gum
Ġun conditioned
est ig
pon d
Ġcon cept
o id
t m
Äł Äł
Ġh ypothe
Ġexist s
Ġconsid ered
is ion
Ġ [
Ġcondition ed
en e
at ic
res pond
s on
Ġjudgement s
Ġbet ween
Ġquant ity
ou b
re l
le ment
Ġother s
Ġab ove
ĠA nd
em pirical
ĠC on
Ġpro ble
ĠO n
re d
at h
k now
w or
w ard
as ure
og ic
Ġs atisf
Ġth ough
c ise
Ġin d
Ġde g
Ġproposition s
princi ple
n at
Ġp le
p able
Ġcon form
ĠO f
iz ed
O O
E N
Ġsu ccess
Ġde fin
Ġse t
Ġwor th
ial ect
ut es
Ġst and
on ly
om y
ul es
i qu
ser t
ra ph
T I
Ġa c
Ġar r
Ġc lear
Ġsim ple
Ġbas ed
O N
ore tical
pr actical
Ġs our
Ġu p
Ġan s
ag raph
re ad
ak en
Ġdes ire
Ġag ain
un ction
be ing
Ġr ight
ĠP ure
Ġhig hest
c rib
th od
od u
Ġim per
Ġreg ress
Ġest abl
Ġe l
if e
Ġemploy ed
Ġo cc
the m
l aw
Ġ ed
mat ical
n ing
con t
Ġd er
Ġman y
Ġext end
Ġcognition s
Ġcaus es
e p
per ception
Ġob ser
m on
ign if
Ġle g
Ġconc ern
, âĢĿ
ĠG od
ent al
Ġans w
op her
the less
Ġim ag
av our
cogn ition
Ġcomplete ly
Ġin asmuch
Ġany thing
Ġch ange
iqu e
tr ib
c ertain
Ġa fter
oun t
Ġdist ingu
Ġr ules
Ġpresent ed
Ġso le
Ġper son
Ġmet aphys
Ġin finite
Ġcon sequ
Ġex er
Ġbelong s
Ġmaxim s
u de
Ġ es
m um
t le
I t
Ġse em
Ġpart icular
Ġne ed
Ġemploy ment
m ust
Ġrequ ires
phenomen a
ent ion
ir t
Ġg u
Ġconnect ed
m is
Ġn um
ur n
Ġres ult
at her
Ġm od
Ġl ife
Ġim mediate
Ġmy self
there fore
necess ary
ect ion
Ġan t
Ġf in
Ġacc ord
Ġend s
Ġcont ing
on um
Ġw ant
Ġground s
Ġent ire
hen ce
lu ence
he s
Ġin dic
OO K
Ġevery thing
ĠĠĠĠĠĠĠĠĠĠĠĠĠĠĠĠ ĠĠĠĠĠĠĠĠ
Ġvalid ity
c y
Ġappl ication
Ġsystem atic
Ġatt empt
Ġre ally
id es
Ġs c
m ere
Ġc op
B OOK
our se
Ġne g
Ġintuition s
p art
ar r
su bject
H A
p ect
Ġ "
ou l
a im
possib ility
Th is
Ġinv estig
Ġtot ality
h ow
Ġne w
oub t
contr adict
Ġm ain
Ġin g
c ome
Ġe lement
Ġcor respond
' s
l ig
Ġintellig ible
Ġre ad
du ct
a se
Ġs ide
Ġb od
A L
d o
Ġas sert
Ġme thod
Ġcomm and
r aw
it self
Ġb onum
Ġl ogic
condition s
Ġcontain ed
Ġdeg ree
is l
o b
p s
Ġme an
Ġe as
ens ion
Ġphys ical
) ;
Ġr ather
Ġv irt
o v
ct r
Ġl ess
ĠT H
Ġo ver
Ġthere by
Ġphilos opher
with out
man ent
Ġsens es
Ġbel ie
Ġimp ort
Ġ ut
I f
g o
Ġm en
Ġword s
read y
og ress
un ity
Ġ hence
er ial
b ec
an e
id ed
tr anscendental
W e
i ly
ak ing
it ies
Ġs ol
Ġd og
Ġother wise
T ER
Ġn on
Ġsp eci
Ġer r
sy nthe
m or
Ġl ong
par agraph
Ġdem onstr
Ġab str
Ġh old
Ġat trib
Ġansw er
Ġrel ations
Ġremain s
b it
Ġe qu
an ation
nat ure
Ġ ^
Ġ {
is es
Ġide al
Ġs ignif
Ġs oul
ate ver
Ġinde pendent
Ġbas is
Ġsum mum
Ġc o
Ġperfect ly
Ġthe oretical
Ġp ost
Ġex cept
ĠThe re
Ġform al
ĠTh at
Ġproble m
Ġaccord ance
Ġentire ly
C HA
d om
g r
ĠP r
ĠS u
P TER
Ġm em
Ġne ither
Ġcont in
uth or
Ġsensib le
com ple
Ġproper ly
Ġinf luence
e ing
Ġto o
u ally
al though
Ġb ound
Ġe ver
Ġcon duct
Ġgiv es
ĠH ence
Ġthink ing
Ġnum ber
Ġ her
en cy
i ar
re ct
Ġin qu
Ġexpl ain
a use
m en
Ġ ess
ce ive
Ġbe come
Ġal ready
Ġsu fficient
a il
as es
Ġdif fic
osm ological
Ġs aid
pr iori
Ġpre v
CHA PTER
m all
ce ived
r anscendental
w ill
Ġacc ount
ĠO F
Ġexer cise
Ġvirt ue
an y
hen sion
Â §
Ġ ident
d ist
Ġple asure
Ġform s
in ations
Ġd oubt
Ġdetermin es
Ġdistin ction
Ġ 2
Ġpro v
ĠI I
p ure
Ġo p
Ġin st
ir c
Ġexp ect
Ġt aken
Ġm is
Ġd ialect
Ġh ar
Ġh op
ced ure
Ġprodu ce
Ġcogit ated
ecul iar
lect ual
Ġp ass
Ġpre ced
Ġargum ent
Ġpro ve
Ġdedu ction
Ġel se
Ġd en
Ġapp re
Ġmat erial
ex t
u p
Ġab out
ĠA s
o c
Ġcon stru
ound ation
Ġapp ly
sen sible
Ġerr or
it ive
Ġc e
Ġre nder
Ġc ourse
Ġg ener
Ġob lig
Ġrem ark
N ow
t ime
Ġa ffect
Ġm akes
Ġpr ogress
ult ies
ĠĠĠĠĠĠĠĠĠĠĠĠĠĠĠĠ ĠĠĠĠĠĠĠĠĠĠĠĠĠĠĠĠĠĠĠĠĠĠĠĠ
Ġbegin ning
Ġall ow
t ies
Ġl ies
Ġlimit ed
ur ther
ĠĠ Ġ
Ġpr om
Ġde pend
ab ility
Ġv ari
object s
cons ciousness
reg ard
Ġpredic ate
bec ause
ant age
Ġf all
Ġsu per
Ġcons cious
Ġappl ied
ut ed
con sequently
ĠB eing
can not
Ġassum e
Ġconsist s
Ġimper ative
Ġcop y
sy ch
s im
Ġch ang
Ġa w
Ġa id
Ġcogn ize
the se
pp ose
Ġexist ing
ppos ite
Ġnever theless
Ġquest ions
ha ve
b l
Ġl ook
de qu
ĠTH E
* *
d if
Ġca pable
ie ld
n e
Ġleg isl
Ġp eculiar
the y
Ġshow n
Ġexpl anation
Ġmain tain
Ġp ath
ical ly
in ed
Ġd raw
n t
on ic
im ate
Ġdiv ision
Ġaff irm
. âĢĿ
he ma
Ġf al
Ġwh ose
Ġincl inations
princi ples
Ġhig her
Ġimag ination
Ġsole ly
mere ly
ctr ine
in te
dis c
F or
con nect
Ġunder stand
Ġad dition
Ġre ference
Ġwh atever
Ġpure ly
Ġfollow ing
Ġdifferen ce
Ġcontradict ion
ov ered
og ism
ab solute
w ould
on t
Ġpro cedure
ĠSu preme
ul ative
str ict
R E
a ve
c or
Ġa v
Ġad d
object ive
ten ess
the ir
Ġag re
Ġ ly
Ġwith in
Ġter med
ward s
Ġhar mon
pos es
i a
i o
s ome
Ġu nd
u ll
d es
h ib
Ġwor ks
Ġy our
_ ,
Ġ Y
Ġw ish
Ġc irc
Ġsp e
Ġev ident
Ġhapp ens
Ġill usion
Ġhypothe sis
Ġsour ce
e avour
n i
ou men
dequ ate
Ġint el
g iv
Ġb r
e very
on omy
Ġe B
Ġd one
Ġcertain ly
Ġeffect s
Ġincl ination
Ġanaly tical
Ġdefin ition
Ġconting ent
Ġfal se
Äł in
or ough
lect r
wh at
ha pp
r ight
pos ed
Ġcogit ate
l ar
w hether
Ġs mall
Ġagain st
Ġhop e
c ing
ha ps
Ġrel ate
acc ording
t ing
Ġf urther
Ġcon j
Ġd id
Ġper manent
Ġrepresent ed
Ġcategor y
mor al
s h
ph ilos
ent ial
am ental
Ġcertain ty
l es
ow n
Ġdem and
Ġempirical ly
Ġext ension
determin ation
und amental
Ġimmediate ly
Ġsc hema
Ġneg ative
i x
Ġs ing
Ġv ol
0 0
Ġ ign
im es
c ategor
o ph
s ist
et aphys
pro position
Ġintel lectual
Ġo pposite
ĠT o
us ions
ĠThe y
Ġjust if
Ġsubst ances
Ġsens ation
Ġmathemat ics
rel ation
Ġt e
iv id
pt ion
Ġj ud
cons id
p ly
id ence
Ġf ut
Ġdistin ct
b r
Ġt reat
er se
Ġb ring
ĠT ranscendental
rit ique
Ġperfect ion
Ġconcl usion
Ġcl aim
Ġconsequ ence
Ġinqu ir
c k
Ġo per
f er
y n
comple te
Ġsp ring
Ġend eavour
Ġadv antage
s es
Ġint r
ĠA n
ppos es
Ġproper ties
Ġperception s
know ledge
Ġconform ity
Ġf ul
om ent
p res
Ġcon v
ll ig
Ġser ve
j udgement
is ed
Ġcor rect
ev en
e ad
it tle
Ġth ree
Ġth orough
su ch
ĠA ll
Ġaccording ly
Ġbelong ing
represent ations
Ġseem s
l imit
are d
c all
t og
Ġpre t
R A
in de
im al
ir d
og ene
Ġab s
Ġdist rib
tog e
Ġrel ates
Ġval ue
Ġrest s
is hes
Ġp ar
Ġf unction
Ġe t
Ġan al
Ġl ie
Ġdetermin ations
thing s
Ġdis position
Ġch o
Ġproper ty
Ġpossess es
Ġam ong
them selves
Ġeas ily
lectr onic
toge ther
as ion
sen suous
E C
ode ict
Ġbod y
Ġappre hension
h at
Ġob tain
ÄłÄł ÄłÄł
Ġagre ement
g an
Ġdisc overed
ĠH e
Ġext ent
Ġcrit er
Ġconce ive
ĠĠĠĠĠĠĠĠĠĠĠĠĠĠĠĠĠĠĠĠĠĠĠĠĠĠĠĠĠĠĠĠĠĠĠĠĠĠĠĠ Ġ
a p
A ll
i or
le ction
Äł c
Ġknow n
Äł re
ex am
ac k
Ġpow ers
Ġinv ol
w here
Ġc ases
al ways
Äł s
Ġthere of
ĠF oundation
ud ed
Ġev ent
Ġcrit icism
Ġinf er
Ġap perception
ĠCon sequently
Ġchang es
Ġfut ure
Ġm ed
h il
n o
le g
il ar
ec h
Ġpro ved
o od
Ġ Â§
Ġint u
Ġdetermin ate
Ġcrit ical
bit r
Ġign or
Ġa uthor
com m
Ġact ual
Ġterm s
p eci
pro c
Ġstr ict
yn am
Ġle ad
sub st
wor ld
Ġcontin u
. [
p ur
Ġn oumen
Ġl ittle
Ġdo ctrine
Ġexpress ion
Ġmathemat ical
Ġder ived
Ġinvestig ation
giv en
A R
iv erse
ivid ual
Ġan te
ow er
Ġcom par
p ens
re qu
Ġconce ived
im p
inte llig
I S
ens ive
ĠU n
m ay
es ides
Ġm oment
Ġn ay
Ġd ynam
Ġsu pposed
Ġha ving
Ġreg ulative
Ġconstit utes
Ġelement s
do es
Ġmem ber
r ational
he nd
Ġas k
feren t
TI ON
b el
f e
j ust
ll ogism
at ement
Ġsupp ort
re edom
Ġin fin
end ed
ĠThe se
su fficient
ac es
Ġanaly sis
Ġsuccess ion
Ġestabl ished
Ġdiffic ulty
n it
d em
Ġsol ution
Ġtr ans
ord in
Ġcomple teness
ĠE x
Ġsee k
Ġs ch
Ġf ield
Ġex hib
Ġar ises
Ġrequire d
Ġaim s
Ġmot ive
Ġargum ents
Ġestabl ish
Ġdistingu ish
Ġmetaphys ics
how ever
Ġcorrespond ing
r u
re m
at t
ca us
Ġin s
o le
Ġre cogn
Äł f
Ġpro f
Ġcom b
et y
Ġrequ is
Ġdisc us
Ġp ain
iv ing
Ġex cl
Ġsp ont
Ġv ain
Ġap art
Ġdirect ly
Ġsour ces
Ġdog matical
Ġprev ious
Ġsing le
Ġspont ane
Ġ 3
qu est
r ow
n ever
Ġregard ing
Ġcogn ized
Ġdes ign
Ġobser v
Ġante ced
in omy
Ġon ce
Ġsu pposition
Ġhe l
Ġper haps
ĠĠĠĠĠĠĠĠĠĠĠĠĠĠĠĠ ĠĠĠĠ
ĠC ritique
Ġen ough
Ġunivers ality
Ġgreat est
Th us
Ġintellig ence
ist ic
Ġto ge
Ġbe com
ar n
synthe tical
Ġtoge ther
m ost
Ġt akes
ing dom
Ġtr anscendent
Ġk e
Ġev il
Ġsatisf action
Ġabstr act
oph ical
I N
in ion
Ġc osmological
as k
ĠI de
Ġcom pre
ĠS uch
ecul ation
Ġpresent s
Ġfac ulties
Ġcategor ical
Ġlike wise
represent ation
Ġsuccess ive
Ġsuper sensible
Ġdynam ical
Ġcom e
com p
app l
Ġb l
ve l
is ing
Ġu l
res pect
n ame
Ġ 5
g eneral
i gh
iv ity
not hing
ori z
Ġpur su
Ġocc up
Ġmean ing
S ection
in cl
Ġth ird
Ġd on
Ġsu r
Ġal together
ĠA r
pro per
ell ed
Ġprodu ced
Ġconstit ution
Ġbet ter
Ġsupp ose
Ġdialect ical
Ġpreced ing
en se
ic able
Ġf ore
se par
Ġr a
app ear
ni hil
f t
f ollow
ab our
Ġdes tr
Ġe y
Ġre strict
if ic
ative ly
sy stem
Ġap odeict
Ġof ten
Ġp sych
Ġe lectronic
Ġde l
ca pable
ens ions
Ġhuman ity
sen se
Ġcrit ique
Ġpredic ates
Ġconstru ct
Ġharmon y
Ġintr odu
call ed
pr odu
Ġapp ro
I I
it um
ici p
ogene ous
in es
cons ist
Ġmanif est
Ġappear ance
Ġadv ance
Ġ *
Ġ V
Ġo pposition
Ġf ull
ut ing
Ġex act
con f
Ġun less
Ġk ingdom
Ġst ates
ud ing
Ġpre cept
Ġar ise
Ġref er
Ġimport ance
Ġaffect ed
Ġrequis ite
s um
ct ive
E S
Ġc he
ome tr
i um
ment s
th ought
c re
u bl
in v
Äł p
Ġess ential
h as
Ġs ort
Ġl ast
Ġv oid
sp ace
ĠS p
Ġobjective ly
Ġsim ply
Ġdec l
contradict ion
Ġread er
Ġattrib ute
Ġbound s
some thing
Ġcirc um
Ġcriter ion
peci ally
Ġhel p
is on
Ġe ar
em ploy
Ġ ens
un ivers
ict ion
Ġle t
id ance
Ġg e
Ġr o
Ġag ree
EN T
consid er
qu ant
Ġor gan
Äł d
cc ording
Ġfin ite
b ers
Ġ J
Ġa dequate
Ġar bitr
Ġappear s
Ġbelie f
ĠPr inci
al one
ut onomy
Ġso on
Ġle ave
Ġmore over
me ans
form ation
Ġact ually
determin ed
Ġconstit ute
Ġadmit ted
Ġconcept s
Ġind ividual
law s
Ġabstr action
Ġsignif ic
Ġpost ul
Ġaw ay
name ly
T H
s c
per fect
pl ace
y ing
Ġl ine
dist ingu
the n
crib e
Ġav oid
R O
l atter
Ġ K
at um
ci proc
p e
Ġin ev
ur d
con stit
oo ks
ech an
Ġinev it
l ove
re ality
Ġf urn
Ġf undamental
ception s
con tain
Ġun iverse
ĠB y
ĠS ection
mat hemat
Ġpos itive
Ġplace d
ĠR E
Ġgreat er
Ġorigin al
necess ity
Ġpresu ppose
know n
Ġconj unction
Ġvol ition
Äł m
Ġse par
a e
Ġ 4
it er
RA N
ag es
o ol
Ġt est
ut ive
Ġca re
sp eculative
Ġdes er
wor th
Ġc reat
ot e
pt y
ol ly
aly tic
Ġconc re
phenomen on
Ġphilosopher s
Ġident ical
Ġvari ous
i p
m etaphys
ph ist
a pt
re n
ib er
sib ility
C E
T here
Ġof f
ff ort
Ġpos ition
in s
Ġimport ant
Ġut ter
gr ound
Ġet c
d iv
f reedom
it le
Ġw it
ci ence
pos sess
Ġev ents
Ġdis p
Ġuse ful
Ġfound ed
Ġexam ination
mit ted
Ġdedu ced
Ġmot ives
Ġclear ly
Ġdistingu ished
Ġindic ates
synthe sis
Ġbr ought
happ iness
categor ies
ar ch
ur s
Äł un
he tic
g g
Ġc re
Ġc arr
Ġs cept
Ġf a
ure s
Ġac cept
Ġac qu
Ġclaim s
c ogit
u pon
Ġt ask
Ġw is
Ġun able
Ġsp eculation
Ġper ceive
Ġst atement
our selves
Ġle arn
Ġle ft
Ġact ing
Ġsci ences
Ġpossess ion
Ġatt ention
Ġconsider ation
Ġhypothe tical
Ġresult s
Ġcopy right
Ġspe ak
ĠeB ook
Ġey es
E very
e termin
m y
v al
sp eci
o pt
v en
Ġ Ã
f ac
h im
t un
Ġp ut
Ġsu ffici
ubl ic
g u
Ġthe ology
Ġdetermin able
Ġwh om
Ġwh olly
Ġg en
end s
Ġad opt
Ġmoral s
Ġinterest s
Ġpresu pposes
Ġdirect ed
Ġstand s
Ġconsequ ences
Ġant inomy
connect ion
Ġbecom es
l ict
ous ly
t ot
Ġo pp
th ink
ch ange
pres u
x i
Ġg ain
Ġst ep
Ġsim ilar
ar ks
Ġl ight
Ġfor ce
Ġdraw n
p ic
Ġm ental
Ġf avour
end ing
h is
is hing
Ġc osm
Ġem pty
un conditioned
ĠS t
ort ion
Ġlimit ation
Ġdes ires
Ġexam ples
Ġen able
Ġmot ion
Ġproble matical
Ġes pecially
Ġgu idance
mis sion
Ġindic ate
Ġattempt s
Ġbod ies
Ġlegisl ation
absolute ly
quest ion
Ġapodeict ic
Ġcircum st
Ġsignific ance
Ġconcre to
ive ly
Ġo ld
iz ing
Ġat ion
nder standing
Ġacc om
I T
Ġf ig
pos ite
crib ed
m ore
r op
at ives
st ood
Ġpro p
um e
Ġocc asion
? âĢĿ
in ction
Ġo pposed
Ġsu re
ure d
Ġde finite
ser ies
Ġpur poses
pend ence
EN D
Ġconcern s
Ġcommand s
Ġdog mat
Ġinst ead
Ġoblig ed
Ġdepend s
ĠY ou
philos ophy
Ġjustif ied
Ġjud ge
Ġsch ool
Ġins ight
Ġarbitr ary
s atisf
an aly
ain t
int erest
I C
o ly
or igin
av oid
are nt
con form
us ed
Ġphilos ophical
Ġhapp en
Ġdestr oy
Ġge ometr
W hen
in to
Ġre ach
Ġd at
Ġwh y
Ġh igh
Ġfor th
ib ility
Ġsy llogism
Ġphenomen al
ac hed
pre dic
ĠW hen
Ġcomm unity
man ence
Ġsubjective ly
Ġmod es
contradict ory
Ġassert ions
Ġeas y
Ġbelie ve
Ġcho ice
bel ong
iter ary
Ġwis dom
ic ense
k ind
Ġt a
Ġin ter
ÃĦÅĤ ÃĦÅĤ
dem onstr
Ġt imes
pl ine
sh ould
m s
Ġw ise
im ent
ate ly
ud es
f ree
t imate
Ġs ought
an gement
Ġcon ver
Ġsub tle
edu ction
go od
Ġke ep
G utenberg
T o
e ither
g ed
s ame
Ġ ir
Ġf r
Ġe ffort
Ġd om
Ġpr ior
im possible
id ing
ci pline
ch ive
ppos ing
Ġrespect ing
Ġunivers ally
Ġfind s
Ġwhere by
Ġref lection
Ġder ive
Ġextend ed
Ġident ity
Ġop inion
Ġconstru ction
Ġgener ally
dif ferent
caus ality
Ġinevit ably
fac ulty
c ess
im in
su ccess
j ud
s ens
as ing
th an
ENT AL
Ġp e
em ark
Ġar t
pro v
Ġful ly
re al
Ġc oun
ch aracter
pur pose
Ġm ag
ad v
c ould
Ġa utonomy
Ġc ol
al so
Ġin capable
Ġb esides
Ġm aking
Ġm echan
ce de
Ġpr imal
Ġan nihil
Ġl ay
ĠĠĠĠ ĠĠĠ
th ose
Ġexist ed
Ġreg ion
wh ole
ĠA N
ca se
Ġpractical ly
Ġevery one
Ġsub ordin
Ġprodu ces
Ġcomp elled
Ġassum ed
Ġconcl usions
Ġmetaphys ic
Ġfin ally
Ġconting ency
Ġindependent ly
Ġinquir y
ĠAn alytic
Ġcompar ison
intellig ible
Ġutter ly
etermin ed
p ath
cont ent
Äł l
con ce
ie f
ene tr
U T
it able
hen sible
ant e
ex pl
R e
g reg
m ort
ar ge
stru ction
l ike
Ġh on
Ġhe ter
Ġattain ed
P roject
o cc
Ġ 9
Ġt able
in ternal
Ġthe ory
Ġre du
Ġd own
Ġex per
Ġl abour
Ġnot ions
us ory
Ġun condition
ide a
Ġtr ansc
Ġim pl
ant ed
str atum
feren ces
Ġdut ies
sen sibility
ful ly
Ġpoint s
Ġcontradict ory
contr ary
Ġconf lict
Ġarr ive
Ġmem bers
Ġfunction s
subst ance
Ġinfin ity
Ġdon ations
Ġcosm ical
n on
ab str
S C
ist s
Ġse qu
com pre
ck on
c rit
re t
er it
ac y
oun ce
g reat
i ang
v ol
Ġo m
if ication
ire ction
Ġsec ure
ang er
disc over
f ar
m atter
w w
Ġin dis
ing s
ar s
Ġgiv ing
Ġacc ess
ĠW ith
form er
a ight
o in
s cience
er iori
Ġs ake
Ġto wards
Ġf ill
Ġd irection
om ogeneous
as h
Äł b
Ġcan on
Ġde f
Ġde pendent
act ions
Ġthere in
Ġme et
pir icism
Ġmor ally
Ġad m
be en
ĠW hat
ither to
ĠH ow
necess arily
Ġkind s
ĠL iterary
Ġpresu pposed
Ġarr angement
ob ser
Ġspeci al
ĠPr actical
ĠII I
Ġdialect ic
cor respond
Ġoper ations
Ġsuffici ently
O R
l ight
so ci
h ig
i an
Ġu r
N D
w hen
al ent
or row
Äł a
H ow
p ress
le v
Ġpr ud
im mediate
el f
univers al
xi om
S u
f irst
is ible
Ġpro b
Ġper ceived
Ġacc ident
Ġma j
Ġpl ain
Ġcl ass
Ġcompre hend
e ffect
t imes
Ġf an
Ġn one
Ġre ciproc
Ġpr iv
Ġex position
Ġl os
ur ally
ore tic
us iness
Ġcom posite
Ġr ise
ex ternal
Ġev idence
Ġpur ity
Ġfe ar
Ġprodu ct
determin ing
Ġstr aight
Ġwhere as
Ġtot al
Ġequ al
ĠThere fore
Ġden y
Ġoblig ation
ĠeB ooks
limit ed
Ġpret ensions
Ġanal ogy
Ġignor ance
Ġspontane ity
ĠAr chive
Ġpsych ology
ĠPrinci ples
Ġcarr y
sub sist
inv estig
e em
cont in
ix ed
d en
en ess
or g
ib nit
Äł t
p oint
s ince
Ġs ever
Ġun ited
Ġso phist
uth oriz
stru ct
ibnit z
A S
P r
W hat
s ide
v ious
Ġ ic
Ġf ail
Ġre ceived
Ġd ivers
as ant
Ġas soci
Ġl ove
if ice
Ġreason ing
Ġde fect
ĠA ccording
sp here
Ġsub stratum
Ġcontain ing
exist ent
Th at
Ġfeeling s
ĠCon ceptions
Ġimper atives
Ġobser ve
Ġattrib utes
Ġsignif ication
Ġprev ent
Ġprov ided
Ġop en
Ġanal og
Ġnoumen on
pens able
vel op
Ġul timate
ren g
mort ality
iang le
c ceed
h and
l at
ire d
t ion
it ude
ĠO R
e ibnitz
it es
at or
at tain
cl aim
Ġcont em
pt er
iz ation
mis sible
Ġspeci es
p ower
Ġs k
Ġp ublic
am ed
Ġus ed
Ġpres ence
Ġass ign
Ġabs urd
Ġopp on
W h
i ld
i ally
Ġt itle
Ġs he
Ġb ack
Ġf our
st hetic
ut y
ĠI m
Äł de
ul a
Ġde t
ĠF rom
ĠP ro
Ġpl an
ĠG eneral
with standing
man if
ang u
ĠU nderstanding
Ġstand ard
certain ty
Ġassert ion
Ġlong er
Ġdemonstr ate
Ġce ase
Ġlegisl ative
Ġund etermined
proposition s
Ġthorough ly
Ġpar agraph
Ġnoumen a
Ġprevious ly
ĠSp ace
Ġcircumst ances
Ġschool s
avoid able
Ġsever al
O U
Ġan g
th rop
Ġat e
op ular
part icular
val id
a ir
u ous
Ġpr act
Äł h
iz es
Ġworth y
iber ty
j oy
th rough
ust r
Ġs ight
Ġre c
Ġh um
Ġpro cess
tr uth
Ġen lar
Ġjust ice
) âĢĶ
it ing
Ġw rit
Ġp ast
Ġin du
Ġin formation
Ġm ention
Ġre ce
Ġcon fin
Ġh itherto
Ġas c
ir med
Ġun known
Ġv ent
ad emark
ound ed
Ġnat urally
Ġqu ality
Ġrel atively
ĠA t
Ġch ain
Ġpart ly
ign ity
pro ceed
ha pter
Ġmind s
Ġproceed s
Ġdec ide
Ġdefin ed
Ġmetaphys ical
Ġprov ide
Ġdemand s
Ġintu ited
ĠUn ited
Ġdiscus s
Ġobserv ation
Ġfurn ish
E D
m ot
t s
Ġt urn
nat ural
** *
t urn
in f
re st
is sim
at er
Ġs a
p ost
Ġ =
the oretical
Ġdisc ern
we ll
a dequate
u g
Ġhe ld
Ġcontr ib
Ġsatisf ied
crib es
Ġconcern ed
Ġs ent
al s
Ġin separ
Ġb ene
Ġb orrow
Ġb usiness
Ġf irm
Ġe lev
Ġwe ight
Ġsu cceed
Ġcom position
Ġper manence
Ġst ud
ac hes
ĠS o
ĠS y
ĠO ur
Ġob st
Ġob sc
âĢĿ ;
Ġadmit ting
Ġquant ities
Ġaff ord
rel ate
Ġwant s
Ġdemonstr ation
Ġhold s
Ġproblem s
Ġden ied
Ġvari ety
every thing
Ġspring s
exam ple
Ġignor ant
Ġauthor ity
Ġdiscus sion
Ġanteced ent
Ġfore ign
Ġexact ly
quant ity
Ġscept icism
Ġdom ain
Ġmaj or
n ex
pl ay
ma xim
TI C
l ook
Ġm ist
Äł con
sel ess
acc ord
ialect ic
END ENTAL
v ere
su per
ne g
er t
be fore
cont ing
ÄłÄłÄłÄł ÄłÄłÄłÄł
distingu ish
SC ENDENTAL
g l
g ress
s ay
Ġp un
ur ing
Ġunder stood
ind ic
Ġprodu ction
Ġexpect ed
Ġadd ed
B y
o ple
Ġa xiom
re es
it led
le ast
Ġd est
Ġd anger
ent ific
Ġl ost
Ġl ower
cept ivity
Äł A
Äł ex
if ied
ol iness
ĠĠĠĠĠĠĠĠ Ġ
Ġca p
Ġpossib ly
Ġim mortality
Ġper form
Ġapp arent
ĠP h
ag ed
Ġsci entific
Ġpres er
Ġappl ies
ĠD e
Ġimp ul
Ġconstit utive
Ġadmit s
Ġpresu pposition
Ġill usory
Ġind if
Ġafter wards
Ġant it
Ġ2 00
Ġinst ance
connect ed
Ġspe aking
Ġinquir ies
Ġabs ence
att empt
Ġear th
RAN SCENDENTAL
Ġdat a
Ġeffort s
issim um
C on
a ff
d raw
Ġg l
ci es
O n
p sych
st ant
ig ion
min d
Ġen g
oub ted
Äł P
Ġse en
gg est
Äł o
Ġint ention
Ġtr y
Ġqu al
phys ical
app re
a fter
ic o
ur ity
act ory
Ġnecess it
Ġim age
are r
Ġrem o
Ġappl icable
c ul
Ġp ay
Ġin ference
Ġm ark
ed ience
Ġe th
Ġre ckon
Ġd ignity
ut ation
Ġpro ves
Ġtr iangle
Ġst reng
one y
ĠN ay
Ġsub sum
ĠC osmological
ici ans
Ġexam ine
Ġorigin ate
Ġdiv ided
Ġdedu ce
Ġconcl ude
Ġsecond ly
Ġind irect
being s
Ġdemonstr ated
Ġequ ally
Ġrender s
Ġsmall est
complete ly
Ġendeavour s
Ġconv iction
Ġexhib it
Ġra ised
mathemat ics
worth y
Ġlearn ed
Ġdivers ity
S T
Ġf it
Äł e
con sequ
um er
Ġit y
ir it
ex pect
ex press
J EC
Ġc r
Ġan ci
IT Y
Ġ 7
Ġa uthoriz
pr i
ag ain
Ġest im
Ġes ca
leg isl
Ġfig ure
. )
A s
_ .
l ies
ain s
Ġag greg
subject ive
inde pendent
Ġprop ortion
manif old
, "
T ranscendental
g es
g utenberg
o very
t ake
in asmuch
Ġb est
Ġm erit
Ġm oney
an other
Ġre ceive
im ag
Ġfor ces
th us
Ġde velop
Ġsp irit
Ġem piricism
ori ous
ĠP U
ĠP RO
Ġrepresent s
ĠĠĠĠĠĠĠĠĠĠĠĠĠĠĠĠ ĠĠ
ĠN o
Ġsub l
imit ive
Ġdifferen ces
ĠH ere
Ġproceed ing
Ġanaly tic
Ġref lect
reg ress
Ġbegin s
Ġexpress ions
Ġhypothe ses
cise ly
Ġdeg rees
Ġinvestig ations
go ing
Ġpost eriori
Ġerror s
Ġinvol ves
Ġinfer red
fe el
nit ude
Ġprof ess
Ġpostul ate
him self
ĠSt ates
Ġpriv ate
Ġlos s
subsist ent
angu age
c ern
j un
Ġu m
y ou
Ġ ver
Ġo l
ER G
o ined
v ice
st ep
Ġon t
Ġform ed
pro of
Ġgu ard
Ġaccom p
B ERG
o per
p or
Ġ 6
as sert
Ġu su
Ġon es
Äł r
Äł v
Äł pr
if y
con d
wh ile
Ġconsist ent
Ġcontin ue
Ġallow ed
a res
i k
Ġp opular
Ġre n
Ġre p
ar gum
as ed
Ġha bit
not ion
Ġobser ved
Ġinvol ved
Ġlead s
employ ment
H ence
t wo
Ġthe oretic
re f
Ġw ishes
Ġs ign
Ġin cre
ou ble
Ġre turn
ent ially
Ġh oliness
Ġas cribe
Ġan imal
Ġex c
Ġnot withstanding
Äł dis
ĠT ime
Ġobject ions
Ġcom es
ide as
Ġany one
Ġform ing
su pp
Ġsh ort
Ġsubject s
Ġdis appear
tern ally
Ġser ves
Ġpl aces
Ġfollow ed
Ġrem arks
ĠH ume
Ġact ivity
Ġfe w
Ġext ensive
Ġthink s
Ġreal issimum
Ġent er
determin e
Ġincl uded
Ġshow s
Ġrequire ment
Ġappear ances
Ġproof s
fic ial
Ġexpress es
Ġsatisf y
Ġneg ation
Ġco existence
Ġinqu ire
Ġpreced es
Ġprom ise
ĠY OU
ĠIde as
Ġche ck
cogit ate
ĠÃ ¦
Ġpe ople
Re ason
Ġindis pensable
for tun
pre t
ob lig
b id
ain ed
and on
em ber
Ġse arch
ici an
h ypothe
t t
Ġw ays
pl ic
ult iv
cons cious
Ġstr u
h uman
it ect
it imate
Ġm o
Ġex ception
. "
S E
se ly
Ġocc ur
Ġav ail
Ġful f
Ġbl ind
F rom
t il
Ġc al
Ġs ays
Ġb ad
Ġb old
Ġm in
Ġm ult
le ase
Ġbe h
Ġh omogeneous
Ġpr os
Ġex ec
Ġex tr
Ġl iberty
ist ance
âĢ Ļ
Ġde v
ol ution
Ġv iz
Ġim manent
Ġper su
Ġper mission
ever theless
Ġdis cipline
Ġdis play
Ġpre cede
fin itum
Ġend less
Ġcaus al
ĠG UT
ĠC h
Ġob edience
ish ment
Ġrespect s
Ġdisc overy
Ġfe e
Ġen joy
ĠE m
Ġent itled
Ġatt end
ĠD o
ĠD iv
determin es
Ġstr ong
Ġconsider ations
Ġref und
Ġcommon ly
ĠL eibnitz
Ġcomp ly
Ġassum ption
EN BERG
Ġperson s
Ġgu ide
Ġsc hemat
Ġcop ies
mor ality
Ġco existent
Ġprom ot
regard s
dif fic
Ġcho ose
Ġcontinu ous
Ġinfin itum
incl ination
Ġconstruct ed
Ġintrodu ce
consist ent
Ġprecept s
Ġsepar ate
Ġcreat ure
Ġstatement s
Ġgen u
Ġgeometr y
conce it
Ġuncondition al
Ġsophist ical
Ġassoci ated
Ġoppon ent
JEC T
ĠGUT ENBERG
c he
Ġ ion
in ct
ex er
P L
d og
ust om
un te
Ġmed iate
i ol
Ġ id
at i
an k
con ci
con cern
de fin
Ġpl ay
pro ble
E M
f ound
l ine
Ġ 0
Äł S
Äł w
de pend
Ġacc ur
obser v
Ġang les
I R
s ignif
in qu
in finite
at io
or s
Ġh oly
Ġpr im
Ġor d
ple asure
ord er
Ġle a
app ro
Ġder iv
Ġspeci f
inf luence
conting ent
f oundation
p ass
w ere
Ġt w
he sis
in ter
in ary
Ġw ond
Ġc ost
Ġp aid
Ġin ferences
Ġb u
le ological
Ġre ceptivity
Ġcon stant
Ġh ist
im er
ow ed
Ġsu ggest
Ġreason s
Ġun avoidable
tr ans
Ġhe av
Ġim possibility
Ġrel igion
nthe tical
Ġknow s
str aint
Ġpart y
ĠS olution
sol ution
Ġgo es
ach ing
ĠE pic
exist s
ang ed
Ġconstit uted
ĠM or
Ġcommon est
ĠL icense
Ġassum ing
Ġattain ment
Ġdefin e
Ġimag ine
cognition s
Ġcorrespond s
Ġut ility
Ġideal ism
Ġremark able
regard ed
Ġfall s
inte l
judgement s
Ġmed ium
AR T
ru it
never theless
appl ication
follow s
Ġadvance d
metaphys ics
urs ive
tot ality
Ġta x
Ġmag nitude
Ġmechan ism
Ġhon est
Ġexper iment
Ġimpl ies
correspond ing
investig ation
Ġsa fe
Ġstud y
accord ance
Ġantit hesis
plic ity
I L
O G
v iew
ou red
Äł C
ad dition
Ġus ing
s cept
al ogism
nd ered
se cond
il i
de g
ol og
est abl
Ġapp e
ĠN O
intel lectual
P R
e qu
f ind
p ot
Ġfor ward
con v
con cept
Ġgr ad
Ġact s
Ġaw are
br ated
l ogical
n or
Ġt al
in st
Ġfor tun
tr odu
Ġdo ctr
Ġch arge
pre ced
Ġsub sist
Ġhapp y
ĠE very
Ġest eem
abl es
Ġill ustr
Ġphys ics
Ġconv in
Ġtrans gress
E x
in ions
le brated
Ġas ide
Ġl ist
Ġl anguage
Ġwe ak
Ġpro posed
Ġreason able
ĠT O
Ġun til
ĠĠĠĠĠĠĠĠ ĠĠĠĠ
Ġtr ademark
Ġhe ad
Ġim it
Ġper mit
Ġform ula
present ed
Ġad apt
et ent
Ġar ising
Ġsome times
ĠN at
ĠN ot
Ġfre qu
be yond
The se
Ġlimit ations
Ġsay ing
ĠE ven
Ġatt ached
ĠD eduction
Ġsec ret
Ġconcl uded
Ġconf ess
Ġaff irmed
Ġdesire d
Ġfin al
Ġess entially
Ġdiffic ult
Ġmaterial s
Ġprom ote
Ġcirc le
consid ered
Ġdistrib ution
subst ances
Ġcomb ination
Ġoccup ied
system atic
div ision
satisf action
Ġsyllogism s
Ġsubordin ate
hig hest
immediate ly
Ġrec ourse
Ġvent ure
Ġinsepar ably
Ġaxiom s
Ġeng aged
jun ctive
Ġont ological
ĠÃ¦ sthetic
Ġlea ves
Ġl ed
Ġab ility
oy al
m ain
ru pt
I M
d edu
f act
s how
t al
iv alent
ve y
il st
com mon
re am
en ed
at trib
ce asing
ĠI V
pos itive
ment ion
Ġ1 5
dist inction
philos opher
requ ire
oriz on
unte ers
f all
l ing
Ġpr ot
im per
Ġl ines
Ġg et
Ġv an
Ġpre p
ĠW h
Ġsubst ant
Ġconf irm
Ġant icip
Ġ2 0
Ġprud ence
Ġcontem pl
Ġsk ill
O f
d ec
d uty
f undamental
g ive
r ong
r ule
y et
Ġ ical
in ity
Ġo be
it as
Ġw ide
Ġs ac
Ġin sufficient
ing ly
Ġh ind
Ġpr imitive
Ġas cribed
Ġsu itable
ur ious
ĠI N
ul ate
Ġun limited
Ġcom pl
Ġme asure
Ġhe art
Ġim poses
Ġper i
ac ity
Ġad du
Ġch apt
ĠS EC
ress ions
ĠIn t
Ġcomple x
ĠIt s
ĠW hether
Ġgo al
Ġgo ver
ser ted
Ġemploy ing
ĠH is
Ġpres cribes
ĠD I
ĠD is
determin ations
Ġincl uding
Ġcharacter istic
Ġdec lar
Ġdiscover ing
OO F
Ġmod er
Ġwant ing
part s
Ġinvestig ate
Ġexplain ed
Ġgener a
Ġfall a
Ġpath ological
Ġaffirm ative
Ġaddition al
Ġdefinition s
Ġjustif y
inde ed
Ġobtain ed
exam ination
requ ires
Ġsch ol
Ġprof ound
Ġanteced es
appl ied
proper ly
Ġpsych ological
Ġrefer red
Ġdecl ared
Ġro ot
Ġorgan ized
ĠK ant
Ġcare fully
Ġcre ation
tot al
compre hensible
Ġreciproc al
AS ON
Ġdefect ive
lat o
Ġpract ice
appre hension
ĠPRO JECT
Ġsign s
Ġgenu ine
PR OOF
d irect
n ce
re strict
it ious
Ġat ed
be gin
imp ort
d oubt
s ing
er y
su ffici
A CE
Ġ il
ver s
Ġat ions
tr anscendent
ix t
ante ced
C T
P RE
i ences
u el
Ġa ir
en omen
an throp
ent ire
the ology
ch itect
am ong
ex cept
wh o
un al
Ġcl ose
wor k
analy tical
adv antage
Ġom ni
/ /
A ccording
b ig
e lement
l abour
re me
ic k
or ical
Ġf ruit
Ġd ur
Äł D
per son
Ġat tr
pos ing
Ġsy m
ant s
Ġdes c
Ġcomm un
ĠRE M
abstr act
: //
A nd
A TION
R I
g ing
m ode
o x
o pposition
Ġ 8
Ġt re
Ġt ill
re ally
Ġw ar
Ġs ound
al og
Ġin j
Ġin struction
Ġe fficient
le ad
Ġre ject
Ġwh ilst
ar ies
Ġh yp
im ents
Ġfor bid
Ġsu ff
Ġsp aces
Ġtr ouble
ĠB esides
Ġab andon
Ġper mitted
ant ages
Ġst art
Ġrel ated
Ġev id
ac ing
ĠP henomen
so ever
Ġpre jud
ĠĠĠĠĠĠĠĠĠĠĠĠĠĠĠĠ ĠĠĠ
Ġthen ce
Ġwhen ce
Ġgr anted
ĠC ON
Ġob vious
Ġconnect s
Ġcomm ence
Ġrem ove
other wise
Ġinde pendence
ĠE go
exist ing
ĠD ialectic
Ġincl ude
cogn ize
Ġsens ations
Ġrequire ments
Ġdiv ine
Ġcontradict ions
Ġsupp ly
Ġexpress ed
intuition s
ma de
Ġconf idence
Ġconf used
ĠOn ly
Ġac ute
Ġattrib uted
Ġher self
Ġdiffic ulties
Ġdoubt s
Ġce lebrated
Ġaffirm ation
objective ly
Ġsmall er
Ġte leological
Ġoper ation
AR K
Ġcomb ined
ĠIde a
Ġoccup ies
Ġra ise
follow ing
ĠJ udgement
perfect ly
ĠRE ASON
Ġdeser ves
Every thing
speci es
Ġgen us
change able
Ġaccom pl
conform ity
Ġconver sely
Ġsubordin ated
Ġheter onomy
Ġredu ce
abstr action
Ġsequ ence
ĠWith out
Ġadm ir
ĠSy nthetical
Ġdest ination
Ġimpul ses
Ġesca pe
Ġaggreg ate
Ġones elf
Ġmin or
Ġschemat a
Ġperi od
g ener
Ġ ve
Ġtr ib
cor rect
A M
Ġ ive
ib ly
ass um
sim ilar
ug ment
A n
W ith
Ġa ge
ition s
Äł en
ple asant
Ġsp ect
ialect ical
ÃĦÅĤÃĦÅĤ ÃĦÅĤÃĦÅĤ
occ up
main tain
a ps
a enomen
b od
g er
Ġ ies
it io
at us
Ġc ur
st atement
Äł M
ec ond
ab s
ac her
Ġad missible
com par
i ance
Ġt yp
Ġc ultiv
Ġs ection
Ġis ol
om p
ur ality
Äł n
con cl
Ġal ter
Ġr id
su pposition
Ġmor tal
com b
Ġ1 0
rel ations
Ġsatisf actory
Ġset t
Ġleg itimate
Ġly ing
Ġcoun ter
V E
b oth
e ach
f ace
g ain
m ake
Ġt ast
is able
is ibility
Ġw rong
Ġs ides
Ġs light
or m
Ġf ive
se c
ou se
Ġre ndered
Ġd ict
st ate
ut ions
ect ed
Ġh y
Ġas serted
the ological
Ġex posed
Ġl ose
Ġl oc
Ġsu sp
qu ite
Äł an
Ġpro pose
Ġobject ion
Ġde ep
Ġal ong
ab ove
Ġun ceasing
um ber
tr ue
Ġr ank
Ġme ant
Ġim posed
Ġse at
Ġst ated
Ġrel ating
ĠP lato
Ġdis junctive
Ġpre mis
Ġpre cisely
Ġch imer
Ġpart ies
ĠS ince
ĠN e
ĠN evertheless
ĠO bject
Ġser vice
Ġpresent ing
ast ic
Ġgood ness
Ġout side
Ġpossess ed
oun ces
Ġimp art
ĠM at
ĠM etaphys
Ġcomp are
Ġadv antages
Ġill usions
Ġright ly
Ġed ifice
Ġextend ing
Ġconcern ing
certain ly
Ġmod ality
Ġut most
Ġequ ivalent
Ġsignif ies
comple teness
sim ple
Ġharmon ize
Ġund oubted
Ġconj oined
Ġtreat s
Ġdistrib ute
Ġdistrib uting
Ġcriter ia
comm and
Ġstrict ly
Ġexhib its
Ġexcl uded
Ġbl ame
Ġpursu e
Ġfore going
Ġdel usion
Ġappro xim
sum mum
ĠSp eculative
consider ation
ĠPrinci ple
contain s
contain ed
ground s
Ġadopt ed
think ing
predic ates
belong ing
success ion
sens ation
Ġannihil ated
expl anation
Ġsequ el
ĠAccording ly
Ġconfin e
Ġborrow ed
Ġobst ac
Ġpreser ve
Ġstreng th
hypothe sis
tt p
Ġbeh ind
exer cise
deg ree
Ġgover n
ixt ure
Ġdur ation
Q U
i er
o ot
¢ Ä
Ġm on
se t
Äł E
pr op
dist rib
aff irm
Ġa st
or ph
so le
int u
c ol
c lear
i able
m od
s our
Ġn ess
if orm
ans w
pr ogress
Ġple asant
ne ed
AR RAN
a uthor
c o
c ks
f it
p rom
r i
al t
se e
ot t
pr ight
un condition
ĠO N
av oured
ane ous
ogene ity
inqu ir
H ere
d eduction
e e
Ġt ell
Ġt aking
ic ion
Ġb re
ut able
Ġl ink
con struction
il is
Ġun ion
cl os
Ġar chitect
op e
me thod
Ġcogit ating
Ġattempt ed
Ġappre hend
ash ion
expect ed
Ġfulf il
C hapter
G od
L et
Q u
S I
d ialectical
m ight
n ay
Ġt end
Ġthe sis
re ference
it ate
Ġc le
Ġp enetr
Ġin ward
Ġf ict
Ġre sol
Ġre comm
Ġre place
Ġcon straint
Ġd r
Ġd im
Ġd ream
Ġbe ar
ar bitr
Ġh id
Ġh ard
Ġl aid
res ult
Äł st
ĠT RANSCENDENTAL
con ceived
Ġde pr
Ġint ended
us ive
ill usion
Ġun worthy
Ġthere to
of old
Ġunder t
Ġwill s
Ġany where
Ġform at
Ġst op
ĠA uthor
un less
Ġsubject ed
ĠP er
Ġdis claim
Ġpre fer
tern ity
ĠS to
Ġwhat soever
Ġne arer
Ġcomple tion
Ġgr ant
ĠC ategor
ĠC hapter
ser ve
Ġthought s
Ġconsid ers
Ġen ables
ĠE BOOK
Ġpres um
Ġam big
man ner
man uel
Ġorigin ated
ĠM y
ev ident
ĠL ogic
Ġcomp ared
Ġattain ing
Ġbefore hand
empirical ly
ĠCon ception
Ġset s
Ġdistingu ishing
Ġperson al
Ġnum er
ane ously
ail ed
any thing
Ġop inions
Ġexpect ation
ext ension
Ġallow able
Ġprom ises
Ġdepend ence
regard ing
dif ference
Ġmaintain ed
Ġte ach
Ġte aches
Ġbring ing
Ġcorrect ness
limit s
Ġask ed
Ġseek ing
Ġrecogn ize
Ġrecogn ized
Ġspontane ous
ĠĠĠĠĠĠĠĠĠĠĠĠĠĠĠĠĠĠĠĠ ĠĠĠ
ĠIde al
incl uding
Ġro om
ĠJ ust
distingu ished
mathemat ical
ins ic
presu pposes
predic ate
Ġannihil ate
Ġhon our
Ġheter ogeneous
Ġtransc end
Ġprob ably
Ġanalog ies
ĠIm manuel
valid ity
Ġmention ed
Ġrece iving
draw n
Ġremo ved
Ġeth ics
Ġindirect ly
again st
ĠPU RE
Ġcal cul
depend s
Ġdoctr ines
Ġadapt ed
Ġchapt er
ĠJudgement s
Ġtast e
Ġhy per
Ġsusp icion
c hed
in c
Ġo g
en lar
iv able
Äł ad
Äł pre
contin u
A N
R IN
r ist
Ġ ence
er r
ant icip
ob tain
gr ad
oc k
O M
a f
i us
re ciproc
er able
Äł su
ind is
el s
P H
m o
Ġ ions
re nder
Ġis t
ent ia
Äł im
Ġpro ving
ori ly
Ġj oin
Ġact ive
Ġread y
Ġcompre hensible
Ġaccomp an
U C
i ating
l ong
al th
Ġan n
ir ing
ul ae
Ġpro pri
ĠT r
il ities
Ġem br
el se
und red
Ġerr one
metaphys ic
neg ative
Ġfortun e
imper ative
7 8
F ACE
c op
c oun
c osmological
e lectronic
f ers
i ology
l ied
m ember
n umber
o pposite
w as
Ġt alent
Ġa ugment
Ġthe ological
is ions
at icism
Ġc ent
Ġin adequate
Ġf ashion
an ations
Ġe ternity
Ġre ve
Ġre pro
Ġre ached
Ġd am
Ġd ays
Ġd imin
Ġh orizon
Ġpr a
im ity
Ġl arge
Ġwe lf
Ġfor ced
ur us
ist ics
Ġde ath
Ġde part
Ġal leg
Ġal most
ore over
ill ed
Ġun certain
Ġsp ite
est y
Ġdo ll
ĠB oth
ad missible
Ġsh ap
ĠF irst
ĠF reedom
Ġide ality
Ġrel ative
Ġch ance
Ġsome what
ag ree
ĠO r
mat erial
ĠC om
Ġemploy s
Ġdisc ursive
Ġinde termin
Ġinde finite
ĠH im
Ġext reme
Ġen ounce
under stood
Ġout ward
Ġass ured
Ġprodu cing
Ġsynthetical ly
Ġincl udes
Ġimp ly
Ġview ed
Ġcor relate
Ġest imate
Ġpower ful
ĠL et
Ġsee ks
Ġdec ided
ĠU se
Ġclear ness
Ġright s
crib ing
Ġextend s
Ġansw ered
Ġexer c
Ġread ily
Ġcommand ed
Ġvirt uous
ĠTH IS
Ġover step
Ġhold ing
Ġdoubt ful
pure ly
Ġpass es
Ġpreced ed
Ġprogress ion
ne ither
Ġpeculiar ity
Ġdraw ing
disc overed
Ġanalytical ly
categor ical
Ġte acher
inde pendence
Ġpar alogism
Ġmoment a
ĠEx perience
Ġestablish ment
caus es
ĠĠĠĠĠĠĠĠĠĠĠĠĠĠĠĠĠĠĠĠ Ġ
ĠĠĠĠĠĠĠĠĠĠĠĠĠĠĠĠĠĠĠĠ ĠĠ
Ġdestr u
ĠV II
Ġche cks
Ġdecl ares
Ġorgan on
constit ute
constit utive
Ġdeser ve
Ġdisp ute
Ġdisp utes
Ġcre ated
Ġscept ical
Ġfa ith
my self
speci al
Ġgain ed
Ġdogmat ic
Ġhigh ly
sens es
Ġmag n
Ġcol our
ĠAN Y
Ġredu ced
Ġuncondition ally
crit ical
ĠHow ever
hig her
Su preme
Ġaccident al
Ġfirm ly
Ġobsc urity
nex ion
Ġindif ference
Ġindif ferent
psych ology
legisl ation
Ġdisappear s
Ġavail able
Ġenjoy ment
che ty
defin ition
observ ation
Ġwond er
Ġbu ild
Ġhist ory
ĠNat ure
mention ed
import ant
PRE FACE
According ly
ĠREM ARK
Ġtre ated
Ġwar ning
ĠPhenomen a
Ġtrib unal
aenomen on
Ġslight est
Ġwelf are
a ffect
v ari
Ġ -
Ġm ent
ar ante
Äł g
Äł per
ca p
ost at
cont em
dem and
a u
f lu
Ġin c
se arch
Ġan ce
ev ol
A B
C I
T Y
c id
i ality
k en
u ity
Ġo us
en g
ce ll
ar mon
Ġan throp
Äł tr
ore al
est eem
irt ue
IL ITY
n ed
n oumen
o ad
s mall
Ġ z
Ġ ers
Ġin ner
ter m
ci ation
con struct
Ġat ing
ind ividual
under stand
Ġchange able
arr ass
Ġchang ed
vere ign
Ġusu al
proble matical
? "
w ord
Ġin struct
Ġf l
an c
Ġe rect
Ġd ay
as is
im ental
con duct
Ġr ation
Ġprinci p
so phist
Ġatt ack
Ġ5 0
success ive
path ological
Ġcontem por
feel ing
" ;
T RANSCENDENTAL
U L
b arrass
c our
c ases
h omogeneous
o pp
o ice
p et
p oreal
v iz
w ay
in ally
Ġw a
Ġw id
Ġw ater
Ġc red
al f
Ġin here
Ġin stit
Ġb ase
Ġth y
Ġth reat
Ġm ut
Ġm und
Ġf ile
Ġf oot
Ġn ull
se m
Ġre d
Ġre pe
Ġcon ject
st ill
Ġh undred
Ġpr ide
Ġu seless
Ġu pright
Ġex pose
Ġsu scept
Ġg if
ain ted
Ġpro pens
ĠT ot
Ġint ensive
ab led
Ġun b
Ġun necessary
Ġun iform
Ġr ange
Ġexist ences
Ġv iol
pr of
Ġhe ar
Ġim prov
su preme
ĠF OR
Ġqu ar
now ledge
ĠA l
ĠA pp
ĠA nt
ac ks
un t
Ġy ear
et ween
Ġar chety
Ġsynthe tic
ĠS elf
Ġsub mit
Ġpl urality
Ġend owed
ort unity
pro ved
pro cedure
Ġrem ote
Ġsystem s
Ġexam ined
Ġen abled
Ġyou th
Ġent ered
lect ive
cogn ized
Ġorigin ally
Ġshow ing
Ġquant um
ĠM e
Ġconsider ing
Ġdiv isible
Ġadv isable
Ġmatter s
Ġconce al
lu ences
Ġremain ing
Ġdec om
Ġdec ision
Ġpresu pposing
Ġconf usion
Ġcl os
Ġaff inity
Ġple ase
Ġconform s
Ġset ting
Ġarr anged
Ġimper fect
Ġregress ive
Ġel aps
Ġperson ality
Ġexer t
Ġseem ed
Ġindic ating
do ctrine
Ġconduct ed
Ġess ence
Ġfall acy
Ġsuper ior
happ ens
Ġsing ular
Ġvol unteers
00 0
Ġtreat ise
Ġbring s
limit ation
Ġdistrib uted
ap perception
Ġintu itive
peci al
Ġcontinu ed
intellig ence
ĠUn ity
ordin ated
ĠEx position
Ġexhib ited
quest ions
Ġdesign ate
Ġobserv ations
Ġbecom ing
synthetical ly
IN G
Ġsur face
Ġsort s
Ġro ad
Ġpostul ates
ĠK nowledge
Ġoff ice
Ġacqu ainted
cogit ated
ĠÃ Ĩ
Ġgeometr ical
demonstr ation
Ġpe ace
Ġcol lection
Ġmechan ical
ww w
Ġdirection s
Ġprud ent
Ġaccident s
Ġproduct s
Ġanalog ous
Ġassign ed
ĠPro of
ĠPro ble
Ġhum ili
Ġobst in
super sensible
ert itude
Ġpun ishment
Ġcap acity
ĠPh ilos
ĠPh ys
consequ ences
Ġanci ent
Ġanci ents
imag ination
Ġdevelop ment
Ġsubl ime
argum ents
oblig ation
Ġmult itude
Ġpros pect
ĠDiv ision
IR ST
Ġtw ofold
Ġheav en
ĠEpic urus
Ġappe al
Ġgrad ually
ĠĠĠĠĠĠĠĠĠĠĠĠ Ġ
Ġvan ity
Ġsac r
Ġcompl iance
ĠInt uition
ĠDis cipline
suffici ency
entire ly
Ġhyp ostat
Ġadmir ation
bod y
econd ly
Ġisol ated
Ġsett led
Ġdoll ars
Ġelaps ed
8 0
f ig
om orph
Äł u
ad d
des er
ap odeict
6 8
A G
B e
C L
o ast
p o
ul g
ple x
ab or
ne w
L I
a el
Ġa f
at iv
ich ael
Ġu re
Äł sub
edu c
ech n
comm un
c irc
l imin
o res
ic ated
ar m
ist inction
Äł T
tr y
ad mit
ĠS T
sol u
form al
sy llogism
Ġcogit able
app ly
IT ED
AM AG
B eing
O L
in al
al id
es pect
Ġm ov
Ġf ix
Ġre conci
ur y
ist ence
if ies
ĠB e
Ġhe s
et ch
ress ion
ag greg
Ġpos ited
Ġam ount
Ġprodu ctive
lect ed
determin ate
Ġself ish
acc ount
wor ks
des ire
Ġrestrict ed
Ġstru gg
anteced ent
Ġomni pot
flu ous
, [
; _
B ook
O ur
b ased
b asis
e avoured
g ives
j unction
s us
u ct
v irtue
w ish
Ġt echn
Ġs ite
ic ial
Ġin consistent
Ġb ott
or ies
Ġm id
Ġf iction
Ġf latter
Ġre vol
Ġd ue
Ġbe a
om ogeneity
ot le
Ġh ouse
Ġpr int
os en
Ġon line
ow ers
Ġsu pposing
ver se
Äł ch
per haps
em br
Ġde al
Ġun changeable
âĢĶ âĢľ
ĠĠĠĠĠĠĠĠ ĠĠĠ
ĠĠĠĠĠĠĠĠ ĠĠĠĠĠĠĠ
Ġ( Â§
Ġthere with
Ġr ad
Ġr ash
Ġr oyal
Ġso vereign
ide al
Ġv is
Ġwill ing
ad istinction
Ġform ation
Ġno ble
Ġsh ar
Ġsh are
ement s
Ġad mission
ĠP ossib
Ġworld s
fere d
Ġch osen
sp eculation
ĠĠĠĠĠĠĠĠĠĠĠĠĠĠĠĠ ĠĠĠĠĠĠĠĠĠĠĠĠĠĠĠĠ
Ġma ch
Ġfar ther
Ġcomple ted
Ġbel ow
Ġcont act
ĠG ree
ĠW ARRAN
Ġgr ow
Ġgr and
Ġcontr ast
are st
Ġdes p
ĠH art
Ġfe es
Ġen umer
Ġag ent
Ġground ed
ĠE X
Ġmaxim um
Ġpossess ing
av ing
Ġsim plicity
Ġatt ended
ang es
Ġimp ressions
Ġfeel s
there by
Ġmode l
Ġinf all
Ġexpl anations
ĠM an
Ġwhere in
Ġproceed ed
reg ulative
Ġcomp ut
Ġcomp ens
Ġsee ing
Ġfree ly
Ġ1 2
Ġsupp lied
Ġphys ico
Ġdirect s
Ġarr ange
Ġarr iving
ON D
Ġocc urs
perception s
Ġansw ers
Ġimag inary
Ġparticular ly
Ġgu arante
Ġindic ated
contradict ions
Ġmethod s
Ġover look
Ġbelie ves
Ġequ ip
Ġtheoretical ly
Ġpost ed
Ġbound aries
Ġexplain ing
Ġmis understanding
Ġapply ing
Ġlook ing
Ġlook ed
Ġmaintain s
Ġaddition s
Ġfalse ly
philos ophical
br ought
Ġdisposition s
Ġobtain ing
Ġtrans ition
rem ains
Ġrecogn izes
Ġexcl ude
Ġ3 0
appl icable
Ġpursu it
Ġpursu es
produ ce
produ ced
Ġadvance ment
conf idence
univers ality
Ġpostul ated
perfect ion
Ġpositive ly
Ġwit ness
possess es
Ġfa ult
Ġaccept ed
Ġcircumst ance
Ġdogmat ism
Ġhappen ed
Ġdat ur
Ġkeep ing
Ġir re
path y
enetr ability
Ġlabour s
Ġconflict ing
effect s
Ġfan aticism
Ġreciproc ally
point s
Wh ile
Ġasc ending
mot ive
Ġelev ated
ĠSy stem
Ġobsc ure
Ġafford s
Ġdanger ous
Con sequently
Ġmark ed
Ġeth ical
independent ly
Ġsubl imity
Ġusu ally
Ġincre ase
Ġexec ution
Ġpersu asion
ĠCh rist
ĠEm pirical
diffic ulties
dog mat
ustom ed
Ġaccur ately
OG Y
Ġtal ents
Ġconvin ced
Ġfrequ ent
IM ITED
Ġfalla cious
Ġschol astic
Ġevid ently
Ġcommence ment
Ġspect ator
Ġpremis ses
ĠNe w
Ġundoubted ly
Ġbre ak
clos ed
Ġhid den
Ġerrone ous
Ġrepro ach
Ġshap e
Ġindetermin ate
Ġcontempor aneously
ĠTot ality
Ġquar ter
Ġbott om
O D
i hil
Ġ iv
Ġt en
re pt
an im
le t
le x
ut ter
qu al
ain ing
em onstr
acc ident
des tr
pur su
vey ed
f urn
Ġp o
Ġp ress
Äł F
Äł ar
Ġat es
Ġr u
pr act
ie ve
acc omp
A C
O RE
S IS
a ult
d on
m ist
m echan
r og
r ust
er ci
Ġc our
th row
res ist
Äł I
Ġal ly
Ġal ity
am ent
Ġv ice
ex per
arr ow
argum ent
b ound
i ent
m ong
y right
in om
in separ
re nt
Ġm ixed
ter s
ul ation
ol f
Ġso ph
pon s
me an
AL EC
ĠTHE SIS
Ġconv en
ole m
ES IS
TH ESIS
Ġauthoriz ed
a per
p gl
s ed
w ant
at ory
Ġn amed
Ġas certain
ir th
Äł O
Ġal tern
tain s
Ġr un
Ġqu a
Ġphilos oph
dis position
abl eness
Ġpass ing
up il
Ġsupport ed
Ġear ly
TIC AL
psych ological
Ġaccur ate
olog ia
begin ning
N o
U nderstanding
U ND
W hether
] ,
a pons
c ritique
h ood
h ope
p perception
p ublic
p owers
r ance
r ather
u ly
on ically
it ation
it ative
it les
Ġof ficial
is en
at a
Ġw ww
Ġp aper
ic ability
Ġin complete
Ġin comp
Ġb ook
Ġb oast
Ġm arks
Ġto uch
an cing
Ġn ext
Ġe ternal
Ġe go
se en
Ġis m
Ġcon nexion
Ġd ate
st ead
ot ed
Ġan nex
Ġex empt
Ġex ceptions
Ġex cell
Ġl ic
Ġl ur
Ġl iving
Ġl ater
Ġnot ice
ĠĠĠĠ ĠĠ
Ġsu n
Ġsu it
th ics
og icians
Äł N
Äł at
Äł ab
Äł sp
ul ates
Ġde tr
act ing
us ively
ab out
Ġun f
tain ing
Ġour s
Ġsp o
not ions
Ġv ac
Ġtr ied
ad ed
Ġform ulae
su ppose
Ġse es
Ġcogn izing
Ġman kind
un avoidable
Ġsubject ing
ĠP RIN
Ġevery where
ĠĠĠĠĠĠĠĠĠĠĠĠĠĠĠĠ Ġ
ĠS ome
Ġph aenomenon
ens es
ĠN or
Ġsub stit
ĠIn formation
Ġpresent ly
Ġcont empt
form s
form ed
Ġlimit ing
Ġrequ iring
Ġown er
with in
other s
ine v
Ġinde finitum
âĢĿ âĢĶ
Ġext inction
Ġen ounces
Ġformer ly
Ġground less
ĠE ither
Ġeffect ed
Ġass ent
Ġass ure
Ġreal ization
Ġjust ly
Ġent ertain
Ġent itle
av id
man y
phys ico
Ġorigin ating
ĠWe b
ful ness
Ġinv alid
Ġinf luences
Ġcogit ates
ĠM oreover
ys s
ra se
phenomen al
Ġdiv ide
Ġdiv isibility
Ġcomp etent
Ġ1 9
Ġpredic ated
Ġconform ed
Ġconform ably
TI THESIS
Ġarr ived
Ġregress us
Ġel abor
Ġinfinite ly
Ġneed s
Ġresult ing
Ġmod ern
Ġant inom
Ġindic ation
HA T
Ġelement ary
Ġread ers
bec ome
Ġsol ic
Ġsol id
Ġsol ve
Ġspeci fic
Ġhold er
Ġco inc
Ġprov ince
Ġinst inct
Ġhar m
Ġelse where
Ġden om
ext ent
oc r
Ġgener ated
Ġmaintain ing
Ġpath s
disc ern
Ġadd s
Ġconj oin
categor y
Ġjud ged
Ġjud ging
Ġtreat ing
Ġtreat ment
Ġoper ating
Ġintr insic
Ġcorrect ly
Ġpret ended
Ġamong st
Ġintu ite
Ġcontinu ity
Ġcompar ative
requ ired
Ġmoment um
just ice
Ġcomb at
Ġexcl udes
Ġexcl usively
Ġspontane ously
Ġke y
incl inations
appear s
appear ance
Ġapodeict ically
consist ency
employ ed
Ġavoid ed
Ġinevit able
Ġsepar ated
Ġacqu ired
Ġopp ortunity
presu pposed
ĠSt ill
Ġdogmat ist
satisf actory
analy sis
Ġta ught
ĠAN AL
Ġ9 0
Ġexper iences
Ġimpl ied
crit icism
great er
Ġdef end
Ġassoci ation
attain able
Ġfour th
Ġenlar gement
Ġwrit ing
Ġrece ives
Ġconfin ed
Ġdiscuss ions
mot ion
rest s
post eriori
maxim s
indic ate
Ġimpul se
Ġreckon ed
Ġsubsum ption
Ġauthoriz e
Ġspirit ual
Ġaccomp any
assert ions
ik es
Ġmo on
Ġmo ving
Ġmult i
ĠDiv ine
Ġmediate ly
ati ent
concern ed
signif ication
Ġprim ary
Ġderiv ative
Ġcost s
Ġconstant ly
ĠMor ality
preced ing
ĠNot hing
dedu ced
philosopher s
Ġprep are
Ġsubstant ial
Ġconfirm ation
ĠSEC TION
ĠDI ALEC
Ġmoder ate
element s
Ġinj urious
Ġtyp e
Ġloc ated
ĠMat hemat
sole ly
sour ce
Ġlink s
Ġreplace ment
ĠCategor ies
Ġpresum ption
Ġwonder ful
eng th
Ġfl ow
Ġration is
Ġdecom position
ĠÃĨ sthetic
ĠPhilos ophy
Ġheaven ly
Ġsacr ifice
limin ary
solu ble
ĠGree k
Ġequip ment
ĠChrist ian
Ġsoph ism
pgl af
P er
Ġc t
ut ic
Äł al
Äł th
em per
su al
ex cl
cl ass
ÃĦÅĤ f
ÃĦÅĤ s
sy m
des ign
compre hend
destr oy
Ġt ed
Ġa in
on y
Ġo u
or gan
ci l
Äł he
de v
rem ark
UC TION
L eibnitz
S p
S t
U n
y m
Ġo s
re ction
Ġp at
ist rib
Äł pro
Ġat ive
ig ination
Ġv es
Ġgo ing
ha ust
inv ol
RO D
expl ain
ÄłÄłÄłÄłÄłÄłÄłÄł ÄłÄłÄłÄłÄłÄłÄłÄł
PL ES
ATION S
contem pl
mean ing
4 1
E AS
M etaphys
S EC
h armon
t reat
Ġ ***
in fin
en evol
an nihil
Äł be
Äł sh
if ferent
de fect
de finite
ge t
ad ox
Ġst ead
pon t
ev il
disc us
ĠV I
OR AL
conv in
ROD UCTION
r y
s oul
Ġo t
re ement
Ġf at
Ġf ixed
an cy
Ġe ll
ess ential
ure an
Äł it
tr ay
ex position
Ġpart icip
pre vious
Ġmy st
Ġser ved
me ll
Ġconsider able
ĠCon cl
Ġchang ing
produ ction
Ġfa ir
Ġsuffici ency
Ġstep s
IC T
dog matical
sec ure
CI PLES
! "
I ON
P ure
P lease
P ART
S uch
S econdly
T RODUCTION
a de
a seless
c ame
f urther
i ability
l ogic
l ife
m akes
p ute
r ules
u ality
y llogism
Ã ¦
Ġt itles
he res
Ġo st
Ġo mit
Ġo ppose
re ceive
it ates
Ġof fer
Ġs il
Ġp ortion
Ġp upil
Ġp atient
Ġin ex
Ġin ability
Ġin ternally
Ġin admissible
Ġin soluble
es pecially
Ġb and
Ġb ind
Ġb irth
Ġto pic
an ci
Ġn arrow
Ġe lectr
se em
Ġre action
Ġbe ars
Ġbe tray
Ġbe came
st one
ut ility
Ġh ttp
Ġh alf
Ġh omogeneity
Ġpr ime
the oretic
im possibility
os es
Ġex ternally
Ġex posing
Ġl ot
Ġl ab
Ġl icense
Ġl ength
Ġwe al
ter med
Ġg ave
th ree
ur a
ĠI s
ist otle
Äł H
Äł W
Äł i
if ying
per manent
Ġpro poses
ĠT ake
end er
Ġde ce
us es
Ġun fortun
Ġthere from
tr ademark
Ġsp urious
ecess ity
her ing
Ġv oice
Ġtr ust
Ġtr ack
Ġtr ying
ge ometr
Ġhe ight
Ġim pose
Ġab ide
ad ly
ad mitted
Ġper plex
ĠF IRST
Ġst atus
wh ose
ĠA b
Ġacc ustomed
ult ure
ult aneous
un iverse
ĠP art
Ġdis similar
Ġknow ing
Ġpre liminary
Ġar y
Ġar isen
Ġch ild
Ġrepresent ing
fin ally
Ġdif fer
ort ions
com position
Ġlimit ative
Ġconnect ing
pro ve
Ġdist ance
ici ous
Ġrational is
ĠH uman
Ġfe ll
Ġen closed
less ness
Ġpres cribed
aly tical
Ġthink er
Ġthink ers
Ġass ist
Ġass istance
Ġreal ized
oun ced
ĠD IS
ĠD AMAG
ĠD avid
Ġgreat ly
Ġimp ed
Ġview s
Ġconstit uting
there of
Ġinv isible
Ġshow ed
Ġintellig ent
Ġintellig ences
ĠM ichael
ĠM ORAL
Ġstr ange
Ġcharacter istics
Ġcomp ass
Ġadv ancing
Ġdedu cing
Ġres ide
Ġattain s
Ġphys iology
Ġcontent ment
Ġdirect ing
Ġconform able
EN CE
Ġset tle
Ġestabl ishes
Ġleg al
Ġdistingu ishes
Ġnum bers
Ġmod ific
Ġread able
Ġsol ved
Ġdemonstr ations
Ġ2 5
Ġprov iding
Ġpass ed
Ġrender ing
sim ply
Ġaw aken
bl es
Ġlegisl ating
Ġagre es
exam ples
Ġinfer ring
Ġmed iating
Ġintu iting
Ġstrict est
Ġcompar ing
bel ief
ĠEx istence
Ġobserv ance
Ġanteced ently
Ġabstract ed
Ġpursu ed
ĠAr istotle
proper ty
Ġey e
Ġrestrict ion
Ġrestrict ions
Ġdel iber
Ġintrodu ction
Ġintrodu cing
Ġdecl are
consider ations
sc hema
Ġfurn ished
Ġdeser ving
metaphys ical
Ġoff ers
speci f
presu pposition
Ġfavour able
Ġfig ures
interest s
origin al
belong s
free ly
Ġir resist
Ġfr ame
Ġfr amed
Ġcoun try
like wise
Ġtransc ends
Ġadm ixture
obser ved
correspond s
How ever
Ġprob ability
Ġclass es
Ġcomprehend s
Ġfan cy
power ful
Ġsk etch
Ġoppon ents
Wh atever
Ġparagraph s
Ġenlar ge
Ġwrit ten
Ġindu bit
Ġasc end
Ġcontrib ute
Ġcontrib utes
Ġinsepar able
Ġbene fit
distinguish able
ĠDe ity
Ġ200 2
Ġqual ities
Ġqual itative
Ġnecessit ated
Ġpay ing
Ġsubsum ed
express ion
Ġdevelop ed
ik ing
Ġren ounce
pret ensions
Ġexec uted
Ġdisplay ing
ĠDo ctrine
establ ished
inst ead
Ġtransgress ion
Ġfrequ ently
show n
Ġobe y
Ġaddu ced
ĠSEC OND
Ġclose ly
Ġattr action
Ġsym pathy
lead s
Ġforbid s
Ġsuff er
Ġcultiv ation
Ġrid ic
Ġapproxim ate
Ġobstac le
ri ption
Ġarchitect onic
Ġdream s
ĠSto ics
Ġpropri ety
Ġembr ace
Ġalleg ed
Ġdestru ction
Ġbuild ing
Ġconject ure
Ġgif ts
Ġpropens ity
Ġimprov ement
Ġyear s
Ġclos er
Ġhumili ation
fig ure
apodeict ic
ativ um
ores aid
Ġmov ements
Ġtechn ical
Ġrad ical
utter ly
Ġelectr onically
ĠDAMAG ES
Ġmodific ations
1 5
G r
Ġn ihil
ject ed
Äł as
of t
ad m
pre v
ass ign
acc ur
Ġmis sion
cor rupt
TH E
supp ort
accomp an
. .
A r
T r
U D
a x
h on
h ab
i pp
Ġa ch
al le
ic es
Ġan im
qu e
end eavour
ex c
arr ant
bec om
proc ess
CE P
adv ance
D e
b al
b ol
c osm
e ed
k ing
s pont
in cre
in trodu
nd eed
Ġis h
Ġl est
de utic
um b
tr ansc
pos it
ex hib
Ġy ield
ie ce
ag ger
pro b
Ġent ity
oc in
EM ENT
abs urd
E TH
G RE
H e
M ETH
N ot
a ccess
d ated
i i
i ans
m erit
p eculiar
u it
Ġ Qu
he ter
re ckon
er ity
ic ate
se ct
iv il
ci ated
Äł imp
Ġca st
Ġso ever
Ġab ly
ex ception
for th
sp e
Ġgr at
Ġcontr over
Ġconce ivable
TI QU
ane ity
** ***
gu ard
Pr odu
dec lar
prop ortion
answ er
PH Y
P h
d id
e ffort
m et
m oment
s ight
t on
t ext
u ary
u ge
Ġt ext
Ġo und
re fer
en ing
er o
or n
Ġm ine
Ġf il
Ġe ase
se ction
Ġre str
os s
Ġwe b
th orough
ur ies
ci ent
og ant
Äł G
us h
est im
Ġem barrass
Ġtr ace
ary ing
Ġch ief
ĠG r
ÃĦÅĤ in
lu cid
Ġconsist ency
Ġworth iness
Ġequ ality
ext ensive
oc ation
des c
rem ain
Ġprob able
Ġesca p
supp ly
ati ocin
OG IC
establ ish
Ġconvin cing
ick ed
Ġfruit ful
RI B
RI TIQU
Ġaccompan ied
OD OL
METH ODOL
1 6
C TICAL
I ES
O S
S o
S ince
Y ou
a utonomy
b its
b onum
c ision
c ourse
d ay
d one
d ialectic
g ulative
h ttp
l iberty
m ixed
n a
s ur
s ch
s aid
ĉ ĉ
Ġa x
on ations
in finitum
Ġthe ories
en cies
Ġw ished
Ġc at
Ġs ize
Ġp olem
al e
al ed
al ready
Ġin n
Ġin sist
Ġin comprehensible
Ġin consistency
Ġb on
Ġb urd
Ġth ou
ct ory
Ġf ate
Ġe ct
Ġe lective
Ġre tain
Ġre view
Ġd ark
Ġbe gan
om ents
ar ise
Ġpr ag
Ġex agger
Ġl u
Ġl ate
pt ions
Ġsu st
Ġsu pposes
ĠI ll
Äł B
Äł se
if ference
per ceive
ul er
em piricism
ĠT hen
con ceive
con junction
Ġare na
ch ain
Ġde ceived
act ive
act ual
us ing
ill ion
aw ay
am es
Ġun it
Ġun expected
Ġcom pr
Ġcom posed
Ġr ound
Ġr ace
Ġr atio
Ġr uler
Ġem ail
Ġv it
Ġv ict
Ġv ag
Ġdetermin ative
Ġdo ing
Ġcondition al
Ġcondition ally
Ġhe alth
Ġab yss
Ġper ce
all ow
Ġsy non
ind u
Ġus er
ant ly
ĠF undamental
Ġse ven
Ġse vere
Ġst e
present ation
wh atever
ĠA fter
ĠA SC
ĠA pperception
ĠA GRE
un able
un known
un ciation
pon ed
pon ent
ĠP RA
Ġdis pens
Ġdis gu
et s
et ary
Ġle aving
here nce
Ġar ound
Ġar ose
Ġch ar
Ġph rase
el t
ress ed
op ing
op inion
ag reement
Ġsub ter
Ġne ar
Ġma st
ĠIn trodu
Ġpl acing
Ġend eavoured
ĠG er
ĠG ood
ĠW ill
ĠW here
ign or
com posite
rit ical
ĠC RITIQU
ser ves
Ġrequ est
Ġdes cribe
Ġdist ant
Ġdist ress
ari um
Ġcall s
Ġcall ing
Ġen cour
ĠE nd
ĠR ational
Ġpres cribe
Ġsensib ly
Ġreal ize
Ġcrit ic
Ġatt ach
Ġatt acks
ĠD es
Ġsensuous ly
Ġcor poreal
Ġquant a
ĠM is
ĠRe gulative
app e
Ġstr ike
Ġstr ives
Ġanaly sing
Ġref use
Ġref ers
Ġdiv erse
ĠL ogical
ĠL IMITED
ĠL OGIC
Ġcomp els
Ġadv ances
Ġcontradict s
Ġres istance
Ġconce iving
Ġconcl uding
Ġremain ed
Ġ1 78
Ġdec ides
Ġlogical ly
ma j
Ġdiscover able
know s
Ġsatisf ies
TI ES
Ġac knowledge
practical ly
Ġed ition
Ġed itions
Ġobser ving
Ġes pecial
Ġseem ingly
Ġmod est
Ġaccord s
ĠĠĠĠĠĠĠĠĠĠĠĠĠĠĠĠĠĠĠĠĠĠĠĠ ĠĠ
ĠĠĠĠĠĠĠĠĠĠĠĠĠĠĠĠĠĠĠĠĠĠĠĠ ĠĠĠĠĠĠĠ
Ġattempt ing
Ġneg lect
subject ively
aim s
Ġbelie ved
Ġspeci ally
Ġideal s
ĠPr int
Ġcontin ually
Ġtoo k
Ġess ay
Ġinst ances
Ġexpect ations
Ġpass ive
Ġden ies
oc ke
Ġaffect s
Ġallow s
Ġsuper fluous
Ġcopy ing
Ġyour self
giv ing
according ly
sh all
Ġjustif ies
Ġinquir ing
ĠAn alytical
Ġconv ince
Ġthorough ness
Ġpret end
Ġobtain s
Ġinvol ve
Ġinvol ving
pur poses
pens ably
imp enetrability
just ified
att ention
Ġrecogn ise
Ġabstract o
comp elled
Ġoccup ation
Ġdon ate
Ġsur pr
separ ate
Ġdel usive
Ġconstruct ing
produ ctive
Ġappro ach
consist s
Ġmanifest ations
Ġdecl ine
Ġlet ter
Ġorgan ization
Ġadequate ly
constit ution
Ġcreat or
Ġcreat ing
Ġcreat ures
There fore
ins ight
ground ed
Ġacqu ire
Ġacqu aint
gu idance
Ġproblematical ly
Ġfig ur
more over
Ġdefinite ly
Ġfr i
real ization
Ġcoun sel
occ asion
great est
Ġsecure ly
Ġfill ing
Ġfill ed
Ġdef ence
Ġdef ici
Ġmeet s
Ġur ged
Su ppose
Ġfan cies
Ġfail ed
Ġultimate ly
ator s
attain ed
ĠIm possibility
Ġdet ected
Ġdet ailed
Ġwrit ings
Ġindu ce
Ġasc ent
Ġsent iment
Ġsent iments
Ġbene ficial
Ġsucceed ed
Ġmist akes
Ġmist aken
Ġpun ct
Ġperform s
Ġ200 1
Ġpay ments
Ġstreng then
Ġfit ness
consequ ence
Ġestim ated
Ġestim ating
Ġmerit orious
oper ation
ref lection
fortun e
Ġstru ct
Ġfulf illed
Ġdev oted
Ġdisplay ed
Ġcomply ing
Ġpromot ion
Ġpromot ing
diffic ulty
Ġprim arily
Ġderiv ation
Ġspecif ied
Ġhist orical
trans ition
Ġheav y
ĠNO T
concept s
Ġtal k
preced es
Ġsubsist s
Ġesteem ed
Ġweak ness
Ġimit ated
attrib ute
Ġanticip ate
Ġcontempl ation
Ġobe ying
Ġwide ly
Ġhind er
Ġhind rance
Ġfalla cies
Ġaccompl ish
Ġaccompl ished
gener ally
An alytic
With out
occup ied
statement s
Ġalter ation
Ġdeep ly
ĠObject s
Ġservice able
Ġimpart ial
ĠMetaphys ic
Ġobstac les
Ġgovern ment
¢Ä ¢Ä
Ġast on
author ity
uncondition al
uncondition ally
inquir y
inquir ies
Ġtend ency
Ġfict ions
Ġfict itious
Ġdim ensions
Ġdepr ive
Ġundert aking
Ġambig uity
indis pensable
Ġpra ise
au sible
AB ILITY
Ġprincip al
Ġwid est
Ġmund us
Ġrepe ated
Ġupright ness
Ġsuscept ible
ĠAl though
ĠAnt inomy
ĠMe thod
Ġexert ions
Be fore
Ġaf oresaid
aggreg ate
embr acing
ĠĠĠĠĠĠĠĠĠĠĠĠĠĠĠĠĠĠĠĠĠĠĠĠĠĠĠĠĠĠĠĠ ĠĠĠĠĠĠĠĠĠĠĠĠĠĠĠĠĠĠ
ĠWARRAN TY
Ġcomput er
mechan ism
rog ative
exper iences
insepar ably
Ġincomp etent
Ġexcell ent
ĠPRIN CIPLES
Ġantinom ies
Ġdenom in
Ġmulti plicity
ĠDIALEC TIC
Ġsophism s
Metaphys ic
infin ity
enevol ence
Ġfat al
Ã¦ deutic
Ġdece it
Ġirresist ible
METHODOL OGY
Ġpolem ic
ĠASC II
ĠPRA CTICAL
ĠCRITIQU E
v ation
Ġa y
re vol
an alog
ib oly
Äł L
Äł ac
Äł com
Äł mis
de l
ÃĦÅĤ re
ĠE ND
cont est
conf irm
I de
T RIB
b ar
m ag
Ġ ll
Ġ rom
it iz
en joy
Ġit ion
Ġu d
Äł R
Äł is
de t
pir ic
ag on
du c
Ġpos it
ÃĦÅĤ c
av ag
Ġi p
TI VE
occ ur
Pr inci
anthrop omorph
2 2
5 0
T RA
c reat
e ous
r own
t est
y our
y ield
Ġ ig
Ġ ible
Ġ educ
re cogn
Ġc ed
ib ilis
og r
min is
Ġv ed
ivers al
ile ge
ke ep
gr at
ext end
ird ly
subst ant
rem o
E m
F L
O SE
P RO
b ed
b ring
f ici
l ast
n is
s pr
s let
Ġa ut
in tr
at ir
Ġc i
Ġm al
Ġe p
ou d
ib us
ĠI ND
ill a
am p
pr ud
art es
to o
so on
te llig
cl ose
Ġar d
Ġend ed
Ġ1 3
Ġce asing
bl ing
TH ER
prof ess
prev ent
alle l
ogr am
7 1
A PHY
E T
R espect
S IC
V IS
d ut
e y
f und
f avour
l oad
n et
o e
o ose
p opular
t ent
v an
Ġ ied
Ġo un
it us
it ory
it ted
is k
en cing
Ġp ol
Ġin e
ct ible
Ġis e
Ġre distrib
os ing
Ġl ar
ver sion
qu ire
og mat
res h
Äł ob
if ul
ul ous
ul sion
con cre
de pendent
Ġr ic
ph iboly
Ġse ld
pre cept
mat ic
Ġpresent ation
ro ken
Ġsec urity
ma il
Ġple ases
Ġimag in
RE CT
leg itimate
Ġ4 5
vol ition
oin c
hypothe tical
rupt ed
Ġprep ared
ÃĦÅĤÃĦÅĤÃĦÅĤÃĦÅĤ ÃĦÅĤÃĦÅĤÃĦÅĤÃĦÅĤ
err or
? âĢĶ
A t
B oth
G eneral
N evertheless
S ome
S mall
S ee
_ âĢĶ
a cious
b ation
b etween
c r
c ertitude
d le
e es
e go
f il
f ield
f ounded
f uge
h ad
j oined
l ain
l able
l ittle
l ines
l timate
m aking
n g
r ies
s ort
u ent
u um
v oid
v arying
w are
Ã ĥ
Ġ x
Ġ ute
Ġa str
in ently
in sufficient
Ġo d
Ġthe ore
re ceptivity
is ive
en ough
en able
er ms
Ġw arn
Ġw icked
Ġc ens
Ġc tion
Ġc ertitude
Ġs l
Ġs w
Ġs aw
Ġs ave
Ġs alt
Ġp ubl
Ġp arent
al together
Ġin sp
Ġin cor
Ġb enevolence
Ġm ar
Ġm ass
Ġto l
Ġf elt
an illa
Ġis su
Ġre fin
Ġre ply
Ġre vel
Ġre ferences
Ġre lease
Ġre serve
Ġd as
Ġd atum
ent ity
as ions
Ġas pect
Ġan xi
Ġl ow
Ġl ime
Ġl ays
Ġl ogicians
Ġl iability
Ġwe aken
Ġwe apons
ir able
Ġg ot
Ġwith draw
th ird
ĠI D
ĠI F
ĠI M
ĠI ndeed
ist ered
Ġor igination
Äł the
Äł em
Äł for
Äł acc
per mitted
per manence
ul ated
pp ing
Ġpro hib
Ġpro long
ch anges
Ġde ad
act ually
act orily
hen s
am ples
Ġun ite
Ġun its
Ġun avoid
Ġun success
Ġun certainty
Ġun pleasant
Ġun attainable
de pendence
ans ition
tr iangle
Ġsp ecul
Ġr ig
Ġr are
Ġr atiocin
Ġunder take
Ġv ision
Ġv isible
Ġdetermin ability
Ġtr uly
pr iate
pr imitive
ĠB E
ĠB RE
Ġhe at
ad ing
Ġper pet
su asion
Ġreg ular
Ġreg istered
ant inomy
Ġse lect
Ġcogn itive
Ġst ake
Ġst age
Ġqu oad
Ġrel uct
present s
Ġcons ult
ĠA gain
ĠA mong
ac ities
Ġapp ell
Ġsubject ion
ĠP sych
Ġdis satisfaction
), âĢĿ
Ġle vel
Ġpre par
Ġpre cise
Ġpre cision
Ġpre rogative
te aches
Ġar ms
Ġpart ial
ĠS e
ĠS cience
pre cisely
ag ogic
ĠN either
Ġsub div
Ġsub division
ĠIn stead
ĠW olf
Ġgr oping
Ġcontr ol
Ġcontr adistinction
ĠC an
ĠC ogn
form ula
Ġcomm erci
Ġown s
fect s
ish ments
der ived
Ġfe et
Ġcategor ically
Ġval u
ĠE ach
ĠR el
ĠR oyal
Ġyou ng
Ġfind ing
ell ing
object ions
Ġpres cribing
Ġexp ense
Ġexp enses
reason s
Ġreal ities
Ġreal izing
av ed
av ity
phys ics
Ġsim pl
Ġsim ultaneous
ĠD etermin
ĠD onations
Ġsec uring
ang ing
Ġimp ression
Ġthrough out
Ġview ing
Ġorigin ates
there in
Ġinv ent
Ġhere after
Ġinf ring
ĠM on
ĠM ET
Ġstr ikes
Ġap agogic
Ġanaly se
ev idence
und etermined
ĠL aw
Ġcomp ares
Ġres pon
Ġconce it
Ġconce de
Ġdec iding
Ġdec isive
ten ance
ĠU SE
ĠU ltimate
Ġsupp lies
Ġnow here
Ġtot ally
Ġmathemat icians
Ġmathemat ician
Ġcl ue
rel atively
Ġsatisf ying
Ġsuccess ful
Ġdefin es
Ġarr ives
Ġestabl ishing
Ġder ives
Ġleg ality
Ġconsequ ent
Ġseem ing
mis understanding
Ġmod i
Ġmod ification
Ġfin ality
Ġconting ently
part y
part icip
Ġcorrespond ence
Ġdemonstr ating
Ġsignif y
Ġsoul s
Ġpost poned
gr anted
ĠSu bject
comple ted
Ġconduct s
Ġexplain s
Ġmis conception
Ġmis understood
Ġhop es
Ġgener ation
Ġoblig e
Ġremark ed
Ġprogress us
ĠĠĠĠĠĠĠĠĠĠĠĠĠĠĠĠĠĠĠĠĠĠĠĠĠĠĠĠĠĠĠĠĠĠĠĠĠĠĠĠ ĠĠ
Ġdepend ing
Ġfall en
Ġaffirm ations
disc ursive
Ġadd ress
Ġharmon ious
des ires
giv er
Ġfalse hood
happ y
Ġdemand ing
Ġdemand ed
Ġnegative ly
Ġjustif ication
Ġte aching
Ġjud ges
Ġthorough going
Ġpret ension
Ġabs ent
Ġpar adox
Ġcho oses
where as
Ġstrict ness
Ġlead ing
imp ressions
Ġtrans itory
Ġdistinguish able
Ġprof it
Ġrequis ites
Ġ3 5
Ġdesign ation
Ġobserv able
Ġsupposition s
Ġhel ps
comp ared
Ġpursu ing
Ġoccup y
proper ties
appear ances
Ġrestrict ing
Ġrestrict ive
ific es
Ġintrodu ces
Ġintrodu ced
produ ces
Ġappro pri
II I
Ġmanifest s
Ġexact ness
Ġche m
Ġlast ing
Ġlast ly
quant ities
Ġarbitr arily
Ġsoon er
constit utes
Ġfurn ishes
ip se
ren ce
Ġoff ender
Ġdisp ense
Ġfa cil
Ġaccept ing
Ġput ting
presu ppose
Ġsimilar ity
pic ion
satisf ied
interest ed
Ġta ut
demonstr ated
Ġir rational
Ġdom inion
prov ided
conce ivable
Ġdown load
Ġconflict s
ounce ment
Ġom nis
discover able
Ġaccess ion
Ġfill s
Ġarrangement s
Ġlos ing
investig ations
Pr actical
Ġprevent ed
claim s
Wh y
Ġdet ach
Ġhum bles
Ġenlar ged
proceed s
proceed ing
Ġdiscuss ing
Ġdiscuss ed
mot ives
post ulates
theoretical ly
Ġdiscern ed
Ġcontrib utions
Ġsent ence
Ġbene fic
Ġelev ation
indic ates
Ġcap acities
Ġperform ing
Ġantit hetic
attempt s
Ġearth s
Ġgl adly
Ġnecessit ation
Ġremo ving
Ġcr ime
Ġcr ude
Ġestim ation
legisl ative
feel ings
Ġprofess ed
Ġ6 0
assert ion
Ġincre ased
Ġexc ite
oblig ed
Ġpromot ive
proble ms
IR D
Ġspecif ication
Ġspecif ically
pass ing
ĠEpic urean
ĠMor al
Ġsafe ly
conv iction
Ġgrad ual
ĠNat ural
require ments
Ġprot ected
Ġconfirm s
Ġsac red
Ġaddu ce
ĠDI VIS
Ġdeclar ing
Ġdeclar ation
Ġdeclar ations
Ġmoder ation
Ġfruit less
Ġdesc ending
Ġforbid den
Ġprejud ice
Ġprejud icial
Ġobvious ly
Ġcur rent
comb ination
comb ined
Ġunceasing ly
Ġchimer a
ĠObject ive
method s
Ġpenetr ation
Ġpenetr ate
Ġrecomm end
arbitr ary
ĠSto ic
Ġnumer ous
Ġhyper physical
AN TITHESIS
obtain ed
reciproc al
Ġaccompan ies
coun ter
Ġcent uries
Ġreve als
Ġdam ages
Ġdimin ish
Ġdimin ished
Ġdepart ment
Ġextreme ly
Ġexerc ises
Ġexerc ised
Ġteacher s
ĠVII I
affect ed
demand ed
noumen a
noumen on
Ġz ero
sophist ical
Ġwa ver
Ġcred it
Ġmut ually
sem ble
Ġunb ounded
Ġarchety p
Ġarchety pe
add ed
ulg ence
Ġreconci led
Ġstrugg le
Ġomnipot ent
sus picion
Ġrevol ution
Ġbea uty
Ġprint ed
Ġrash ly
ĠPossib ility
Ġmach ine
Ġinfall ibly
Ġoverlook ed
emonstr able
AC H
ORE M
don ate
Ġannex ed
Ġ19 9
Ġsolic it
St ates
ym ous
haust ed
harmon y
discus sion
convin ced
Ġbind ing
Ġunfortun ately
Ġchild ren
ĠMORAL S
becom es
Ġcontrover sy
Ġax is
Ġcat alog
Ġburd en
Ġdispens ed
Ġsubter fuge
Ġacquaint ance
tellig ence
APHY SIC
dut ies
concre to
Ġseld om
Ġsalt us
Ġunavoid ably
Ġunsuccess ful
ĠBRE ACH
ĠMET APHYSIC
ĠDIVIS ION
B L
N AL
b ene
p un
u c
Ġ ics
Ġp ot
ou ch
Ġan c
ib r
Äł pl
art ic
iz able
ÃĦÅĤ m
ĠH A
av ail
know led
Ġstand ing
circ um
P END
b an
c oinc
d ict
f l
n umer
p at
t a
Ġ ight
Ġ ically
Ġt y
at hemat
Ġw ard
Ġp et
an qu
og istic
Äł ent
Äł qu
Äł str
Äł des
Äł conf
il ed
Ġso ci
all en
for t
pon der
ict ions
int ention
Ġact ed
over t
med i
app oint
Ġi o
do ctr
Ġmis s
Ġce pt
Äłd ec
H T
N I
S y
U M
a uthoriz
c ultiv
f r
f al
r ation
s k
s ent
u b
Ġ ious
re conci
Ġc rib
Ġor t
Äł we
Äł comp
Ġexperience d
for ce
str um
ĠU ND
dist inct
requ is
IN D
xiom s
Ġol ogy
exer c
signif ic
Ph ilos
1 3
1 7
1 8
A l
C a
E G
I TION
M athemat
N ITY
V I
b st
b our
b ered
d ivers
e al
f ill
l est
m em
m ast
n gl
t ow
t empt
u ating
w rit
Ġ ial
on es
it im
is y
or ic
Ġf lu
ed istrib
Ġe red
se tt
Ġit ies
st reng
ll ogistic
iv er
ur is
Äł le
Äł am
Äł ind
and er
per form
ch ief
ab andon
Ġsen sual
pr iv
ad ow
ind ifferent
Ġsh ip
Ġar tic
Ġend ing
Ġcont est
ÃĦÅĤ d
ÃĦÅĤ p
und ity
Ġattain able
mis s
ob sc
ps es
happ en
imp ul
Ġul t
conf lict
Ġ4 0
Ġang le
Ġappe ared
compar ison
SI TION
Ġconven ience
UD ING
Ide al
TRIB UT
A D
A gain
B S
B ILITY
H app
N T
N OM
O F
O BS
V ATIONS
a ordin
b et
d anger
f ut
f unction
f ixed
h orizon
i pt
i ant
l ie
l ated
p el
p arent
r ain
r un
s mell
w it
Ġ ently
he tical
Ġa ught
in fer
Ġo se
is s
Ġc es
Ġc ivil
Ġp t
Ġp air
Ġb es
Ġb le
Ġth rown
or ne
Ġm er
Ġm oun
ce ly
Ġit ed
Ġd rop
im b
Ġor y
Äł U
Äł er
Äł or
Äł In
pl ain
Ġr ob
ĠB OOK
ad es
ori al
pir it
ant om
ĠF UND
our th
Ġad vers
ort s
ra de
TI NOM
row d
Ġra ising
crit ic
manif est
Ġsa f
Ġimit ation
Ġanthrop omorph
hab it
CEP TION
ĠUND ER
tow ard
' t
) (
) :
- -
. âĢĶ
2 80
4 0
A ct
A uthor
B esides
C ritique
F oundation
F inally
G HT
H ume
I V
I s
N ecessity
P lain
T ime
V EN
Y TIC
a gement
a ught
b ra
b usiness
e thics
f old
f its
g ue
h oly
i atus
l p
l ication
l icense
l ier
l osing
m utable
p one
p ite
p ared
p dated
r s
s ation
s ciousness
s cribe
t ered
t akes
t aken
v ention
x ious
Ġ ution
Ġt one
Ġt emper
he ld
he lp
on ce
on ical
in ing
in ner
in capable
in ferences
in consistent
in comprehensible
Ġo c
Ġo mitted
it ute
it hetic
is ition
at eness
er al
er ably
Ġw ings
Ġw oe
Ġc ut
Ġc ard
Ġc ustom
Ġc ulture
Ġs al
Ġs an
Ġs em
Ġs ine
Ġs edu
Ġs mo
Ġs oft
Ġs aved
Ġp ays
Ġp age
Ġp ages
Ġp ortions
Ġp iece
al ogy
al most
ic a
Ġin cap
Ġin sufficiency
Ġin hering
Ġin contest
Ġb all
Ġb ooks
Ġb aseless
Ġm il
Ġm ixture
Ġm oments
Ġf ed
Ġf ere
Ġf ire
Ġf lat
an while
an uary
Ġe c
Ġe con
Ġe lucid
Ġre ver
Ġre ception
Ġre vere
Ġre straint
Ġre solution
Ġre verse
Ġd i
Ġd read
Ġd well
Ġd uring
Ġd oubted
Ġbe g
ent itled
ot ion
ar um
ar les
ar ched
ar cely
as us
ut iful
Ġh it
Ġh ollow
iv en
Ġl at
Ġl ive
Ġl of
Ġl ives
Ġl ooks
Ġl ively
Ġl oose
Ġl imb
Ġnot e
ĠĠĠĠ Ġ
Ġwe alth
cept ive
ter ior
ter ms
Ġwith drawn
ur istic
ci ences
ver ted
qu ality
Äł j
Äł res
Äł el
Äł int
Äł und
Äł gr
ec ided
per ity
ul ating
ĠT HAT
ĠT erms
ch anged
il t
il ty
Ġde ed
Ġde ceive
Ġal ge
Ġal ike
Ġint end
ple teness
act ed
us ality
us ual
Ġha st
Ġha bits
ill usions
ill iant
am ents
Ġun law
Ġun ites
Ġun iting
Ġun conscious
Ġun inter
Ġun answ
Ġun observed
Ġun mixed
Ġun varying
um mum
um bling
Ġ( _
Ġthere on
Ġlaw giver
Ġsp are
Ġcom pos
Ġcom ponent
not withstanding
of ess
of ten
Ġr ises
Ġr ising
Ġr isk
est ors
Ġme l
Ġunder min
Ġtr oub
stand s
ĠB el
ĠB UT
Ġhe uristic
Ġim pract
ad s
Ġper sist
pos ited
Ġreg ulate
Ġsh adow
ĠF UL
ĠF inally
Ġst ability
Ġst opp
Ġqu it
Ġqu id
ord ination
Ġcons ent
ĠA ct
ac le
un ited
Ġapp et
ca ution
Ġad here
Ġy e
ĠP G
ĠP ers
ĠP ost
Ġdis regard
str ained
Ġle ap
te aching
ĠTh ought
Ġar gu
Ġch aract
Ġpart e
Ġpart iality
ĠĠĠĠĠĠĠĠĠĠĠĠĠĠĠĠ ĠĠĠĠĠĠĠĠĠĠĠĠĠĠĠĠĠĠĠĠĠĠĠ
ĠS c
ĠS en
ĠS ee
el ve
pre ted
pre cede
op yright
ppos ites
ĠO p
Ġsub mitted
Ġsub rept
possib ly
Ġser ious
Ġser ving
Ġdif fers
Ġdif fered
ĠIn ternal
Ġpl ane
Ġpl ausible
Ġnothing ness
ĠG os
reat or
Ġgr ate
Ġgr oss
com ing
ĠC a
ĠC ertain
ĠC osm
ĠC ritical
Ġow ing
pro ving
Ġdes cribed
Ġdes irable
Ġemploy ees
Ġfirst ly
Ġrem ed
Ġen abl
Ġbelong ed
Ġag o
Ġag es
over ty
ĠE ngl
ĠE VEN
ĠR espect
ĠR edistrib
ha ving
Ġout set
Ġpossess ions
ear ance
Ġam id
Ġam phiboly
Ġappl icability
Ġent s
oun cing
Ġmat ured
Ġatt aching
ĠD O
ĠD ate
ĠD uty
ĠD ifference
ĠD ogmat
ass ume
ang les
Ġimp elled
there to
Ġinv iol
Ġhere by
dis posed
dis pute
Ġintellig ibilis
Ġlike ly
Ġhand s
Ġrest ing
Ġref uted
Ġref utation
Ġdiv isions
ev ent
Ġproof read
ĠL IC
ĠL ocke
Ġcomp el
Ġcontradict orily
contr adistinction
Ġassum ptions
ER VATIONS
Ġconcl udes
Ġtruth s
Ġ1 00
Ġconsist ing
Ġcontent ed
In telligence
Ġconf ound
Ġconf irmed
Ġconf ounded
represent ed
Ġmathemat ically
Ġdiscover s
Ġmot ions
Ġaff air
sub ordinated
Ġconcept us
rel ates
lement s
Ġsatisf actorily
Ġind ul
Ġind ivid
Ġind emonstrable
EN SE
Ġstand point
Ġarr ogant
ignif ic
Ġleg ally
Ġimag es
Ġes se
Ġneed ed
Ġneed less
Ġgu ess
Ġgu ides
Ġgu ided
Ġgu iding
Ġant iqu
ĠĠĠĠĠĠĠĠĠĠĠĠĠĠĠĠĠĠĠĠĠĠĠĠ Ġ
ĠĠĠĠĠĠĠĠĠĠĠĠĠĠĠĠĠĠĠĠĠĠĠĠ ĠĠĠĠĠĠ
Ġsc arcely
Ġneg ativum
part ly
subject ed
Ġinvestig ated
Ġinvestig ating
Ġassert s
Ġassert or
Ġassert ing
Ġassert orical
ov al
ĠTH IRD
TER NAL
mor ally
Ġattrib uting
Ġco al
ĠSu ppose
comple tion
Ġher o
Ġprev ents
Ġdistinction s
Ġmis led
Ġmis conceptions
Ġpass ages
Ġdeduction s
Ġmaterial ism
Ġce ases
Ġaffect ion
Ġvari ance
Ġfall ing
ĠTHE OREM
Ġfal s
ont ological
Ġadd ing
Ġagre ed
Ġund en
ĠY et
Ġcirc ular
Ġspe cious
Ġintel lect
Ġbr ain
Ġbr anc
Ġbr illiant
every one
moral s
Ġvol unt
Ġadvantage ous
pres cribes
inde finitum
Ġpar allel
where by
Äłs ur
Ġauthor s
comm unity
Ġcontinu es
Ġcontinu um
Ġante cede
Ġcompar atively
ĠUn less
ĠUn iversal
bel ieve
just ify
Ġtrans fer
Ġtrans formed
ĠEx cept
ru ption
Ġins cr
Ġprof its
Ġcomb ine
Ġexcl usion
Ġdogmatical ly
Ġdesign s
Ġtranscendent ally
Ġevil s
IN TRODUCTION
Ġcompre hension
Ġbl amed
Ġbl iss
Ġ5 68
igh bour
Ġsur vey
ĠAr gum
Ġrestrict s
ific ent
Ġappro priate
ĠV anilla
conf ess
Ġear lier
employ ing
ĠJ anuary
TH ING
contain ing
Ġsepar ation
Ġtest s
Ġcare ful
Ġdeser t
Ġconcre te
ins ically
div isibility
possess ion
Ġacqu isition
Ġhypothetical ly
fac ulties
Ġput s
Ġadopt ing
think s
Ġprop Ã¦deutic
analy se
conform able
conform ably
Ġhappen ing
Ġdestroy ed
Ġreach ing
kind s
demonstr ative
Ġconver t
Ġconver sion
Ġsubtle ty
jud ge
sens ations
prov ince
character istic
character istics
Ġcol lected
Ġannihil ates
Ġlay ing
ĠAN TINOM
content ment
enetr able
Ġimpl anted
Ġindis pensably
Ġdef ault
Ġadm ire
light ened
Su pposing
Ġmaj esty
Ġplain ly
Ġfan ci
subsist ing
contin ue
contin uous
Ġopen ed
Ġassign s
Ġabsurd ity
Ġplan ets
particular ly
Ġindu ction
Ġindu ced
Ġrece ipt
Ġdiscern ment
Ġborrow ing
Ġelev ating
Ġsucceed ing
Ġmist ake
Ġperform ed
Ġapparent ly
On ly
after wards
Ġnecessit ate
Ġremo ves
Ġsubsum e
Ġfit ted
Ġfit ting
Ġcr y
Ġaggreg ation
Ġproportion ed
Ġreflect ing
proof s
Ġpopular ity
Ġren unciation
Ġrep ay
Ġsign al
Ġreturn s
Ġanimal s
Ġexc used
Ġenter ing
pret ation
Ġcal m
Ġpros perity
Ġextr avag
Ġextr aordin
Ġpersu aded
Ġpersu ade
ĠCh arles
ĠEm pty
Ġschemat ism
defin ed
Ġord ains
Ġord inary
influence d
Ġtw elve
Ġwond ered
Ġbu ilt
Ġsuggest ed
trans gress
ĠMor als
Ġhonest y
Ġhonest ly
scept icism
Ġdoctr inal
Ġsubsist ing
Ġsubsist ence
Ġillustr ation
Ġillustr ate
Ġsecret ly
Ġconfess ion
dedu ce
common est
Ġprot ect
ĠWh o
ĠWh atever
Ġanticip ation
Ġcontempl ated
Ġcompl aint
ĠInt erest
Ġpathological ly
restrict ion
restrict ed
suffici ently
anthrop ology
Ġcommun icated
Ġabandon s
ĠCON FL
Ġsupply ing
Ġperiod s
Ġperiod ic
AM ENTAL
assum ed
assum ption
maintain ed
abs ence
Ġdict ate
Ġdict ates
Ġchimer as
Ġchimer ical
ĠMetaphys ical
command ed
Ġmon th
intu ite
clear ness
co existence
Ġarchitect onical
Ġfulfil ment
Ġcle arer
Ġresol ve
Ġresol ved
Ġrecomm ended
Ġdr y
Ġhard ly
Ġundert aken
Ġformat s
Ġdisclaim er
Ġdisclaim ers
Ġgrant ing
Ġambig uous
Ġnumer ical
ĠIdeal ism
Ġcalcul ate
Ġcalcul ated
Ġhyper text
anticip ation
reciproc ally
Ġpropri etary
ĠTr ansition
Ġembr aces
cop yright
Ġreve al
Ġpra ised
ĠCom pleteness
Ġparalogism s
Ġdestru ctive
Ġmagn anim
Ġmagn ificent
Ġwarning s
vari ous
Ġanthrop ology
small est
word s
Ġcred ential
Ġinhere nt
Ġinstit ute
Ġinstit uted
Ġthreat en
Ġmut ual
Ġfoot ing
Ġsuscept ibility
Ġunb roken
Ġhear ing
ĠApp lication
ĠApp earance
Ġimperfect ion
ĠProble m
ĠProble ms
Ġobstin ate
Ġobstin ately
Ġhypostat izing
CL UDING
circ le
ĠST ART
syllogism s
Ġhes itate
Ġselfish ness
Ġomnipot ence
Ġmid dle
Ġbea utiful
Ġroyal ty
Ġroyal ties
Ġvis it
Ġshar p
ĠPossib le
Ġgrow th
Ġenumer ation
Ġinfall ible
Ġcompens ate
Ġguarante ed
Ġpo ison
Ġcour age
Ġlur ks
Ġsuit ably
Ġunf air
Ġvac ant
inev itable
Ġinvalid ity
Ġelabor ation
Ġcoinc ide
Ġharm less
ocr isy
Ġconjoin ing
Ġcombat ants
ĠANAL YTIC
ĠMathemat ical
ĠMathemat ics
Ġpat tern
annihil ated
Ġparticip ation
ĠConcl usions
Ġfair ly
Ġost ensive
Ġlab orious
ĠDIS TRIBUT
Ġimped iments
Ġdeliber ate
specif ication
Ġindubit able
Ġridic ulous
assign ed
accur ate
accompan ied
Ar chive
spont aneity
Not hing
heter onomy
reckon ed
spe aking
Produ ced
declar ing
effort s
refer red
Ġfil es
Ġrestr ain
ĠGr ound
Ġbon i
Ġprag matical
Ġexagger ated
ĠIll usory
Ġvict ory
Ġvag ue
Ġsynon ymous
Ġste pping
ĠAGRE E
Ġmast er
ĠIntrodu ctory
ignor ance
appe ared
Ġsurpr ising
Ġfigur ative
Ġstruct ure
Ġaston ishment
Ġdenomin ate
Ġdeceit ful
duc ive
Princi ple
Em pirical
spr ing
slet ter
intr insic
atir ae
prud ence
Ġissu e
Ġanxi ety
ĠID EAS
Ġprohib ition
Ġappell ation
ĠPsych ology
ĠRel ation
ĠRoyal ty
ĠMon ad
Ġomnis cient
Ġcatalog ue
Ġanc estors
ĠHA VE
Happ iness
OBS ERVATIONS
bet ter
fut ure
ĠFUND AMENTAL
Ġsaf ety
Ġfed eral
Ġrevere nce
Ġalge bra
Ġunlaw ful
Ġcompos itum
ĠBel ief
ĠFUL L
Ġcharact ers
Ġenabl ing
ĠDogmat ism
ĠLIC ENSE
Ġbranc hes
Ġinscr utable
ĠANTINOM Y
Ġextraordin ary
ĠCONFL ICT
Ġmagnanim ous
c ur
e g
Ġ ice
Ġ ize
Ġ ives
Ġa k
Ġa u
Ġo re
Ġp on
Ġit e
Ġv ing
Ġk s
Ġle ar
Ġter n
princi p
ĠU T
Ġi a
Äłin v
cre t
Con cl
5 68
C h
I X
O P
n ic
x t
Ġ ib
Ġ ire
Ġ ict
on om
Ġthe r
es is
Ġb ar
Ġis ts
the tic
Äł over
Äł rel
Ġpro c
hen tic
ca st
Ġres s
Äłc o
ilar ly
arch itect
velop ed
2 0
6 22
C ont
b re
c arr
f ail
h o
h um
l ab
o h
v i
Â ¢
Ġ ized
he t
an n
as c
Ġu e
Ġu st
im pl
Ġl es
ith met
Äł y
Äł ant
Äł ext
Äł pres
Äł comm
Äł appro
em in
ch imer
end i
hen sibility
ill ustr
de pr
pr ot
pr os
su ggest
ĠA L
un gl
pro hib
ÃĦÅĤ b
ÃĦÅĤ de
sen sual
Ġcor rupt
oc al
Äłin f
haps od
Äłre f
att ack
iber um
inev it
hens ions
1 9
5 5
7 5
A IM
D ENTAL
D ED
E pic
I VE
L E
M or
S to
U RE
a z
c al
c ert
d est
e as
e lev
f a
f am
k al
l o
m er
p enetr
s id
t ouch
u ously
w is
w art
w arrant
Ġ #
Ġ $
Ġ Ä
Ġt ain
Ġa e
in o
in struct
en umer
al ter
Ġin ation
es tr
Ġth row
Ġe re
ll ous
Ġu al
iv ae
os ity
Ġan ces
Ġl and
id er
th y
th reat
Äł ir
Äł us
Äł app
em barrass
con ject
con fin
con ven
il ia
Ġcom ing
Ġr ap
est ic
pr im
ment al
sp ecul
be ll
ser vice
pro pri
ÃĦÅĤ t
ÃĦÅĤ ex
Ġinterest ed
contr overt
Ġres ist
ER AL
ER CHA
Ġ1 6
cont empt
produ ct
my st
Ġol ogical
oper nic
PL EAS
ili ary
Ġ8 0
see k
SI BILITY
anc endent
sch ol
circum st
PEND IX
ban ks
622 15
1 0
4 5
A mong
F irst
F ourth
G ENCE
N ES
P OSE
S S
W ARRAN
W olf
c ustom
d den
e w
f ast
f irm
f ault
g ust
h ort
h igh
h ip
j oin
m other
n ify
p us
s ure
s ipp
t es
Ġ '
Ġ +
Ġt ing
he it
Ġa ce
Ġa dequ
re w
at ch
er ke
Ġw arrant
Ġc ame
Ġin discern
Ġb ow
Ġb orne
Ġf und
an ch
an imal
le ology
Ġre t
om at
om ni
ot yp
ar alogism
as m
as certain
im id
im age
Ġl d
ur bed
ĠI X
Äł under
sib ilities
con stant
ab ilis
ies t
tr ace
of f
ous and
ad em
ad apt
Ġsy llogistic
ph old
ome ter
ac ent
te en
sp read
sis sipp
pre fer
ag ing
Ġthan k
me ant
ĠC HA
ÃĦÅĤ h
ÃĦÅĤ con
we ight
Ġhapp ily
less ed
ĠE D
ĠE R
uten ess
Ġap per
und oubted
contr ib
stru ctive
EN TI
arr angement
AL ITY
ob vious
gr ant
Ġ2 2
ia e
inde finite
comm erci
bel ie
ask a
ium ph
inv ent
Ġagree able
Ġagree ableness
Ġposition s
ĠÃ ¢Ä¢Ä
super fluous
consequ entia
jun ct
SE QU
Ġid le
CT RIN
col our
Ġinstruct ed
CL AIM
rept itious
guard ed
fal se
ERCHA NT
! )
" .
* ]
. :
. ;
1 1
1 78
3 9
5 7
7 9
A fter
B ooks
E Book
F urther
F IRST
F ORE
I ED
I RECT
L iterary
L icense
L anguage
L IMITED
M ost
M oreover
P PENDIX
R ight
R ational
R emark
R ICT
R POSE
T itle
V ery
a ple
a part
a ired
a cies
b ly
c hes
c ulture
c artes
d ash
d ignity
e ase
e Book
e Books
f ailed
i ological
i pses
i osity
l and
m as
m ise
m ber
m dash
o ke
o pposed
p ire
p utation
r or
r ought
r ied
s akes
t aking
t xt
u ation
u ated
v ity
v ive
v ain
v erest
w ishes
x iliary
y le
z ip
Ġ vel
Ġt ant
Ġt ear
Ġt empt
Ġa pt
in y
in ference
in formation
in struction
in eness
Ġo me
Ġo pposing
Ġo pposites
Ġthe olog
re ndered
re cognized
re verse
re productive
it atis
it eness
Ġof fered
at ible
at ically
at ae
er ion
er ce
er vice
Ġw ont
Ġw ander
Ġc and
Ġc old
Ġc urs
Ġc ush
Ġc itiz
Ġs is
Ġs ag
Ġs ending
Ġs orrow
Ġs mell
Ġp overty
al ong
al ogical
ic ited
Ġin compre
Ġin correct
Ġin justice
Ġin secure
Ġin strum
Ġin accurate
Ġin controvert
es thetic
Ġb ro
Ġb inary
Ġth ir
Ġth read
Ġth wart
or ous
Ġm ing
Ġm ove
Ġm ock
Ġm illion
ce ase
ce mber
Ġf ing
Ġf am
Ġf ant
Ġf aint
Ġf avoured
Ġf resh
an alogy
ed ifice
ed itions
ed ient
Ġn om
Ġn ought
Ġn ames
Ġn aught
Ġe cl
Ġe leg
Ġe arn
Ġe po
ou th
Ġis ed
Ġis hed
Ġis tic
le y
le ave
Ġre cognition
Ġre press
Ġre aches
Ġre mind
Ġre search
Ġre semble
Ġd ouble
Ġbe ha
st ition
st hetical
ent ions
Ġwh it
ot es
ut or
ut um
ut ious
Ġh our
Ġh int
Ġh iatus
Ġpr ince
Ġas ks
Ġas cribing
the w
the ory
the ologia
iv ocal
im ony
im ilarly
Ġex hausted
Ġon g
Ġl iqu
Ġl angu
Ġl ament
Ġl ikes
Ġl iking
Ġwe ar
Ġfor get
id ge
id ently
Ġsu ppos
Ġsu its
Ġsu dden
ir us
Ġg ene
ur ance
qu id
ive red
res istance
ist urbed
Äł to
Äł ev
Äł Con
em arks
em bered
em nify
Ġpro ject
Ġreason ers
ĠT RAN
Ġobject ed
con nexion
ve llous
ch oice
end eavoured
il iar
Ġde ar
Ġde ist
Ġde posit
Ġde ceptive
Ġal tered
Ġal kal
Ġint entions
ple ases
act s
act ly
ther wise
us io
ill usory
aw are
am ing
am ount
pl an
Ġun sol
Ġun question
Ġun connected
Ġun important
Ġun anim
Ġun satisfactory
âĢĶ (
ol unteers
ig hed
ig ious
ĠĠĠĠĠĠĠĠ ĠĠ
Ġthere upon
Ġlaw less
tr ies
tr icable
Ġsp ent
Ġsp heres
Ġsp run
Ġcom fort
est ed
Ġpossib ilities
Ġem piric
Ġem bell
Ġso ar
ide ality
Ġv ulg
Ġv icious
Ġv ocation
Ġv irus
Ġtr ave
Ġtr aining
Ġtr ades
Ġtr iumph
Ġwill ed
od es
od ality
ĠThe ology
ĠThe oretical
ĠB ec
ĠB onum
ĠB etween
Ġhe arer
Ġim posing
Ġim medi
Ġim mutable
Ġab ut
Ġab ode
ound s
Ġper taining
all owed
Ġno vel
Ġno body
su pposes
Ġreg ulating
Ġus age
ant ity
ph aenomenon
Ġsh alt
ĠF ac
ĠF RO
ĠF IT
ĠF OU
Ġse arched
Ġcogn izes
Ġst ay
Ġst aff
Ġst ream
Ġst umbling
Ġst yle
Ġqu ick
Ġrel igious
present ing
wh y
wh om
Ġcons cience
now here
ĠA d
ĠA utonomy
ĠA ug
ĠA xioms
ĠA esthetic
ac quire
Ġj uris
Ġacc us
un ion
un attainable
Ġapp end
for ces
ĠFor m
ĠP re
ĠP ref
ĠP ART
ĠP aralogism
Ġdis k
Ġdis s
Ġdis par
Ġdis posed
Ġdis pleasure
Ġdis sect
Ġdis section
Ġdis interested
Ġdis appoint
Ġdis gust
et c
et ic
et ition
et ies
et ext
Ġle ct
te leological
ĠTh ose
ĠTh rough
Ġar m
Ġar gue
Ġch arm
Ġch allen
Ġpart ially
Ġsome one
Ġmoral ists
ĠĠĠĠĠĠĠĠĠĠĠĠĠĠĠĠ ĠĠĠĠĠĠĠĠĠĠĠĠĠĠĠĠĠĠĠ
tern ational
ĠS h
ĠS oul
ĠS UC
ĠS pecial
ĠS econdly
ĠS ummum
ĠS atirae
ĠS ervice
ĠS outh
Ġph antom
el ess
sol ve
ens ed
Ġwho ever
op inions
ĠN ecessity
ĠN EG
ĠO THER
int ensive
int ended
Ġsub mission
Ġsub species
Ġsub ordination
imit ation
Ġfre ed
Ġne arest
Ġne ighbour
ĠIn te
ĠIn finite
ĠIn asmuch
Ġpl ans
Ġcaus a
ort ed
Ġcont ents
ĠG re
ĠG IVE
reat ing
ĠW is
ĠW est
ĠW hence
ĠW HAT
Ġgr own
Ġgr avity
com es
The y
ĠC l
ĠC ause
ĠC opyright
ĠC reator
ĠC opernic
form ulae
Ġpos ed
Ġpos iting
Ġob l
pro jected
Ġfound s
Ġcomm itted
Ġrem oval
Ġdisc ret
Ġsystem atically
ĠH ist
ĠH ypothe
Ġact uality
we apons
Ġext inct
Ġen v
Ġen ig
Ġen ounced
Ġen close
Ġen joined
Ġag ents
stit ution
ĠE v
ĠE IN
ĠE Book
ĠE thics
ĠE lements
ĠR emark
ĠR emarks
Ġeffect ing
Ġeffect ive
Ġter t
Ġthink able
Ġout line
Ġout lines
Ġsensib ilis
reason ing
ear ly
Ġass ures
Ġass uring
Ġass urance
Ġent ers
Ġent ium
Ġent rust
phys iology
ĠD r
Ġgreat ness
Ġbas ing
Ġfact a
Ġfact o
Ġfact s
Ġsec ures
ang led
rib e
Ġincl ined
Ġimp ot
Ġimp utation
Ġimp enetrability
Ġshall ow
Ġorigin ator
Th ou
Th ose
Th irdly
Ġcor rection
Ġcor ruption
Ġinv ention
dis cipline
Ġinf lex
Ġexpl ore
Ġpower less
Ġintellig ibility
ĠM ay
ĠM any
ĠM otion
ĠM ERCHANT
experience d
ĠRe ality
ĠRe place
ĠRe presentation
ĠRe fund
Ġwhere fore
Ġcharacter ized
Ġcharacter izes
ra id
ra ise
ra ising
Ġrest ed
Ġanaly st
Ġref uses
Ġsum mon
ĠL at
Ġcomp ounded
Ġadv ice
Ġres ides
Ġconce ives
Ġconcl usive
Ġ1 7
Ġ1 8
Ġsince re
Ġdec re
ĠU nder
ĠU pon
Ġmet al
Ġill um
lear ned
Ġsupp lement
Ġconsist ently
In formation
In stead
In ternational
Ġaim ed
represent s
represent ing
sub tle
sub stratum
Ġ[ *]
rel ated
rel igion
ĠCon sciousness
ĠOn e
ĠOn t
red it
Ġind ulgence
Ġind estr
Ġind emnify
Ġdeg r
nat urally
nat ura
Ġple a
Ġple asing
EN ERAL
Ġsuccess fully
Ġdefin ing
Ġworth lessness
TI CE
Ġac uteness
Ġarr anging
Ġup wards
Ġel imin
Ġocc asions
Ġobser ver
Ġobser ves
Ġobser vers
mon ition
Ġleg itim
Ġconsequ entia
Ġneed ful
Ġgu ilty
Ġresult ed
Ġmod us
Ġmod ified
Ġmod esty
ĠĠĠĠĠĠĠĠĠĠĠĠĠĠĠĠĠĠĠĠĠĠĠĠ ĠĠĠĠ
Ġsc att
Ġcop ied
Ġcop ula
Ġneg ations
arr ive
subject s
Ġnew sletter
Ġmain tenance
Ġread ing
Ġbod ily
Ġmethod ology
ob edience
Ġeas ier
ov ember
Ġover come
Ġdog mas
Ġnon sense
synthe tic
Ġdemonstr ates
Ġanswer ing
Ġco herence
Ġpost erity
Ġpost pone
Ġexcept ed
Ġmem ory
Ġcontin ual
Ġinqu ires
Ġident ify
Ġprov ision
Ġprov ides
Ġprov isions
Ġinst ant
Ġexpect s
Ġmis lead
Ġmis erable
Ġhop ing
Ġhop ed
Ġhop eless
Ġden ote
Ġappre ciation
ext ended
oc ent
Ġce aseless
Ġgener ality
Ġgener ations
Ġoblig es
Ġremark ably
Ġaffect ing
Ġaffect ions
Ġprogress ing
Ġvari able
Ġsuper stition
sim ony
Ġaid s
bl ance
dif ferences
Ġdraw s
Ġaffirm s
connect s
Ġharmon izes
some times
Ġund isturbed
Ġyour selves
ĠY es
Ġbr ief
Äłin ter
Ġvol ume
Ġjud icial
Ġfut ility
Ġdistinct ive
Ġoper ate
Ġintr insically
ĠAn y
pres ence
Ġcorrect ive
limit ations
Ġpret ence
Ġabs or
Ġlie u
leg al
Ġintu ites
Ġlead en
Ġcontinu ance
imp ression
intellig ent
intellig ibility
ĠUn iverse
Ġdynam ically
just ification
Ġsupport s
Ġsupport ing
Ġtrans fers
ordin ate
ĠEx t
Ġexhib ition
Ġins ignific
Ġrecogn ises
Ġrecogn ised
Ġcomb ines
Ġdesign ated
Ġke pt
Ġabstract ing
comp are
Ġoccup ying
Ġdon ation
Ġdon ors
Ġsur r
Ġsur pass
Ġsur render
Ġsur veyed
Ġsur reptitious
Ġsur vive
Ġdel ight
Ġappro ve
conf usion
conf irmed
Ġrefer ring
cre ated
Ġcircum ference
Ġear lies
consider ing
consider able
quant itas
Ġorgan ism
ĠJ uly
Ġsignific ations
place d
distingu ishing
ĠK ey
ĠK IND
pe ople
Ġfurn ishing
ĠRE AD
Ġsepar ately
Ġtest ed
Ġtest imony
worth iness
div ided
Ġdisp uting
Ġdisp utation
Ġcre ate
Ġcre ations
Ġcarr ies
Ġcarr ied
Ġcarr ying
Ġaccept s
Ġaccept ation
Ġspeak s
val ue
Ġgain s
Ġgain ing
Ġsimilar ly
Ġcosm ology
ĠSt ate
ĠSt aple
origin ally
origin ates
conform ability
Ġinter fere
Ġinter mediate
Ġinter vention
Ġinter preted
demonstr ate
Ġwise ly
Ġconver sation
jud ged
Ġart s
prov iding
real itas
Ġcol lective
ĠAN TITHESIS
conce aled
ante cede
expl ained
Re lease
mort al
Ġheter ogeneity
Ġ9 5
Ġ9 9
Ġtransc ending
Ġtransc ription
Ġtransc ribe
crit erion
great ness
discover ing
Ġindis p
Ġcomprehend ing
Ġreciproc ity
Ġpriv ativum
Ġpriv ilege
Ġequal s
contin ually
den ial
Ġsophist ries
Ġfail ing
Ġanalog on
Ġback wards
ĠIm per
Ġdet ect
Ġdet ail
air banks
Ġpract icability
Ġhum ility
Ġhum ble
Ġprocess ing
Ġindu ces
Ġvent ures
Ġvent ured
ED IES
Ġturn s
post ed
post ulate
Ġdiscern ing
Ġcontrib uting
Ġelev ates
Ġweight y
Ġstud ies
Ġantecedent ia
nex us
look ed
Ġmist rust
accord ant
neg ation
conting ency
Ġpun ished
Ġpun ishments
indic ating
Ġdest ined
Ġdest itute
Ġcap ability
Ġpreser ved
ĠDe fect
ĠDe pendence
ĠDe cember
Ġ200 0
Ġ200 4
attempt ed
Ġgl ance
Ġgl ass
Ġgl orious
Ġintention ally
Ġqual ification
Ġnecessit ates
Ġmark et
ST ART
express es
express ed
express ions
Ġcr own
legisl ating
Ġproportion ate
ĠPU NI
ĠPU RPOSE
Ġprofess ion
Ġprofess es
step s
Ġguard s
Ġguard ing
oper ations
por ated
Ġ6 4
Ġincre asing
Ġexc ites
Ġshort est
ĠÃ¦ sthetical
bid den
Ġoccur red
Ġoccur rence
Ġblind ly
Ġbold ly
Ġpros yllogism
Ġextr icate
Ġdev i
Ġdev ote
ĠCh ange
ĠDo es
Ġstrong er
Ġgenu ineness
PL IED
conci lable
concern s
concern ing
EM NITY
observ ations
signif ies
Ġprim acy
Ġord ered
appro ach
appro bation
pass ages
inter mediate
Ġtax es
addition al
ĠNO TICE
equ al
equ ality
find s
ĠEvery thing
Ġillustr ating
Ex perience
Ġlist en
ĠĠĠĠĠĠĠĠĠĠĠĠ ĠĠ
Ġhead s
Ġconfess ed
dedu ctible
attrib utes
attrib uted
Ġ15 00
fall s
fall acies
Ġprot otyp
imper atives
ĠWh y
Ġsubstant ia
Ġanticip ations
Ġcontempl ates
dec ided
ĠIN TRODUCTION
ĠIN CLUDING
Ġmeasure d
Ġmeasure ment
Ġchapt ers
ĠDis c
Ġroot s
direct ly
restrict ing
import ance
doubt ful
sing le
transcendent ally
PRE SS
Ġattr act
Ġdesc ent
Ġdesc end
Ġdesc ription
Ġcommun ication
ĠREM EDIES
Ġtre asure
Ġreject ing
Ġreject ed
Ġhyp ocrisy
Ġevid ences
ĠPhenomen al
Ġprejud ices
ĠCON TRA
ĠCON CEPTION
ĠCON SEQU
Ġcommence d
Ġadmir able
assum ing
pleasant ness
occup y
bod ies
Ġcur ved
Ġtyp es
Ġcultiv ate
Ġisol ate
concl usion
concl usions
Ġcounter po
Ġloc ations
Ġpremis s
ĠNe g
ĠMat thew
ĠMetaphys ics
Ġapproxim ation
affirm ative
intu ited
intu itus
clear ly
mod es
sour ces
progress ion
prom inently
Ġapprehend ed
Ġcle arest
Ġdr iven
Ġdim ension
arbitr arily
arbitr ium
result ing
ĠEBOOK S
Ġhonour able
enlar gement
enlar ged
continu ation
anticip ate
grad ually
mo ving
Ġann ouncement
Ġcent re
Ġdam age
Ġdam aged
agree ableness
ĠOr igin
Ġindefinite ly
ĠHim self
ĠANY THING
vari ety
demand s
Ġinc ite
search able
AB LE
CI DENTAL
Ġz eal
problematical ly
Ġerect ing
Ġerect ed
conduct ed
Ġattack ing
Ġmund o
Ġrepe at
Ġgif t
Ġuniform ity
Ġviol ence
Ġviol ates
ĠAnt ithetic
Ġsubmit s
Ġconceal ed
Ġsuperior ity
Ġhumili ating
ĠPhys ical
ĠPhys ico
ĠIntuition s
deser ving
LI GENCE
Ġaf raid
commun icated
ĠST RICT
ĠBe fore
ĠBe yond
uct ible
Ġmid st
Ġflatter ing
ideal ism
Ġshar ing
ĠWARRAN TIES
Ġdesp ise
Ġenumer ate
ĠEX PRESS
Ġcomput ers
Ġcompens ation
Ġguarante e
Ġwitness es
Ġirre concilable
dogmat ism
qual ities
accident al
accident ally
furn ish
furn ishes
Ġpress es
Ġru in
pract ised
mist ake
bound s
bound aries
Ġconven ient
want ing
Ġphilosoph ize
Ġpaper work
Ġtouch ing
Ġtouch stone
Ġlic ensed
Ġlur king
Ġdetr iment
Ġdetr imental
Ġspo il
Ġspo ken
Ġvac uum
ĠSome times
ĠNor th
Ġsubstit uted
Ġentertain ed
Ġcoinc ides
ĠANAL OGY
Ġaccompany ing
excl uding
class ification
Ġted ious
dev iate
Sp ace
Sp eculative
Ġves sel
invol ves
invol ved
annihil ation
defect ive
Ġstead ily
Ġstead fast
Ġell ipse
Ġparticip ating
previous ly
Ġoffer ing
Ġsil ence
Ġinex tricable
seem s
geometr y
geometr ical
Ġperplex ity
ĠAb b
ĠPart icular
Ġdissimilar ity
ĠDIS CLAIM
Ġawaken ing
Ġawaken ed
Ġdeliber ation
Ġindubit ably
Ġembrace d
Gr anted
support ed
ipp ed
Ġach ieve
endeavour s
De fects
cosm ical
incre asing
introdu ced
transc end
exhib ited
prob ability
merit orious
peculiar ity
uit ous
Ġcast s
proportion ed
sight ed
thorough ly
estim ation
desc ending
Ġescap ing
Ġescap ed
OS SIBILITY
Ġinn ocent
Ġdark ness
Ġcompr ises
Ġvit al
Ġperce ives
Ġperce iving
Ġdisgu ise
Ġdisgu ised
Ġchar ges
Ġnear ly
ĠGer man
ĠDes pite
ĠDes cartes
ĠMis sissipp
Ġ178 7
Ġfri end
Ġfri ends
Ġcounsel s
Ġdefici ent
confirm s
mag nitude
Ġrom ance
Ġip so
anthropomorph ism
yield ing
remo ved
PRO JECT
Ġaut hentic
ĠIND IRECT
profess ing
Ġric hes
Ġastr onom
Ġtheore m
Ġwarn s
Ġcens ure
Ġinsp ire
Ġincor porated
Ġrefin ed
Ġrevel ation
Ġlow est
ĠIM PLIED
Ġspecul ations
Ġrig orous
Ġrare ly
Ġperpet ually
Ġreluct ant
Ġprepar ation
Ġcommerci al
Ġinfring ement
Ġappropri ated
Ġchem ical
Ġfacil itate
Ġtaut ology
Ġdownload ing
Ġbenefic ent
Ġrecommend ation
Ġpet ty
Ġsoci ety
Sy nthetical
signific ance
Al though
Mathemat ics
VI DED
mem bers
writ ten
Again st
danger ous
smell ing
Ġbes ide
Ġmer its
Ġanthropomorph ic
toward s
Ġtemper ament
Ġsem blance
Ġincontest ably
Ġecon om
Ġlof ty
Ġuninter rupted
Ġunansw erable
ofess or
Ġtroub ling
Ġimpract icable
Ġstopp ed
ĠPers on
ĠSen suous
ĠOp inion
ĠGos pel
Ġgrate fully
Ġremed y
ĠEngl ish
Ġamid st
ĠDO CTRIN
Ġinviol able
Ġaffair s
Ġindul ge
Ġantiqu ity
Ġassertor ically
Ġcoal ition
Ġunden iable
Ġvolunt ary
ĠArgum ents
Ġfanci ed
Ġextravag ant
Ġcomplaint s
ĠMonad ists
Ġau xiliary
princip ium
vi our
inevit ably
Ġrap id
Fourth ly
NES S
WARRAN TIES
omat on
ĠCHA PTER
ENTI AL
commerci um
Ġtant amount
Ġcurs ory
Ġcush ion
Ġfing ers
Ġeleg ance
Ġearn est
Ġepo ch
Ġbeha viour
Ġgene alogical
ĠTRAN SITION
Ġunanim ously
Ġsprun g
Ġvulg ar
Ġtrave l
ĠFRO M
ĠFIT NESS
ĠAug ust
ĠPref ace
ĠSUC H
ĠNEG LIGENCE
ĠMERCHANT ABILITY
ĠReplace ment
Ġindestr uctible
Ġlegitim acy
Ġscatt ered
Ġinsignific ant
Ġearlies t
ĠStaple ton
ĠPUNI TIVE
Ġprototyp e
ĠCONTRA CT
ĠCONCEPTION S
ĠCONSEQU ENTIAL
Ġcounterpo ise
ĠDISCLAIM ER
ĠMississipp i
ĠDOCTRIN E
a ut
g n
m ark
Ã ¢Ä¢Ä
Ġ ility
Ġ ides
Ġc ing
Ġm ents
Ġf er
Ġn t
om pl
Ġg er
ĠI R
Äł V
Äł on
Äł ter
Äł ur
Äł ag
Äł cons
Äł cor
ere ct
Ġif ication
ca re
ĠP H
Ġow ed
ÃĦÅĤ P
ÃĦÅĤ l
Ġen ces
over n
sen sib
red istrib
Äłm od
imag in
1 2
L AR
M ENT
o k
r os
v ous
v ered
Ġ QU
Ġt ic
Ġa me
er c
Ġp tion
Ġn ing
se urs
Ġre e
as ur
Ġu res
Ġu red
ĠI S
Äł ut
Äł cogn
Ġv en
ph il
ĠA S
te ll
ie vous
ĠR I
ful fil
lu ct
stru gg
Ġut ed
ap per
Äłs c
Äłf r
Äła ff
appre hend
Äłpr op
SI ON
contem por
OS O
C he
I m
N O
U B
a h
a str
g en
g est
Ġ ication
Ġ ided
Ġ ively
Ġ izing
Ġt ical
Ġo y
is c
en n
er um
Ġp p
Ġin ed
es ca
Ġis ing
Ġis hes
Ġre ct
Ġd uc
st ac
Äł k
Äł ver
Äł if
Äł ul
Äł act
Äł sol
Äł ha
Äł ass
Äł reg
Äł arr
Äł br
Äł att
Äł gu
Äł Ex
Ġal le
am orph
Ġst one
Ġev ol
Ġen cy
over ably
ĠL I
bl ind
comm end
icip ations
IC AL
Äłde l
Ġver sion
omni pot
A T
C om
U SION
a ud
a dequ
b at
b ungl
c her
c ob
c itiz
d ur
d am
d ile
d imin
f anci
g overn
h n
h ic
h ist
h yp
i og
l oc
m oun
m ock
n ight
n ull
p ict
r hapsod
s a
s pl
t re
t emper
u gg
v oc
w ond
z er
z ism
Ġ nd
Ġ ener
Ġ ÄłÄł
Ġ utes
Ġ 00
Ġ *****
Ġa se
Ġa the
Ġa ke
in j
in comp
Ġo pt
re ve
re du
is ter
is ol
is yllogism
is seurs
en esis
at tr
er v
Ġc ert
Ġp us
ic an
ic ros
Ġin ess
Ġb an
or ment
Ġf ect
Ġn is
se ver
ou re
Ġis es
Ġcon d
st e
ar ond
ll ed
iv eness
im m
os oph
Ġfor t
ur p
Äł K
Äł not
Äł me
Äł par
Äł Th
Äł disc
Äł Re
Äł Ãĥ
ul og
em pl
em piric
con sol
con dem
am pl
de f
de pre
de part
ol ens
tr anqu
Ġexist ent
Ġtr ies
ction s
pr on
Ġhe d
su cceed
Ġus ion
ant agon
ex ec
ex to
ac knowled
un fortun
Ġy p
pre par
pre ponder
pre gn
Ġpl ays
me asur
com pl
ser vation
Ġcomm end
ÃĦÅĤ D
ÃĦÅĤ pr
we ak
Ġen e
sess ion
Ġent ities
eci proc
necess it
ys ms
gin ia
ĠU S
acc ompl
In trodu
Ġi an
Ġi ly
sub sum
Ġright eous
Ġinfluence d
ont al
sh ort
pres um
Äłc rit
Äłc oun
Äłre p
Äłre al
ru in
comp ut
ometr y
Äłd en
ian a
Su bst
super ior
Ġcap it
cul ation
ST EM
che son
IL OSO
Qu od
cap it
fig ur
sym bol
sch ool
Ġlu cid
indu bit
ibr ium
force ability
NO W
2 5
A F
A RA
A rist
B C
C ertain
C rit
C ategor
D EM
D AMAG
E I
G RA
J u
L ogical
L EMENT
M e
M AL
N ER
O RO
P le
P ossib
P art
R even
S THE
T hing
U S
U nt
b i
b es
b us
b ack
b new
c ence
c ivil
d oll
d rop
e in
e br
f an
f ict
f ruit
g y
h ind
h op
h io
m und
m ov
o qu
o ca
p ob
r al
r ont
s ies
s ound
t w
u pright
u phold
v ict
w elf
Ġ &
Ġ q
Ġ Â
Ġ ject
Ġ ile
Ġ ived
Ġ icism
Ġa ver
Ġa equ
in ated
in ward
re ject
re ption
re pe
re sem
re luct
re commend
it ating
en cour
at en
at ure
er ving
Ġc k
Ġs es
Ġp ens
al ar
al tern
al leg
ic ed
Ġin structive
Ġb it
Ġb er
Ġm us
Ġm ill
Ġn et
se cret
Ġis hing
Ġcon qu
Ġd iction
st art
st arr
om nit
ot ot
ar ol
ect yp
Ġh ole
Ġu de
the ore
im prov
Ġan e
Ġl ib
ith ful
ib ib
Ġsu ited
ld arond
ur b
ver t
qu i
Äł ce
Äł end
Äł ph
Äł out
Äł wh
Äł so
Äł form
Äł contr
Äł part
Äł sim
Äł supp
ain drop
if t
per sist
per pet
per plex
con junct
Ġare d
ve il
end our
end els
Ġal s
Ġint e
am ps
ab ol
ab ilities
de tr
self ish
Ġca ution
ans as
min or
ies tle
of fer
Ġr ing
Ġem ent
pr ag
use ful
su ppos
ex ert
ex cell
ĠA R
ac id
ac cept
ult imate
un ceasing
un iform
Ġy ing
ĠP O
ĠP ER
str ong
oy ed
be ho
ort un
com men
The oretical
Ġcomm encing
ici um
ÃĦÅĤ A
ish able
Ġrespect ive
we b
par adox
av en
dis play
can on
contr ast
Ġi um
Ġac knowled
arr ogant
Ġing s
ob stac
ov ere
Ġut ing
Ġce ption
Ġaw a
cor rection
philos oph
Äłc he
Äłc irc
caus al
Ġ5 5
Äłp rom
Äłp ost
Äłd iv
Ġconver ted
ĠAN D
ret ched
Pr otot
Ġate ly
Ġpract ised
Äłex tr
JEC TIVE
Ġ7 5
Ġguard ed
ili ates
vers ed
col lect
Ġpleasant ness
UL AR
opp on
Ġmov able
maj or
det ect
TRA DEM
sk ill
Ġfere nce
LAR Y
cob web
spl endour
condem n
" ),
( $
) -
) ?
* (
. ]
. ),
0 2
0 4
1 4
2 1
2 3
2 4
2 6
2 7
2 8
2 9
3 0
3 1
3 2
3 3
3 4
3 5
3 6
3 7
3 8
4 2
4 3
4 4
4 6
4 7
4 8
4 9
4 280
5 1
5 2
5 3
5 4
5 6
5 8
5 9
6 0
6 1
6 2
6 3
6 4
6 5
6 6
6 7
6 9
7 0
7 2
7 3
7 4
7 6
7 7
8 1
8 7
9 6
; [
A Y
A IN
A pperception
A PPENDIX
B etween
C osmological
C ritical
C reating
D IC
D ialectic
D ifferent
D URE
E nd
F UND
G EMENT
G ENERAL
H is
H uman
H ave
I TH
L ast
L ove
L ogic
L ocke
L AF
L LARY
M ichael
N on
O r
P lato
R TH
T wo
U pon
U AL
U pdated
V II
V olunteers
W NER
Y es
Y STEM
] .
_ [
a os
a ugment
b all
b esides
b servation
c s
c ible
c rowd
c asus
c overably
d ata
e per
e fficient
e veloped
e ometry
f ull
f ix
f lection
f aces
f illed
f ancy
g one
g ained
h art
h old
h itherto
h oliness
h omogeneity
i ary
i ently
j acent
k ingdom
l ose
l ink
l lect
l aid
l come
l io
l ix
l urality
l iability
m n
m al
m ill
m unity
m acy
m oments
n icious
o ber
o ved
p ort
p ast
p utes
p iece
r d
r um
r ible
r ances
r ash
s in
s ought
s ake
s ided
s cribed
s ciences
t act
t able
t ask
t lest
u seless
v ocation
w ished
w ater
w rong
w ants
x ury
y ers
y pon
Ġ X
Ġ ension
Ġ ensive
Ġ iving
Ġ ibility
Ġ iding
Ġt s
Ġt ib
Ġt em
Ġt rem
Ġt ends
Ġt utor
Ġt orment
he art
Ġa we
Ġa ys
Ġa ken
Ġa version
in a
in ent
in ning
in ability
in ternally
in ery
in heres
in conceivable
Ġo mission
Ġthe e
Ġthe ist
re ach
re ceived
re hension
re cognize
re pute
re putation
it ial
it udes
it itious
en forceability
at s
at ical
at ur
at urn
er on
er ation
er ate
er ring
Ġw al
Ġw ent
Ġw ound
Ġw arr
Ġw ild
Ġw rest
Ġw atch
Ġw rought
Ġw retched
Ġc ou
Ġc un
Ġc ath
Ġc ount
Ġc ub
Ġc rowd
Ġc asus
Ġc odes
Ġs i
Ġs it
Ġs end
Ġs ink
Ġs ap
Ġs ites
Ġs adly
Ġp u
Ġp al
Ġp ill
Ġp ose
Ġp ause
Ġp oly
Ġp omp
Ġp ush
ic ing
Ġin an
Ġin form
Ġin ane
Ġin expl
Ġin compar
Ġin estim
Ġin conceivable
Ġin habit
Ġin equality
Ġin sensib
es ult
Ġb are
Ġb lessed
Ġth ine
Ġth resh
Ġth ousand
or ter
or ably
or ned
or igination
Ġm it
Ġm ir
Ġm over
Ġto ld
ce lebrated
ct ober
Ġf ain
Ġf if
Ġf ame
Ġf ight
Ġf ra
Ġf atum
Ġf light
Ġf ier
an alytic
an imity
Ġn es
Ġn ations
Ġe b
Ġe ff
Ġe lect
Ġe ulog
se verest
ou p
ly ing
le ft
Ġre at
Ġre ly
Ġre ign
Ġre ward
Ġre call
Ġre ap
Ġre new
Ġre production
Ġre trace
Ġre capit
Ġre rum
Ġcon e
Ġcon ced
Ġcon dem
Ġcon vey
Ġcon veyed
Ġcon ducive
Ġd il
Ġd ie
Ġd ress
Ġd ial
Ġd ates
Ġd ull
Ġd umb
Ġd rew
Ġbe ad
Ġbe que
Ġbe fits
st ain
st ates
st ability
st atus
st ones
om as
om ain
om aly
ent ities
Ġwh ol
ar ing
ar ities
as p
as cribed
as ibility
ut most
ut cheson
ect ions
Ġh ide
Ġh ost
Ġh over
Ġpr ize
Ġpr ae
Ġpr oud
Ġpr ogram
Ġas h
Ġas pir
Ġu ally
the ning
iv al
iv ial
iv isible
iv oca
im pose
im poses
im mortality
im material
os session
Ġan gu
Ġan xious
Ġan terior
Ġan omaly
Ġex ceed
Ġex change
Ġex cess
Ġex hort
Ġex empl
Ġl end
Ġl ust
Ġl oth
Ġl ack
Ġl iable
Ġl au
Ġl ibr
Ġl iberum
Ġnot ifies
pt uously
ject ive
Ġwe ari
Ġwe ighed
Ġwe lcome
Ġfor ge
Ġfor be
Ġfor cing
Ġfor fe
Ġfor sakes
id ity
id ens
id ger
id night
ib les
Ġsu pre
Ġsu spect
Ġsu nt
cept ical
cept ible
ter onomy
ure ans
ir ation
ir ginia
Ġg out
Ġg aps
Ġg bnew
Ġwith stand
ur red
ur ning
ci ate
ver sely
ĠI d
qu erable
og ue
res ides
ist ences
Ġor n
Ġor ator
Ġor bits
Äł ic
Äł all
Äł pos
Äł ca
Äł op
Äł sy
Äł av
Äł man
Äł cont
Äł dist
Äł fe
Äł adv
Äł super
Äł trans
Äł gener
Ġcan st
ec um
ec utive
ec undity
if ling
and i
and o
and al
and ed
and om
per mit
per ceived
per mission
per suasion
sel s
ul zer
Ġall ot
Ġall ure
Ġall ied
em y
rom ise
Ġpro lix
Ġreason ably
ĠT ION
con veyed
con verted
con ducive
con versely
con querable
ate ful
ch arge
ch asm
ch ievous
ch arities
il ation
il anthrop
il ibrium
Ġde ter
Ġde fe
Ġde arest
Ġde let
Ġde pict
Ġde eper
Ġal arm
ore d
Ġint act
Ġint imate
Ġint imid
act ivity
us able
us iveness
Ġha ph
ill ain
am ination
ab ile
ab iding
ab yss
pl ies
pl ays
pl anation
pl aces
pl acing
pl iance
pl ausible
Ġun t
Ġun w
Ġun re
Ġun tr
Ġun sh
Ġun just
Ġun real
Ġun necessarily
Ġun qual
Ġun belief
Ġun exception
Ġun satisfied
Ġun sett
Ġun changed
Ġun usual
Ġun influenced
Ġun restricted
Ġun alter
Ġun guarded
Ġun bidden
Ġun yielding
Ġun link
Ġun erring
Ġun conquerable
dition s
dition al
de ceived
de istic
ol ence
ol lection
ig ence
ig our
Ġca el
Ġca utious
Ġ( "
Ġ( *
tr od
tr ied
tr ack
Ġsp ur
Ġsp her
Ġsp ort
Ġcom ets
Ġr it
Ġr ot
Ġr ich
Ġr ose
Ġr ude
Ġr aces
Ġr iver
Ġr het
Ġr aindrop
est ing
Ġem pire
Ġwor se
Ġexist ential
her self
Ġv a
Ġv ast
Ġv igour
Ġtr ial
Ġtr aces
Ġtr iang
Ġtr anqu
Ġtr ivial
Ġtr ifling
Ġwill ingly
fore ign
fore seen
ĠB erke
use ment
ak ed
Ġim material
Ġim proved
Ġim mortal
Ġim pregn
Ġab sol
Ġab und
Ġper ish
Ġper man
Ġper tains
Ġper nicious
ori ally
Ġform arum
Ġnat ive
Ġnat ura
Ġno bl
su pposed
su pposing
su itable
ame ter
pos its
pos itio
Ġk at
Ġk new
ind ifference
ind ulgence
Ġreg ions
Ġreg ret
Ġreg ulated
Ġus urp
ex ternally
ex hausted
ex terior
ex actly
ph rase
Ġsh ame
Ġsh ake
Ġsh ine
Ġsh aken
Ġsh ield
Ġsh ared
Ġsh orter
ĠF unction
ĠF ull
ĠF AC
ĠF airbanks
ĠF ebr
Ġse a
Ġse yn
out side
out set
Ġcogn ise
Ġcogn iz
Ġcogn itio
Ġcogn isable
Ġst at
Ġst ory
Ġst ars
Ġst ored
ud o
Ġqu ib
Ġide ally
Ġrel iable
Ġev ade
wh olly
ance d
ĠA K
ĠA re
ĠA ff
ĠA CT
ĠA ldarond
our y
our ce
Ġj ugg
Ġj esting
Ġacc um
Ġacc ru
Ġacc used
Ġacc redit
Ġman hood
ult aneity
un ite
un ted
un its
un certain
un necessary
un limited
un certainty
un iting
un til
un changeable
un true
un ciated
un searchable
Ġunderstanding s
Ġad just
Ġad jacent
Ġad jective
sequ ence
for ward
Ġy s
Ġy aw
Ġy oke
ĠP ublic
ĠP lease
ĠP olem
ĠP OSSIBILITY
ĠP ARA
ĠP lurality
Ġdis mis
Ġdis appro
Ġdis advantage
Ġdis posing
Ġdis continu
Ġdis continue
Ġdis appeared
Ġdis pleases
Ġdis repute
position s
), [
et us
et ting
et ched
so hn
Ġknow able
str ings
str iking
Ġpre cl
Ġpre ference
Ġpre fers
Ġpre ponder
Ġpre posited
Ġpre caution
Ġpre mise
Ġpre monition
ĠTh ough
ĠTh irdly
ĠTh omas
Ġar ouse
Ġch amp
Ġch aos
ener ation
ener ally
Ġrepresent ative
sp aces
Ġsome where
Ġevery day
Ġsynthe ses
ĠS ing
ĠS ense
ĠS END
ĠS econd
ĠS alt
ĠS enses
ĠS pirit
ĠS ciences
ĠS imilarly
ĠS UB
ĠS MAL
ĠS aturn
ĠS ceptical
Ġph ilanthrop
sol ved
ens ity
ens ome
pre determined
pre hensible
pre pared
ĠN ame
ĠN oumen
ĠN ihil
ĠN early
ĠN ovember
oy ing
ness es
ĠO therwise
ĠO WNER
ĠO ctober
Ġsub du
Ġsub sid
possib ilities
imit able
Ġfre es
condition al
ĠIn cl
Ġpl un
Ġcertain ties
Ġend uring
Ġcomple ting
ort ing
Ġcont ending
ĠG over
ĠG enerally
ĠW ould
ĠW ell
ĠW OR
ĠW IL
ĠW ITH
ĠW idger
Ġwhen ever
ploy ment
Ġgr oup
Ġgr asp
gor y
me et
Ġcontr ari
Ġgo ld
The ological
ĠC ity
ĠC omp
ĠC AN
ĠC OM
ĠC artes
ĠC ORO
ĠC arol
Ġow e
ast ically
ser ved
form ing
Ġob no
Ġob sole
Ġconnect ions
pro ves
pro posed
Ġdes ist
Ġdes cribes
Ġdes pot
Ġfound ing
old est
Ġcomm ences
Ġcomm erce
Ġdist rust
ari us
Ġfollow ers
Ġemploy ee
Ġwas hed
ÃĦÅĤ S
ÃĦÅĤ v
ÃĦÅĤ un
Ġrational ist
Ġrational ism
with drawn
Ġpur ified
Ġrem ember
Ġrem embered
Ġdisc ord
ĠH as
ĠH ad
ĠH itherto
ĠH armon
der iv
Ġact or
Ġact uating
we aken
âĢĿ .
âĢĿ ),
Ġext ol
Ġext ingu
Ġen unciation
Ġen lightened
Ġen emy
Ġag ency
over look
over step
over throw
Ġval uel
par alogism
under taking
Ġground ing
med ium
med iable
ĠE s
ĠE qu
ĠE dition
ĠE lucid
ĠE mail
ĠE BC
ĠE LEMENT
ĠR eciproc
Ġter minis
Ġter rible
Ġpres ume
Ġpres iding
Ġout we
Ġout dated
Ġexp end
Ġexp edient
Ġexp orting
wo ven
exist ed
exist ences
Ġam ply
Ġreal e
Ġreal itates
Ġent rance
av a
Ġperfect ions
man kind
phys ician
phys iological
Ġatt ends
ogit o
ĠD E
ĠD est
ĠD irect
ĠD ON
ĠD OM
ĠD omain
ass ion
ass ent
ass able
ass istance
ident ity
ident ical
hemat ism
Ġfact i
determin able
cogn izing
Ġimp ure
Ġimp air
Ġimp elling
Ġimp enetrable
Ġimp aired
Ġimp assable
yp al
Th ought
Ġcor por
Ġconstit uent
Ġpurpose ly
Ġhere in
necess itate
dis k
dis junctive
dis similar
dis appears
dis interested
dis putes
Ġinf used
Ġinf ancy
Ġexpl ication
Ġinterest ing
ĠM ore
ĠM atter
ĠM odality
ĠM endels
ĠM AY
Ġkind ness
Ġstr ive
Ġstr ay
Ġstr ain
Ġstr iving
Ġhand le
Ġhand les
Ġdem erit
ra ised
ra ft
Ġconc ess
Ġconc ur
Ġappear ing
othe ology
Ġrest less
Ġanaly ses
empt y
Ġref ute
Ġref used
Ġref using
Ġref rain
reg ulate
reg ulated
Ġdiv ides
ev ents
Ġsum m
Ġsum s
und ecided
ĠL est
ĠL ogicians
Ġcomp ound
Ġcomp any
Ġcomp ulsion
Ġcomp elling
Ġcomp etition
Ġcomp romise
Ġcomp ilation
Ġadv ised
Ġcontradict ing
Ġdedu ctible
Ġassum es
Ġres iding
lu de
Ġtruth fulness
Ġ1 1
Ġ1 4
mediate ly
Ġdec ay
Ġdec ried
ĠU pdated
Ġmet als
acc ustomed
Ġmight y
Ġsupp ressed
Ġpredic ating
Ġpredic ables
Ġpredic aments
Ġexpress ing
Ġexpress ly
Ġphys ician
Ġphys ica
Ġwork ing
In asmuch
In trod
Ġi x
Ġi ii
Ġconf er
Ġconf ident
Ġconf usions
Ġconf using
Ġconf idently
Ġdiscover ies
Ġcl ock
Ġcl oud
sub scribe
sub stitution
sub ordinate
ĠCon cept
ĠCon trib
ĠCon junction
ĠCon tent
ĠCon tact
ĠCon ditions
know ing
Ġind ivisible
Ġind olence
Ġdeg rade
Ġdefin iteness
Ġac y
Ġarr og
Ġarr anges
Ġclear ing
Ġimper illed
Ġregress ion
Ġregress ively
Ġel oqu
Ġed iting
Ġed ifices
cont end
cont act
mon ads
Ġsole mn
Ġperson ified
Ġexer ted
Ġneed ing
mis conception
mis apprehension
Ġfin ishing
Ġfin anci
Ġaccord ant
Ġconting encies
Ġwant ed
Ġsc ale
Ġsc andal
part e
part ed
arr ay
arr ived
aim ed
contradict s
contradict orily
Ġelement al
Ġassert orial
Ġassert orially
Ġmethod ical
Ġcommand ing
Ġmean est
Ġless on
Ġless er
Ġless ened
ĠTH OSE
Ġover throw
Ġover coming
go als
transcendental ism
Ġsol ving
Ġdog ma
Ġnon entity
Ġnon propri
Ġdemonstr able
Ġrelations hip
bit ious
Ġequ ipped
Ġequ ilibrium
Ġideal istic
Ġideal izing
Ġco in
Ġco at
Ġco ar
Ġco ol
Ġco ins
Ġco erc
gr ity
gr ace
ĠPr imal
ĠPr iestle
ĠSu b
ĠSu pposing
ĠSu bst
Ġbound less
Ġconduct ing
men se
ail ing
Ġident ification
Ġ2 1
Ġ2 3
Ġop ens
Ġexpect ing
Ġmis use
Ġmis ology
Ġmis representation
Ġmis inter
Ġmis applied
Ġmis sed
Ġmis leads
Ġmis fortune
Ġmis chief
Ġmis erably
Ġhar sh
Ġpass ion
Ġpass ions
Ġargument ative
Ġden ying
Ġden otes
Ġappre ciated
Ġappre hensions
ext ends
ext reme
oc ate
oc ks
Ġce ased
Ġgener ates
Ġgener atio
Ġoblig atory
Ġremark ing
Ġprom ising
Ġprom inent
Ġsuper ficial
Ġconscious ly
ĠBeing s
sim plicity
sim ultaneous
Ġaw akes
bl under
bl ances
dif fer
ne arer
Ġlegisl ator
Ġpeculiar ities
Ġmaintain er
Ġaffirm ing
connect ing
Ġunderstand s
ave olens
cor poreal
some what
Ġund one
Ġund ecided
Ġund isc
Ġund eveloped
des cribe
des ired
Ġcirc uit
Ġspe ech
Ġbr utes
Ġbr anch
Ġbr utum
Ġbr idge
happ ily
happ ened
right eous
sh ip
Ġign ore
categor ically
Ġintellectual ized
Ġte leology
Ġfut ile
Ġdistinct ly
Ġdistinct ness
br ain
Ġclaim ing
Ġoper ative
Ġoper ates
fer ing
yn ics
Ġendeavour ing
ĠAn alog
pres cribed
Ġconv ict
Ġconv ictions
Ġcorrect ing
Ġthree fold
Ġpret ext
Ġdistrib utive
Ġpar simony
Ġpar abol
Ġanal ogical
sensuous ly
ap se
exam ine
exam ined
exam ining
Ġinvol unt
Ġmed itation
no ble
no isseurs
leg ality
proc ure
requ est
requ iring
imp enetrable
ĠUn philosophical
Ġdynam ics
Ġask ing
fe es
just ifies
Ġtrans lated
ĠEx ternal
ĠEx tent
ĠEx amples
ĠEx istences
ĠEx ecutive
ĠEx amination
rem ove
rem ote
rem arks
rem ained
rem aining
att ached
att acks
caus ed
Ġprof undity
Ġpain s
Ġpain ful
Ġexcl uding
Ġexcl usive
Ġvain ly
Ġdesign ed
Ġdesign ates
Ġdesign ating
IN CIDENTAL
ask ed
Ġsuccessive ly
comp ound
comp ressed
appl ies
Ġbl ow
respect s
respect ing
respect ive
Ġ5 96
oriz ontal
Ġmeaning s
Ġmeaning less
incl ined
incl udes
Ġthird ly
ĠAr chitect
Ġra ises
ft p
ific ate
Ġdel ivers
Ġdel ine
Ġdel usions
Ġdel icate
Ġdel ivered
Ġappro ved
Ġappro val
Ġappro bation
consist ing
Ġ* (
ĠV ery
conf ounded
conf utation
Ġrefer able
Ġche er
Ġche mist
thought s
ĠSp here
Ġdecl ined
Ġens ure
Ġens ures
Ġens uring
univers ally
Ġlet ters
Ġge ometer
Ġagree ably
quant a
Ġorgan ic
ĠJ UD
Ġarbitr ium
Ġsignific ancy
then ed
ĠK ings
ĠK NOW
constit uted
constit uent
mathemat ician
ĠRE PL
ĠRE FUND
Ġsepar ates
Ġsepar ating
Ġ4 000
Ġ4 280
iter ated
Ġcare lessness
worth less
ip id
ip ate
metaphys icians
CE DURE
Ġoff ence
ins ipid
div isible
possess ions
urs ively
Ġcre ative
Ġscept ic
Ġfa ulty
Ġaccept ance
cogit able
cogit ating
Ġwis er
Ġwis est
speci fic
ven al
gu ides
Ġgen ius
think er
think ers
change ably
Ġfavour ite
Ġprop ension
Ġprop ounded
Ġoccasion ing
Ġoccasion ed
Ġoccasion ally
Ġsure ly
Ġdogmat a
Ġdogmat ists
satisf y
analy sed
origin ated
origin ator
origin arium
Ġgeometr icians
Ġgeometr ician
Ġhigh way
predic ated
predic aments
Ġinter ference
Ġinter ior
Ġinter rog
Ġinter pretation
Ġinter woven
Ġinter fering
demonstr ations
demonstr atively
Ġconver ting
Ġir respective
Ġfr ustr
Ġfr ank
Ġfr ames
imin ished
jud ges
jud ging
jud icium
sens atio
Ġart ifice
real ized
real issimum
Ġcoun tenance
Ġcoun tries
adv ances
Ġcol lect
Ġmechan ically
expl anations
Ġ9 2
Ġredu cing
Ġexper iments
Ġexper imental
vol unteers
discover s
matter s
Ġaccess ed
Ġaccess ible
Ġcanon s
obser ve
Ġur ges
ND ATION
Ġprud ential
first ly
Ġaccident ally
Ġclass ed
Ġcomprehend ed
Ġlos es
investig ating
contin ual
Pr ofessor
Ġdivers ities
Ġdefect s
attain ing
Ġsk etched
ĠIm mortality
Ġdet ection
Ġpract icable
Ġrec ent
Ġrec ord
Ġrec ollection
Ġhum our
Ġenlar ges
Ġenlar ging
Ġwrit er
Ġconfin ing
Ġasc ends
Ġvent uring
inf luences
adequate ly
Ġsent imental
Ġbene f
Ġbene fits
Ġfirm ness
Ġsucceed s
Ġstud ent
Ġobsc ured
maxim um
Ġmist aking
neg ations
neg lect
gl orious
say ing
Ġdest iny
Ġlower ing
ÄłA r
ĠPh alar
Ġpreser ves
Ġpreser vation
Ġ200 3
attempt ing
Con ceptions
aff inity
draw ing
Ġgl im
Ġgl ory
psych ologia
Ġeng raft
ÄłP h
Ġqual ified
Ġreckon s
Ġstreng thening
Äłe qu
Ġ7 0
Ġauthoriz es
Ġauthoriz ing
Ġestim ates
Ġbest owed
imag ine
imag ined
Ġspirit uality
ĠPU BL
ĠPRO BL
ĠPRO CEDURE
ĠHere in
Ġreflect ed
regress ive
regress us
Ġprofess ions
Ġver ify
Ġver bal
Ġguard ian
oper ate
oper ative
oper ating
Ġ6 5
cond itio
Ġren amed
Ġren ounces
Ġren ounced
Ġrep ul
Ġrep utation
Ġrep orts
Ġrep orted
Ġhabit ation
Ġincre ases
Ġexc use
Ġexc ited
Ġexc usable
supp lied
pret ext
oblig atory
Ġsearch ing
Ġstru ck
human ity
Ġmo ves
Ġoccur ring
Ġblind ness
Ġbeh old
Ġbeh alf
Ġextr act
Ġdev iate
ĠCh ief
Ġenjoy ing
ĠEm piricism
ĠEm ployment
Ġstrong ly
Ġstrong est
ĠLeibnitz ian
diffic ult
unte er
defin e
depend ing
inqu ire
infinite ly
Ġderiv able
Ġtw ist
Ġsuggest s
Ġsuggest ion
Ġsuggest ions
ĠEpic ureans
addition s
second ly
deg rees
Ġappe als
equ ally
equ ivalent
concept us
inst ance
inst ances
Ġfortun ate
ĠEvery one
Ġillustr ations
Ġtransgress es
Ġtransgress ing
Ex istence
Ex amples
Ġhead er
Ġimit ate
Ġimit ating
Ġpermit s
Ġadapt ation
Ġsecret s
show ing
attrib uting
require ment
Ġvan ish
Ġvan ishes
Ġprep ares
ĠWh ole
Ġsubstant ive
Ġcontempl ate
Ġobe ys
Ġhind ers
ĠIN TERNAL
Ġaddu cing
Ġgover nor
ĠDI RECT
Ġmoder ately
Ġschol ar
Ġschol ars
Ġschol astically
Ġroot ed
direct s
direct ing
direct ed
begin s
sing ular
ACE MENT
Ġil legitimate
vers a
anteced ently
analytical ly
advantage ous
Ġomni present
Ġomni presence
labour s
person s
person al
person ality
Ġattr actions
Ġsym path
Ġsym bol
Ġsym pat
Ġcommun ic
abstract ed
ox ysms
Ġ8 5
Ġ8 41
Ġinj uring
Ġinj ury
Ġreject s
Ġreject ion
Ġsuff ers
Ġsuff ices
Ġabandon ed
Ġstart ed
Ġevid encing
Ġconfused ly
Ġaccompl ishes
gener ations
Ġve x
Ġve iled
Ġve hic
correct ly
correct ness
Ġspect ata
Ġspect acle
occup ies
maintain s
aenomen a
Ġcur iosity
compar atively
Ġtyp ic
concl usio
Ġalter ing
Ġsett lement
Ġlegitimate ly
sec urity
Ġdict ation
Ġdict ated
Ġloc ale
Ġdeep est
Ġmeant ime
Ġimpart ed
Ġimpart iality
ĠMat erial
command s
Ġblame less
Ġmon ogram
Ġmon ads
distrib ute
distrib ution
affirm ing
affirm ations
col lection
col lected
mod i
progress us
need ing
author s
prom ise
prom ote
Ġtell s
Ġlink ed
construction s
Ġfulfil s
Ġtend er
Ġtend encies
Ġcle ared
Ġresol ves
Ġresol utions
Ġreplace d
Ġdr ives
Ġhard ness
result s
Ġdepr ives
Ġundert akes
Ġstop s
ĠPer ception
ĠPer fect
ĠPer haps
ĠPer mitted
Ġprefer able
Ġprefer red
ĠCategor y
ĠCategor ical
Ġpresum ed
Ġambig u
Ġteach ings
Ġcalcul ation
Ġhyper bol
inc erity
enlar ges
enlar ging
err ors
grad uated
reciproc ity
indis pensably
mo on
Ġjoin ing
Ġann ounces
Ġann oying
ĠTr anscendent
ĠTr ancendent
Ġerrone ously
cop y
cop ying
coun try
Ġaugment ative
Ġcent ury
Ġreve aled
Ġalleg ing
agree able
material iter
ĠCom position
ĠCom pliance
Ġenounce ment
Ġimply ing
Ġdecided ly
Ġcolour ing
affect ing
Ġinc it
Ġinc umb
Ġous ly
small er
construct s
construct ed
individual s
Ġinstruct s
Ġerect s
Ġration e
Ġprincip ally
sophist ries
Ġattack ed
Ġ50 1
pathological ly
UL TY
opp ortunity
Ġwa x
Ġwa it
Ġwid er
Ġinhere nce
Ġthy self
Ġthreat ened
Ġthreat ening
Ġfoot path
Ġfoot steps
Ġnull ity
Ġconject ures
Ġhundred s
Ġpropens ions
Ġviol ate
prof itable
ĠAl aska
Ġyouth ful
ĠMe anwhile
Ġconceal ment
Ġroad s
ĠÃĨ STHE
ĠProof s
ĠProble matical
Ġobstin acy
ĠPhilos ophical
ĠPhys ics
Ġprospect s
Ġhypostat ize
Ġhypostat ized
80 1
deser ve
apodeict ical
Be yond
CL USION
po seless
LI ABILITY
LI ABLE
commun io
Ġreconci le
Ġhes itation
Ġamount s
Ġstrugg les
Ġstrugg ling
Ġflatter s
Ġsovereign ty
Ġmach ines
Ġmach inery
Ġdesp ising
ĠEX CEP
ĠEX TERNAL
Ġirre mediable
ĠSystem atic
ĠNew by
Ġbreak s
pursu it
pursu ed
Ġpo or
Ġpress ure
Ġru ined
don ation
Ġcour tes
exper iment
insepar able
Ġascertain ing
Ġaltern ation
Ġaltern ate
Ġaltern atively
Ġrun s
disposition s
Ġincomp atible
Ġannex es
Ġexempt ion
Ġexcell ence
Ġlic ence
Ġlic et
Ġdetr act
ĠPRIN T
Ġsubstit ute
Ġsubstit uting
Ġ19 71
Ġelabor ate
Ġelabor ating
Ġmodern s
Ġantinom ial
Ġsolic itation
Ġsolid ity
Ġinstinct s
Ġdenom ination
Ġspiritual ism
ĠDIALEC TICAL
Ġflow ing
Per manence
Per suasion
class es
sym pathy
design ate
comprehend ing
comprehend ed
organ on
cil ity
dev ised
remark ing
haust ible
contempl ated
SEC TION
SEC OND
harmon ize
treat ment
definite ly
convin cing
exposition s
Ġmyst icism
ĠConcl usion
Ġsil ver
Ġinex orably
Ġinex haustible
Ġbind s
anci ents
Ġbetray ed
Ġprime val
Ġunfortun ate
Ġtrust worthy
Ġheight s
Ġperplex ing
ĠAb out
Ġcompass ion
specif ically
Ġsuffer ing
Ġridic ule
Gr ant
adm ixture
adm iration
hon oured
hon esty
exc ite
exc ited
De ity
cosm ology
incre ase
introdu ction
transc ends
exhib it
prob able
ĠQu antity
heter ogeneous
reckon ing
sect ing
forth coming
spe ak
Ġgrat ification
Produ ce
declar ations
moment a
ton ian
Ġrestr ained
Ġembarrass ments
Ġchief ly
ĠGr ant
desc ent
Ġinn ate
Ġinsist ed
Ġbon us
Ġect ypal
Ġprag matic
Ġlu xury
Ġsust ain
Ġsust ained
Ġcompr ised
Ġhealth y
ĠAGRE EMENT
Ġchar itable
ĠIntrodu ction
ĠGer many
Ġencour age
Ġencour ages
Ġcritic ize
ĠMis sion
maj esty
Ġsurpr ise
Ġdefici ency
Ġpunct ual
Ġpunct ually
Ġstrengthen s
Ġtalk ed
Ġaston ishing
ĠMethod ology
Ġdenomin ated
Ġfatal ist
del usion
confirm ation
bar ism
enjoy ment
det ailed
agon al
anthropomorph ic
50 1
creat ure
creat ures
test ing
Ġeduc ation
Ġeduc ational
recogn ise
recogn izes
substant ia
PRO VIDED
bring ing
fici ency
Ġaut omaton
Ġmal i
Ġmal um
Ġep isyllogism
ĠIND EMNITY
Ġard ent
profess es
prevent ing
Ġpol es
Ġpol ice
Ġredistrib ute
Ġredistrib uting
Ġlar ger
Ġlar gest
Ġric her
precept s
Ġimagin arium
Ġtheore ms
Ġsl ip
Ġsw amp
Ġpubl ish
Ġpubl ished
Ġparent s
Ġinsp ires
Ġincor poreal
Ġmar vellous
Ġmass es
Ġtol erable
Ġtol erate
Ġrefin ement
Ġprolong ing
Ġprolong ed
Ġratiocin ant
Ġvision ary
ĠBE FORE
Ġperpet ual
Ġconsult ing
ĠAgain st
ĠSe at
Ġsubdiv ided
Ġsubdiv isions
ĠWolf ian
ĠCan on
ĠCogn ition
ĠCogn itions
Ġcommerci um
Ġvalu es
Ġvalu ed
Ġsimpl est
ĠDetermin e
ĠDetermin ing
Ġrespon sible
Ġrespon sibility
ĠSubject ive
Ġaddress es
Ġparadox ical
Ġchem ists
Ġfacil ity
Ġtaut ological
Ġbenefic ence
Ġwaver ing
Ġarchetyp al
Ġarchetyp es
bene ficial
Ġpot ential
avail able
fl own
doctr ines
doctr inal
authoriz ed
cultiv ated
fr amed
ration e
sk etch
sent iments
reconci led
requis ite
exerc ising
Philos ophical
18 87
Ca ius
Ca usality
divers ity
divers ities
mast er
mast ery
tempt ation
tempt ations
Ġflu id
sett lement
streng th
streng thened
iver ance
perform ing
abandon ing
abandon ed
priv ate
priv ilege
Ġartic ulation
obsc ure
obsc urity
impul se
impul ses
Ideal ism
function s
parent s
Ġmoun tain
Ġmoun tains
Ġdrop s
plain ly
Ġadvers ary
Ġcard inal
Ġsal ts
Ġsan ct
Ġsan ctions
Ġsedu ced
Ġsmo ke
Ġsmo oth
Ġsoft ware
Ġincap ac
Ġincap acity
Ġmil itates
Ġflat ten
Ġelucid ate
Ġrever ses
Ġdi ameter
Ġdi agonal
Ġlat ent
Ġlimb s
Ġhast ily
Ġunconscious ly
Ġmel ts
Ġshadow s
Ġappet ite
Ġye a
ĠPG LAF
ĠPost ulate
ĠPost ulates
Ġargu ing
ĠSc hematism
Ġsubrept ions
Ġsubrept io
ĠCa uses
ĠCa usality
ĠCertain ly
ĠCosm ical
ĠCosm ology
ĠRedistrib ution
ĠRedistrib uting
Ġconfound ing
Ġindivid uum
Ġhero es
Ġfals ity
Ġ568 2
Ġ568 3
Ġadmire rs
Ġsignal ize
transgress ion
ĠWho ever
Ġsharp en
Ġpoison s
ĠDISTRIBUT E
ĠDISTRIBUT OR
Concl uding
568 3
architect onic
hum iliates
lab orious
ithmet ic
sensual izing
Epic urean
Mor ality
Sto ics
az ard
cal culation
dest ination
eas ily
elev ated
fa cility
fam iliar
lo ving
penetr ating
wis dom
warrant ies
ino zism
instruct ed
enumer ate
threat ens
embarrass ment
conject ured
confin es
conven ience
prim ary
specul ations
service able
myst icism
PLEAS E
schol astic
circumst ances
62215 41
Wolf ian
mother ly
Ġadequ acy
Ġindiscern ibles
animal s
constant ly
adem ical
adapt ed
ĠED ITION
Ġapper taining
undoubted ly
grant ing
consequentia e
Ġtear s
Ġtheolog ians
Ġwander ing
Ġcand our
Ġcitiz en
Ġsag acity
Ġincompre hensibility
Ġinstrum ent
Ġincontrovert ibly
Ġbro ke
Ġthir teen
Ġthwart ing
Ġming les
Ġfant astic
Ġnom inally
Ġecl ipses
Ġliqu et
Ġlangu ages
Ġwear iness
Ġforget ting
Ġsuppos ititious
Ġsudden ly
Ġalkal i
Ġunsol icited
Ġunquestion ably
Ġempiric ist
Ġembell ishments
Ġtrades man
ĠBec ause
Ġimmedi atae
Ġnovel ty
ĠFac ulty
ĠFOU NDATION
ĠAd ditional
Ġaccus ation
ĠPre cisely
ĠParalogism s
Ġdiss ipate
Ġdisappoint ment
Ġarm oury
Ġphantom s
ĠInte llect
ĠGre gory
ĠCl ue
ĠCopernic us
Ġobl iterated
Ġdiscret um
ĠHist ory
ĠHypothe sis
Ġenv y
Ġenig ma
ĠEv ents
Ġtert ium
Ġentrust ed
Ġimpot ence
Ġshallow ness
Ġinflex ible
ĠLat in
Ġdecre ase
Ġillum inated
ĠOnt ological
Ġdegr aded
Ġmislead ing
Ġsurr ounded
Ġsurreptitious ly
Ġindisp utable
ĠImper atives
Ġdetail s
Ġprosyllogism s
Ġdevi ations
ĠDisc overy
Ġtreasure s
ĠNeg ation
ĠOrigin ally
Ġzeal ous
Ġsteadfast ness
Ġsilence d
ĠAbb ott
Ġauthentic ated
Ġastronom ers
Ġeconom ical
Ġger m
ĠIR S
ĠPH ILOSO
ĠRI GHT
strugg le
esca pe
Ġduc at
Ġalle ge
omnipot ence
Ġathe istic
Ġopt ical
Ġpus hed
Ġnis i
Ġcond itio
def ence
Subst ances
Ġcapit al
indubit ably
Arist otle
Crit icism
Categor ies
DAMAG E
GRA PH
Ju venal
Me anwhile
Ple asure
Possib ility
Part icular
Reven ue
Thing s
Unt il
bus y
civil ized
doll ars
fan aticism
fict itious
fruit ful
hind rances
hop es
mund us
mov able
pob ox
sound ness
tw ofold
vict ory
welf are
Ġaver age
Ġaequ ivoca
repe ated
resem blances
reluct antly
recommend ations
encour agement
alleg ed
Ġnet work
Ġdiction is
starr y
omnit udo
ectyp a
theore m
improv ement
Ġlib itum
ibib lio
persist ed
perpet ually
perplex ity
conjunct io
Ġinte grity
detr imental
prag matic
suppos itio
excell ent
accept ation
beho of
ortun ities
commen cing
paradox ical
obstac les
overe r
Protot ypon
oppon ent
TRADEM ARK
Ġtib i
Ġwal ks
Ġcun ning
Ġcath artic
Ġcub ic
Ġcrowd ed
Ġinan imate
Ġinexpl icable
Ġinestim able
Ġinhabit ants
Ġinsensib ly
Ġthresh old
Ġdil igence
Ġdial etic
Ġbeque ath
Ġwhol es
Ġhost ile
Ġaspir ations
Ġlau gh
Ġlibr ary
Ġweari ed
Ġforbe ar
Ġsupre macy
Ġgbnew by
Ġprolix ity
Ġdelet ions
Ġintimid ation
Ġhaph azard
Ġunsh aken
Ġunqual ified
Ġunexception able
Ġunsett led
Ġunalter able
Ġcael o
Ġraindrop s
Ġtriang les
ĠBerke ley
Ġperman ently
Ġnobl est
ĠFAC ULTY
ĠFebr uary
Ġcogniz ant
ĠACT UAL
ĠAldarond o
ĠPolem ics
ĠPARA GRAPH
ĠSMAL L
Ġphilanthrop ist
ĠNoumen a
Ġsubdu ed
Ġsubsid iary
ĠGover nor
ĠWOR K
ĠWIL L
Ġcontrari wise
ĠCartes ian
ĠCORO LLARY
ĠCarol ina
Ġobno xious
Ġobsole te
ĠHarmon y
Ġvaluel ess
ĠElucid ation
ĠEBC DIC
ĠELEMENT S
ĠDirect or
ĠDOM AIN
Ġcorpor ation
ĠMendels sohn
ĠContrib utions
Ġeloqu ent
Ġfinanci al
Ġnonpropri etary
Ġcoerc ion
ĠPriestle y
ĠSubst ance
Ġmisinter pretation
Ġundisc overed
ĠAnalog ies
Ġparabol a
Ġinvolunt arily
ĠArchitect onic
ĠJUD GEMENT
ĠKings mill
ĠREPL ACEMENT
Ġfrank ness
ĠPhalar is
ĠPUBL IC
ĠPROBL EM
Ġ841 16
Ġhyperbol ic
ĠTrancendent ale
Ġincumb ent
ĠÃĨSTHE TIC
ĠEXCEP T
Ġcourtes y
Ġa ve
Ġa il
Ġa king
Ġs ion
Ġp ir
Ġm s
Ġit h
Ġit es
Ġit ing
Ġit as
Ġit her
Ġu lar
Ġon d
Ġl ing
Ġg ed
Ġor s
Äł J
Äł ill
Äł cl
Äł fin
Äł ser
Äł med
Äł RE
Äł leg
Äł pur
Äł conce
Äł gl
Äł pret
Ġif y
Ġif ied
Ġar k
Ġar ch
ĠO U
ÃĦÅĤ C
ÃĦÅĤ r
ÃĦÅĤ w
ÃĦÅĤ dis
Ġen ess
ĠE M
Ġter min
Äłin s
Äłre m
ÄłA n
Äłex p
ÄłP ro
Ġol og
Äład m
b ted
l eness
u cid
Ġ ience
Ġ ime
Ġ iate
Ġ ician
Ġa ces
Ġa ined
Ġo ve
Ġo de
Ġof t
Ġc ul
Ġc ious
Ġs ect
Ġp ect
Ġb al
Ġis ion
Ġit able
Ġd u
Ġu des
id ic
Ġg es
ĠI C
Äł es
Äł ed
Äł id
Äł og
Äł ec
Äł ve
Äł aw
Äł art
Äł et
Äł te
Äł ro
Äł ear
Äł phys
Äł determin
Äł law
Äł bl
Äł ne
Äł ap
Äł no
Äł prov
Äł vol
Äł Su
Äł Pr
Äł continu
Äł indis
Äł commun
Äł Un
Ġat is
Ġat io
Ġat ively
Ġst it
Ġst em
Ġqu e
so ph
Ġar s
ĠC E
ÃĦÅĤ a
Ġen ed
ĠE N
Ġent ion
ra p
Ġi or
Ġi us
Ġer t
Ġans c
Ġut ation
Äłin c
Äłin st
Äłc al
Äłs um
Äłf a
Äłp ass
ĠÃ ĥ
Äłb ene
Ġur s
Äłcon v
Ġord in
ÄłD e
Ġct ive
Ġoun ce
Ġward s
Ã¢Ä¢Ä ¿
B OL
N IC
S ol
b t
l van
n os
Ä ī
Ġ .
Ġ Äł
Ġ iz
Ġ ern
Ġ ires
Ġ irm
Ġ icable
Ġ xi
Ġ ief
Ġ ired
Ġ izes
Ġt le
Ġa le
Ġa de
Ġa ins
Ġo le
Ġo ok
Ġs on
Ġs ist
Ġin es
Ġin ce
Ġf f
Ġf fici
Ġn er
Ġe ty
Ġit ive
Ġit ude
Ġit io
om in
ar p
Ġu ll
Ġu ring
iv um
Ġan ge
pt ed
ĠI T
Äł om
Äł with
Äł there
Äł do
Äł analy
Äł origin
Äł assert
Äł comb
Äł sym
Ġr ust
Ġr aw
Ġr ough
Ġem pt
Ġim in
Ġus es
ff er
Ġse l
Ġmor t
ĠA M
ĠA TION
Ġj oy
Ġj unction
Ġj oined
Ġpl es
ism is
ÃĦÅĤ M
ÃĦÅĤ e
Ġent ia
Ġmat ical
Ġi gh
Ġer y
Ġac k
Ġant s
Ġing ly
RE M
sc r
Äłde f
Äłcon cl
ÄłA N
ÄłP er
Äłv ari
Äłdis p
ÄłC ON
err one
Ġou ld
Ġou gh
Ġos m
ÄłÄłÄłÄłÄłÄłÄłÄłÄłÄłÄłÄłÄłÄłÄłÄł ÄłÄłÄłÄłÄłÄłÄłÄł
ÃĦÅĤÃĦÅĤÃĦÅĤÃĦÅĤÃĦÅĤÃĦÅĤÃĦÅĤÃĦÅĤ ÃĦÅĤÃĦÅĤÃĦÅĤÃĦÅĤÃĦÅĤÃĦÅĤÃĦÅĤÃĦÅĤ
pirit ual
Ġak es
ĠÃ¢Ä¢Ä ¶
A ND
G IN
I OM
I BOL
L LI
M ont
O k
P ER
W iz
a ver
h all
m ount
r in
r is
u ck
Â ¦
Ġ )
Ġ /
Ġ ich
Ġ hen
Ġ nder
Ġ ie
Ġ ivers
Ġ xim
Ġ ÄłÄłÄłÄł
Ġ ization
Ġ icians
Ġ ibly
Ġt il
Ġt ies
Ġa ly
Ġa th
Ġa int
Ġo ly
Ġo ll
Ġo od
Ġo ph
Ġo te
Ġo unt
Ġc ess
Ġc el
Ġs ible
Ġp s
Ġp end
Ġp ict
Ġin k
Ġb i
Ġb ject
Ġn ight
le j
Ġh at
Ġh ing
Ġas es
Ġas ure
Ġu g
Ġu ous
os pect
Ġan ch
Ġon omy
Ġg h
Ġg one
Ġg ement
Äł ple
Äł um
Äł of
Äł est
Äł ord
Äł here
Äł mat
Äł object
Äł reason
Äł contradict
Äł comple
Äł dif
Äł where
Äł intellig
Äł TH
Äł val
Äł neg
Äł imag
Äł oblig
Äł design
am big
de al
her s
Ġhe mat
Ġim ent
Ġim ate
Ġus ions
ph arm
Ġst ood
ac qu
et amorph
ser v
ÃĦÅĤ per
ÃĦÅĤ ch
ÃĦÅĤ pre
ÃĦÅĤ sub
ach use
ĠE S
sy lvan
Ġent ial
ang le
Ġres pond
Ġi ent
Ġi ld
Ġi able
ique Sol
Ġover t
Ġce ived
Äłin de
Äłc ol
Äłre n
Äłre cogn
Äłs ch
Äłs atisf
Ġmed i
Äłf all
Ġul ate
Äłp un
Äłm y
Äłm ist
Äłm ag
than k
Ġic k
Äłde v
Äłh y
Äłh um
Äłh yp
Äłcon c
Äłcon ver
Äłex cl
Ġ7 8
Äłpr ot
indis cern
ÄłI m
UND ER
Ġyield ing
Ġound ed
Äłac qu
Ġud ing
Ġud ed
Ġcrib e
Ġcrib ed
Ġtern al
erum nos
Äłcoun ter
Äłcirc um
1 00
6 55
A H
A b
A pp
A pr
A str
A nt
B E
B od
B ole
C r
C ogn
C ON
D o
D es
D em
D ak
D et
D el
D ON
D IS
D ES
E AL
F IN
F UT
F OU
G S
G ign
H old
H ypothe
H amps
I P
I nd
I ll
I mag
I GIN
J udgement
L aw
L ook
L ED
M ich
M and
M od
M ast
M OR
N at
N ol
N un
N umer
N eg
N ew
O v
O x
O bject
O nt
P re
P henomen
P un
P ers
P ost
P ro
P AR
P rop
P lat
P IR
S h
S im
S cept
S ach
S ocr
T U
T e
T em
U TION
V ari
W el
W IS
W AN
X IOM
Z en
a ed
a um
a est
a ign
a ug
a ert
b u
b or
b ur
b tr
b ial
b urd
b vious
b oast
b enevol
c le
c ent
c ation
c ans
c od
c ens
c ro
d r
d y
d it
d ich
d ecess
d ise
d ro
d ismis
e ter
e th
e ur
e org
f le
f ol
f ide
f ant
f oc
f requ
f ool
f air
f als
f oot
f ri
g em
g ard
g art
g ra
g ene
h i
h or
h ur
h us
h ast
h tm
h ole
h arm
i ation
i ec
i ogn
i othe
i ably
i ocr
j u
j uris
k o
k ak
l or
l ical
l ib
l iber
l aps
l ax
l oric
l ah
l aud
m ar
m ate
m il
m el
m ole
m icros
n est
n arr
n ob
n oc
n arrow
n cret
o il
o be
o ister
p it
p ing
p ate
p ol
p ered
p odeict
p air
r ic
r an
r if
r ality
r av
r ane
r ip
r oyal
r anc
r ho
s al
s ign
s ink
s we
s edu
s ident
s light
s af
s oft
t us
t ol
t of
t uition
t ress
u end
u ber
u fact
v il
v ig
v est
v estig
v iol
w re
w ar
w ide
y om
y ear
y rin
z ard
~ ),
Ġ <
Ġ endent
Ġ ertain
Ġ ici
Ġ edu
Ġ irect
Ġ hension
Ġ ield
Ġ idence
Ġ iction
Ġt ion
Ġt ers
Ġt ending
he ad
he av
Ġa ud
Ġa med
on ten
in her
in ex
in sp
in tern
in stit
in conce
in compar
in hab
in strum
Ġo x
Ġo id
Ġo ck
Ġthe w
re ce
re tr
re str
re fin
re mit
re ward
re arr
re vel
re vere
re inst
re pet
re miss
it ab
is os
is iana
en em
en ch
en man
en ni
en cro
at he
at om
at ag
at ern
er mon
er iality
Ġc ise
Ġc hed
ion et
Ġs ed
Ġs ib
Ġp it
Ġp ly
Ġp position
Ġp pose
Ġp posed
Ġp posing
al ism
al hall
ic ut
nd oubted
es crib
es cap
Ġb at
Ġb ent
Ġb ul
or phist
or ibus
Ġm ount
Ġm itted
Ġf ic
Ġf ast
an as
an arch
Ġn ed
Ġe ur
Ġe ch
Ġe min
se ar
se ld
le ag
Ġit er
Ġd ition
st ud
st ret
om s
om orphist
ent uck
ar ie
as er
as hing
as ym
Ġh or
Ġu ch
the sis
the ism
the olog
the osoph
iv ol
iv ating
im measur
ition em
Ġan a
Ġan ted
Ġan eous
Ġon ic
id ical
ib il
ir mat
ir ks
ir reconci
ur ate
ur su
ur ope
ci pit
ĠI TY
qu aest
og rap
res ol
res pon
ist ingu
ist ration
Ġor g
Ġor ation
ception em
Äł Y
Äł ou
Äł ow
Äł ol
Äł her
Äł fore
Äł ens
Äł The
Äł less
Äł exist
Äł wor
Äł ep
Äł mon
Äł exam
Äł just
Äł IN
Äł appl
Äł separ
Äł produ
Äł consist
Äł constit
Äł mathemat
Äł speci
Äł conform
Äł predic
Äł demonstr
Äł expl
Äł obser
Äł Wh
Äł abs
Äł sec
Äł illustr
ec ub
if ici
and a
per man
per miss
per dur
ul ary
Ġall oyed
con ca
con du
ve ill
ve get
ch arm
ch allen
ch ican
il as
il ater
ill imit
Ġat ic
Ġat or
Ġat om
Ġat um
aw aken
am a
am ber
am und
am atic
ab und
pl au
de ep
de light
de velop
de grad
um mat
um ni
ol ix
ol umb
ol ta
min uend
tr avag
Ġr y
Ġr ow
Ġr ous
Ġv arying
stand ard
od ox
pr ae
Ġab ol
ad vers
ad minis
ad uc
su pre
pos sident
Ġk ill
ind ivid
ind emonstr
ind escrib
ind istingu
ex pon
ex travag
Ġif ies
Ġif ying
Ġse less
Ġse vered
our able
ac op
ac erv
un inter
un fit
un corrupt
un exception
un yield
un recogn
un sa
un veil
Ġapp oint
Ġy n
so vereign
ment ary
Ġle ction
Ġle ment
Ġar ily
el abor
el ucid
el ench
sol ip
pre mis
pre jud
pre limin
ag matical
ĠN D
Ġser v
Ġcaus ed
Ġgr ace
me asure
com form
com part
com posit
ser ious
Ġpos es
pro xim
ro bor
ÃĦÅĤ E
ÃĦÅĤ n
ÃĦÅĤ an
ÃĦÅĤ st
ÃĦÅĤ im
ÃĦÅĤ ad
par allel
sy non
sy llogistic
ke y
ass ured
ass achuse
cons ent
cons ummat
dis sert
ĠM ON
Ġconc ert
und eter
ER NIC
In corrupt
In noc
Ġi er
sub div
sub rept
sub reption
rel inqu
TI TY
mon ogram
Ġes tr
mis appre
isl and
Ġut ions
dom ain
Ġce ed
Ġce ive
RE FUT
des pot
des pair
Äłin tr
Äłin cl
br ief
fer t
Ġful ness
All gem
Äłc r
Äłc re
Äłc ur
Äłre qu
no olog
leg itim
ru g
Ġprof itable
Ġul ation
conf ront
inv iol
inv alid
Äłp o
sc hes
Äłm ain
CE LLI
gu arante
Ġold est
Ġation al
Ġ9 6
OR IES
Su btr
Äłde t
Äłde fin
inf lex
gl imp
gress ion
Äłex c
Äłex press
ST AN
ST UL
ST AND
you th
Ġver sa
Äłpr of
ik lej
ref lex
che mist
proble m
inter pol
ÄłC h
Ġfortun ately
Ġil ities
Ġcultiv ated
Äłan n
Äłan im
ÄłE X
intu itive
co acerv
Ġog ical
Ġog ene
Äłpre v
PH IBOL
add ress
ÄłT r
embr ace
accomp any
sym pat
Ġell ed
Tr ancendent
Ġach ing
appe al
OP ERNIC
lab oure
Äłir re
phil odox
Che seld
enn sylvan
Ġene tr
necessit at
Quod lib
urb ul
soph istic
Ġansc endent
scr ut
Mont aign
Ok lah
Wiz enman
pharm acop
indiscern ibil
erumnos iqueSol
! *
! ).
! **
! *****
" :
" ).
' ,
' ll
( #
( Â§
) [
) âĢĿ;
) ?"
) ":
* :
, -
. _
. ).
. )âĢĶ
0 3
0 9
7 75
8 3
8 4
8 655
: _
; âĢĿ
? _
A W
A re
A part
A utonomy
A xioms
B enevolence
B JECTIVE
C an
C opyright
C reator
C ogito
C ynics
D as
D eduction
D uty
D avid
D onations
E Y
E dition
E ither
E ach
E ven
E thics
E lements
F E
F reedom
F OR
F airbanks
F ailing
G E
G eometry
G eneration
H art
H utcheson
I RE
I ENCE
I ndeed
I UM
J ust
K Ã
L C
L ake
L ATION
M B
M y
M ore
M uch
M ark
M ON
M any
M oney
M odality
M idnight
N or
N ay
N UM
N ovember
O ther
O ne
O UT
O THER
O SITION
O therwise
O bservation
P ain
P ACE
P ortions
P OSSIBILITY
P ossession
P MB
P OSITION
R esult
S END
S olution
S econd
S ummum
S atirae
S hort
S imilarly
S YSTEM
S ections
S ulzer
S etting
T M
T O
T ot
T hen
T able
T ell
T ENCE
T ALITY
T ecum
U nder
V er
V anilla
V irginia
W here
W ell
W HAT
Y et
] -
_ )
_ ),
a i
a ves
a ises
a ii
a version
a ithful
a versed
b ent
b ow
b end
b ind
b ations
b led
b ases
b ooks
b orrow
b ank
b irth
b orn
b roken
b orne
b lessed
b oldest
c it
c ut
c ate
c ard
c art
c ost
c ue
c ode
c ited
c ibly
c ope
c ury
c ription
c endi
c odes
d ing
d ere
d ate
d ers
d ness
d read
d own
d iction
d atum
d ouble
d umb
d abilis
d abile
e ternity
e utic
e leology
f at
f as
f ate
f ord
f ear
f usion
f ted
f latter
f ume
f utation
f ling
f ashion
f elt
f ictions
f ourth
f lying
f ecundity
g ical
g un
g ated
g old
g ered
g ree
g ner
g ave
g les
g izing
g reement
h s
h ire
h ated
h int
h ollow
h ode
h ouse
h undred
h alf
h iatus
h ateful
h orizontal
i is
i ad
i ers
i age
i ps
i ety
i atives
i ased
i ery
i entia
i unt
i works
i asm
i hi
j ack
j uries
k ill
k ansas
l er
l ity
l ay
l ate
l am
l ary
l ant
l ays
l ost
l are
l iness
l ives
l ower
l iving
l ively
l anguage
l ery
l iable
l ogicians
l ength
l oses
l iking
l orn
l oss
l iberum
m r
m us
m ans
m est
m able
m ish
m med
m ma
m arch
m ists
m ier
m illion
m phiboly
m ometer
m idnight
n s
n y
n il
n um
n ance
n ers
n amed
n ares
n abilis
n aked
o at
o al
o of
o ak
o ever
o ble
o existence
o ppose
o pposes
o ins
o osing
o pposites
p g
p ut
p ith
p ay
p ain
p sis
p ires
p age
p els
p upil
p ulsion
p ub
p orts
p overty
r on
r act
r ous
r ose
r ict
r ise
r ink
r ived
r ang
r ange
r ises
r up
r ained
r idge
r ival
r andom
s ic
s ical
s ine
s ize
s aken
s ides
s io
s ential
s ending
s cribes
s piritual
t i
t ist
t ig
t ile
t ful
t ension
t itle
t ending
t ts
t itles
t ender
t ax
u o
u es
u ed
u est
u ers
u ine
u ided
u ched
v o
v us
v iate
v idence
v iction
v isible
v icious
v ature
v ogue
v illain
w er
w ither
w hence
w arn
w arks
w anted
w ider
w atch
w rought
w inning
x es
y ourselves
y ms
z es
z ing
z ed
´ ris
Ã ©
Ã Ģ
Ã ´ris
ĉ ĠĠ
Ġ ,
Ġ Ċ
Ġ âĢĶ
Ġ henomen
Ġ ),
Ġ ilos
Ġ icular
Ġ uthor
Ġ ensions
Ġ 000
Ġ Â¢
ĸ NI
ĺ _
Ġt as
Ġt ab
Ġt uition
Ġt ac
Ġt ute
Ġt ong
Ġt ort
Ġt ied
Ġt ree
Ġt reason
Ġt ang
Ġt ween
Ġt aint
Ġt ild
Ġt ains
Ġt orn
Ġt imid
Ġt urning
Ġt urbul
he at
he ard
he ment
he me
he alth
he aded
Ġa ter
Ġa qu
Ġa uth
Ġa ward
Ġa vers
Ġa iothe
Ġa erumnosiqueSol
on or
on os
on ant
on ness
on ism
on ted
on set
on net
in er
in ant
in form
in sensible
in sist
in complete
in ctive
in sensibility
in admissible
in determinate
in secure
in hering
in herence
in uating
in structive
in experienced
in itial
in determinable
in cogitable
in security
in convenience
in nabilis
Ġo v
Ġo ce
Ġo th
Ġo int
Ġo ption
Ġo my
Ġthe at
Ġthe istic
Ġthe ft
Ġthe osoph
re action
re wards
re ap
re ached
re lease
re straint
re aching
re search
re taining
re jected
re coverably
re prehensible
re pulsion
it a
it ly
it ical
it ant
it atively
it het
it ivae
it ivum
it iation
is ect
is ans
is io
is que
is pered
en es
en ame
en ance
en ment
en ious
en ounce
en ables
en closed
en ry
en ounced
en ouncement
en ouncing
en lightened
en unciated
at ant
at ers
at ism
at ived
at ists
at orial
er or
er ve
er ies
er ted
er ious
er io
er ially
er als
er vation
er isk
Ġw on
Ġw omen
Ġw ind
Ġw ire
Ġw ast
Ġw ood
Ġw ars
Ġw rests
Ġc c
Ġc ure
Ġc um
Ġc tr
Ġc oll
Ġc ree
Ġc over
Ġc ode
Ġc ited
Ġc lement
Ġc ru
Ġc row
Ġc ash
Ġc overt
Ġc aring
Ġc itab
Ġs ic
Ġs or
Ġs ou
Ġs ar
Ġs qu
Ġs and
Ġs ore
Ġs ad
Ġs can
Ġs atis
Ġs wor
Ġs ix
Ġs ibility
Ġs eduction
Ġs well
Ġs ling
Ġs ick
Ġs ieve
Ġs atir
Ġs itus
Ġs inner
Ġs incerity
Ġs nares
Ġp or
Ġp iv
Ġp il
Ġp um
Ġp all
Ġp ud
Ġp op
Ġp ledge
Ġp ond
Ġp ates
Ġp ious
Ġp ique
Ġp ick
Ġp ock
Ġp icked
Ġp iec
al d
al es
al ved
al ities
ic it
ic le
ic us
ic um
ic ide
ic ations
ic ative
ic ine
ic acy
ic uity
ic ero
Ġin im
Ġin con
Ġin ch
Ġin ad
Ġin ca
Ġin op
Ġin cogn
Ġin action
Ġin ext
Ġin consequently
Ġin most
Ġin consist
Ġin consider
Ġin cess
Ġin super
Ġin ert
Ġin cul
Ġin completely
Ġin appro
Ġin serted
Ġin completeness
Ġin co
Ġin verse
Ġin applicable
Ġin formed
Ġin organ
Ġin heres
Ġin corrupt
Ġin hab
Ġin access
Ġin sect
Ġin active
Ġin fects
Ġin off
Ġin experienced
Ġin considerable
Ġin adequ
Ġin itial
Ġin imitable
Ġin cogitable
Ġin convenience
Ġin itiation
es ce
es see
es pecial
es pun
es cence
es erving
Ġb os
Ġb end
Ġb ide
Ġb un
Ġb oy
Ġb ast
Ġb read
Ġb urn
Ġb arr
Ġb ane
Ġb ull
Ġb orn
Ġb ungl
Ġb iog
Ġb oister
Ġb isect
Ġth in
Ġth rif
or k
or ing
or se
or as
or ation
or ld
or um
or able
or my
or ously
or icians
or ifies
or ters
Ġm ess
Ġm ad
Ġm our
Ġm other
Ġm onstr
Ġm arr
Ġm ob
Ġm arch
Ġm ild
Ġm utation
Ġm alle
Ġm icros
Ġm ecum
Ġm ocks
Ġm ihi
Ġto p
Ġto ll
Ġto il
Ġto to
Ġto urn
Ġto uc
Ġto uched
Ġto wer
ce l
ce les
ce ased
ct uating
Ġf ur
Ġf og
Ġf et
Ġf ought
Ġf ond
Ġf ost
Ġf are
Ġf fect
Ġf oun
Ġf ath
Ġf ather
Ġf ood
Ġf ool
Ġf olly
Ġf ores
Ġf ecundity
Ġf oil
Ġf rug
Ġf iery
ing ence
ing enesis
an a
an um
an ies
an tern
an ating
an atory
ed o
ed ition
ed icated
Ġn ation
Ġn ig
Ġn our
Ġn ational
Ġn igh
Ġn ug
Ġn aming
Ġn aked
Ġn Ã´ris
Ġe is
Ġe at
Ġe ction
Ġe uth
Ġe ffici
Ġe cess
Ġe cul
Ġe rection
Ġe get
Ġe adem
Ġe lude
se a
se ated
se ven
se arched
se vered
ou ched
ou isiana
Ġis on
Ġis ible
Ġis land
le a
le te
le aving
le ologia
Ġre i
Ġre ar
Ġre act
Ġre pr
Ġre now
Ġre form
Ġre pose
Ġre posed
Ġre cede
Ġre sem
Ġre tains
Ġre taining
Ġre minis
Ġre prim
Ġre acts
Ġre versed
Ġre converted
Ġre plies
Ġre prehensible
Ġre served
Ġre commencing
Ġre sear
Ġit em
Ġit ate
Ġit ious
Ġcon st
Ġcon str
Ġcon gr
Ġcon quest
Ġcon ger
Ġcon grat
Ġcon strained
Ġcon noisseurs
Ġd ar
Ġd aw
Ġd ab
Ġd ig
Ġd ally
Ġd are
Ġd ang
Ġd atis
Ġd ra
Ġd ug
Ġd inner
Ġd edicated
Ġbe at
Ġbe ast
Ġbe ating
Ġbe atis
Ġbe think
Ġbe ckon
Ġbe fit
Ġbe ware
Ġbe held
Ġbe aten
st o
st all
st ory
st age
st ains
st amp
st umbling
st amps
st ormy
om a
om it
om uch
om istic
om ists
om itted
ent er
ent ive
ent ality
ent ance
ent ers
ent ures
ent ification
ent uring
ent angles
ent angled
ent ral
ent angle
ot a
ot o
ot ic
ot ing
ot ently
ot ives
ot omy
ot istic
ar ther
ar ment
ar ice
ar ising
ar gue
ar ithmetic
ar cation
as y
as ive
as ide
as ible
as hed
as hes
as cribe
as serted
ut a
ut ans
ut ary
ut ations
ut ers
ut ably
ut ability
ut ants
ut rality
ut sches
Ġh ib
Ġh ur
Ġh ate
Ġh anged
Ġh unt
Ġh unted
Ġh orizontal
Ġh alved
Ġpr imit
Ġpr ice
Ġpr ating
Ġpr ized
Ġpr ius
Ġpr hole
Ġas ion
Ġas ing
Ġas ed
Ġas cribes
Ġas sem
Ġas semble
ll ing
ll ess
ll ating
Ġu str
Ġu me
Ġu phold
Ġu bi
the st
the me
the ian
the sin
iv ion
iv ized
iv ided
iv ery
iv ocation
iv endi
iv abilities
im en
im us
im ality
im ination
im manent
im posed
im acy
im properly
im perfectly
im ax
im parted
im mense
ition ers
ation is
ation ary
os a
os ed
os ities
os itionem
os cendi
Ġan atom
Ġex ul
Ġex pos
Ġex cogitate
Ġex ponent
Ġex cogitating
Ġon us
Ġon wards
Ġl ent
Ġl og
Ġl if
Ġl ad
Ġl ame
Ġl un
Ġl ived
Ġl iar
Ġl iterary
Ġl ik
Ġl acks
Ġl owers
Ġl oft
Ġl ax
Ġl oud
Ġl oved
Ġl apse
Ġl aug
Ġl antern
Ġnot es
Ġnot ed
Ġnot ation
Ġnot ably
Ġnot io
Ġnot iced
Ġnot icing
pt s
pt ure
pt uous
pt ember
pt ians
pt oms
pt ivating
pt hs
pt otic
ess entially
ow a
ow ner
Ġwe ed
Ġwe ary
Ġwe igh
Ġfor ty
Ġfor cibly
Ġfor lorn
Ġfor saken
id a
id le
id able
id dy
ib ule
ib ilia
Ġsu e
Ġsu pe
Ġsu pel
Ġsu aveolens
Ġsu icide
ence ment
cept s
cept io
cept ibility
cept ivae
ter ing
ter able
ter rent
ter ror
ld ier
ir ous
ir teen
ir pate
ir recoverably
Ġg ate
Ġg ame
Ġg ather
Ġg allow
Ġg erms
Ġg estic
Ġg aming
Ġg onos
Ġg arment
Ġg iddy
Ġwith al
th ither
th read
th rown
th irteen
ur o
ur able
ur ring
ur ities
ur ia
ur ists
ur rection
ur mount
ur idical
ci a
ci o
ci an
ci le
ci ples
ci llating
ver itable
ver ts
ver bal
ver bial
ĠI mit
ĠI owa
qu od
qu acious
qu ando
og ance
og ony
res set
res urrection
ist inct
ist rict
Ġor ical
Ġor ious
Äł iv
Äł and
Äł present
Äł sen
Äł ident
Äł ra
Äł ma
Äł represent
Äł know
Äł nat
Äł read
Äł go
Äł mor
Äł happ
Äł limit
Äł dem
Äł ru
Äł caus
Äł employ
Äł possess
Äł success
Äł jud
Äł character
Äł occ
Äł compre
Äł contin
Äł indic
Äł appre
Äł correct
Äł assum
Äł distrib
Äł need
Äł deser
Äł qual
Äł pursu
Äł organ
Äł guard
Äł indu
Äł substant
Äł off
Äł necessit
Äł philosoph
ere t
ain e
Ġcan onic
ec k
if old
if ting
if iable
and eur
per or
per ate
per ous
per ative
per ty
per tains
per forms
per formed
per ceptive
per ceptible
per versa
per severed
per ceptio
âĢ ĺ_
ul as
ul ity
ul are
ul atio
Ġall o
Ġall ures
Ġall ured
em bers
em inently
em anating
rom ising
pp et
Ġpro xim
Ġpro ps
Ġpro claim
Ġpro pter
Ġpro posing
Ġpro jected
Ġpro verbial
Ġreason er
Ġreason ed
Ġreason ableness
ĠT od
ĠT ex
ĠT ell
ĠT wo
ĠT yp
ĠT ext
ĠT OR
ĠT IM
ĠT err
ĠT rade
ĠT ABLE
ĠT enn
ĠT eleology
Ġobject or
Ġobject ivized
con joined
con strained
con cert
con join
con noisseurs
ve to
ch ant
ch ild
ch ains
ch oose
ch anging
ch loric
ch aser
ch oosing
end ure
end um
end less
end ix
end ium
end owed
end ship
il an
il ate
il ful
il ious
Ġde ception
Ġde em
Ġde tain
Ġde pre
Ġde fer
Ġde ceptions
Ġde press
Ġde als
Ġde parts
Ġde alt
Ġde af
Ġde taining
Ġde bar
Ġde bat
Ġde posits
Ġde bt
Ġde lete
Ġde pths
Ġal t
Ġal ive
Ġal get
ust eron
ore st
Ġint us
Ġint ol
Ġint ends
Ġint emper
ple te
ple asing
ple ading
act ness
act io
act ments
Ġbut tress
us al
us age
us ius
hen sibilities
Ġha ir
Ġha ps
Ġha zard
ill ing
ill ains
Ġat a
Ġat ory
Ġat ors
aw e
aw ful
aw aii
am ur
am med
am usement
am bitious
ab ond
ab asis
ab ilia
ab stain
ab ulary
ab ama
pl ed
pl urality
Ġun i
Ġun ction
Ġun te
Ġun com
Ġun reason
Ġun ass
Ġun wise
Ġun lu
Ġun ten
Ġun read
Ġun hes
Ġun gr
Ġun will
Ġun att
Ġun comp
Ġun ison
Ġun think
Ġun satisf
Ġun adv
Ġun like
Ġun common
Ġun true
Ġun fit
Ġun ri
Ġun alt
Ġun critical
Ġun educ
Ġun sus
Ġun utter
Ġun mist
Ġun seen
Ġun concerned
Ġun becom
Ġun attained
Ġun popular
Ġun intention
Ġun holy
Ġun accompanied
Ġun prot
Ġun eas
Ġun warrant
Ġun ascertain
Ġun aware
Ġun worthiness
Ġun searchable
Ġun practised
Ġun supported
Ġun veil
Ġun skill
Ġun sought
Ġun enforceability
Ġun animity
Ġun perceived
Ġun prepared
Ġun happily
Ġun righteous
Ġun caused
Ġun changeably
Ġun convincing
Ġun authorized
Ġun cultivated
Ġun instructed
Ġun civilized
Ġun ilater
Ġun sophistic
Ġun named
Ġun instructive
Ġun changing
de ed
de tain
de ceive
de jected
de posit
de veloped
de ficiency
de terrent
âĢĶ _
âĢĶ âĢĺ_
um n
um ans
um ble
um mate
um ping
um atism
ol aters
ig an
ig ations
ig ably
ig uous
ig uity
ig enesis
Ġca res
Ġ( )
Ġ( =
Ġ( ~),
ans ion
ans lated
ans gression
min e
min ently
min istration
ies ce
Ġlaw su
Ġlaw fully
Ġlaw fulness
Ġlaw lessness
Ġlaw giving
Ġlaw yers
tr ain
tr ays
tr action
tr aces
tr ying
tr ains
tr ouble
tr acks
tr ades
Ġsp ot
Ġsp end
Ġsp ared
Ġsp ati
Ġsp acious
Ġsp elling
Ġsp inning
Ġsp aring
Ġsp rang
Ġsp eck
Ġcom for
Ġcom ment
not her
of ficial
Ġr i
Ġr an
Ġr ib
Ġr out
Ġr ud
Ġr ays
Ġr aking
Ġr ick
Ġr ouse
Ġr ock
Ġr isen
Ġr hapsod
Ġr ival
Ġr andom
Ġr ocks
est ial
est ine
ecess ary
Ġem ber
Ġem ended
Ġem power
Ġwor ms
Ġso ber
Ġso ldier
Ġother where
Ġunder go
Ġunder line
Ġunder too
Ġunder gone
Ġv on
Ġv ere
Ġv ary
Ġv ind
Ġv ult
Ġv oy
Ġv ivid
Ġv ote
Ġv indic
Ġv isions
Ġv ii
Ġv ouch
Ġv ider
Ġv otes
Ġv ogue
Ġv illain
Ġv eneration
Ġv arie
Ġv ivendi
Ġv illains
Ġtr ail
Ġtr ains
Ġtr ained
Ġtr ick
Ġtr illion
Ġtr amples
Ġtr ah
Ġtr ampl
Ġtr aduc
Ġtr aversed
Ġtr iad
Ġtr uest
Ġdo or
Ġdo st
Ġdo ve
Ġdo cile
Ġsen seless
fore going
fore gone
od eration
pr it
pr imal
pr ior
pr ising
pr avity
pr olix
pr aises
ĠThe oretic
ĠThe oric
ĠB ose
ĠB ON
ĠB ru
ĠB ox
ĠB AC
ĠB aum
ĠB onnet
use um
ge ance
ge tic
ak er
ak able
Ġnecess ities
Ġhe w
Ġhe ard
Ġhe tic
Ġhe ark
Ġhe ap
Ġhe ars
Ġhe mmed
Ġim moral
Ġim manence
Ġim properly
Ġim prud
Ġim proving
Ġim measur
Ġim mense
Ġim probable
Ġim movable
Ġim minently
Ġab use
Ġab ound
Ġab ort
Ġab ides
Ġab used
Ġab iding
Ġab lest
Ġab ounds
Ġab stain
Ġab omin
Ġab hor
Ġab ridge
Ġab stains
ad a
ad ic
ad able
ad ise
ad ays
ad ology
ad icated
ad orned
ound ing
Ġper il
Ġper tain
Ġper sp
Ġper pend
Ġper missible
Ġper sec
Ġper version
Ġper verted
Ġper sever
Ġper vert
Ġper dere
Ġper fume
Ġper juries
Ġper verts
ori an
Ġform ative
Ġform idable
Ġform ulas
all er
all ation
all ibly
all oyed
Ġthem e
Ġnat isque
Ġno et
Ġno bly
Ġno vo
Ġno ogony
su n
su it
su es
su ited
su aveolens
su ffer
pir ing
pos al
pos ses
Ġsy ncret
Ġk not
Ġk ins
Ġk ai
ind irect
ind emonstrable
ever al
Ġreg ulation
Ġreg ulates
Ġreg imen
Ġus ers
ant y
ant ities
ant ibus
ant ithetic
ex pose
ex poses
ex ceptions
ex ico
ex ponent
ex actness
ph antom
ph aenomena
ff ing
Ġsh ut
Ġsh un
Ġsh ines
Ġsh oot
Ġsh rew
Ġsh ift
Ġsh rink
ĠF ight
ĠF ollow
ĠF ree
ĠF urther
ĠF RE
ĠF requ
ĠF als
ĠF inal
ĠF ailing
ĠF lor
ĠF ranc
ĠF onten
ĠF arther
Ġse as
Ġse ated
Ġse ize
Ġse lected
Ġse verest
art ifices
actical ly
out ly
out ward
Ġcogn ate
Ġcogn ised
Ġcogn itable
Ġcogn izable
Ġcogn oscendi
Ġst ar
Ġst ag
Ġst ating
Ġst atis
Ġst up
Ġst ret
Ġst ock
Ġst ories
Ġst ationary
Ġst umble
Ġst outly
ud ence
Ġqu am
Ġqu od
Ġqu oted
Ġqu ibus
Ġqu ando
Ġphenomen ized
Ġphenomen ization
Ġrel ie
Ġrel ish
Ġrel inqu
Ġrel iance
Ġrel ativ
Ġrel ax
Ġrel apse
Ġev asion
Ġev asions
Ġev ading
Ġev ok
Ġev asive
ord ain
ord ant
present ly
wh ilst
wh ispered
Ġmor ose
Ġcons ole
Ġcons cient
Ġcons erv
Ġcons onant
Ġcons ervation
Ġcons ummate
ĠA ve
ĠA RE
ĠA way
ĠA lex
ĠA PPENDIX
ĠA XIOM
ĠA podeict
ĠA greement
ĠA mphiboly
ĠA nother
our ces
our aging
ac ute
ac knowledge
ac ademical
Ġj oc
Ġj ury
Ġj eal
Ġj ew
Ġj uridical
Ġj umping
Ġnature s
Ġacc use
Ġacc oun
Ġacc using
Ġacc idens
Ġman ent
Ġman ual
Ġman ufact
Ġman ners
un o
un ary
un connected
un pleasant
un essential
un mixed
un happy
un fold
un usual
un influenced
un attempted
un pleasantness
un yielding
un selfish
un enforceability
un animity
un righteous
un changeably
un profitable
un authorized
un fruitful
un fair
un broken
un alloyed
un suited
Ġapp ended
Ġapp ositionem
Ġtheir s
ca ptivating
Ġad mis
Ġad verse
Ġad hering
Ġad orn
Ġad herence
Ġad minis
Ġad junct
Ġad monition
Ġad orned
Ġad oration
Ġad ministration
sequ ent
for bid
for get
for sakes
nthe sis
ĠFor bidden
ĠP ut
ĠP ay
ĠP ha
ĠP oint
ĠP ne
ĠP ower
ĠP ages
ĠP lat
ĠP lain
ĠP OP
ĠP ossession
ĠP ursu
ĠP ennsylvan
to ld
Ġdis use
Ġdis sol
Ġdis pose
Ġdis arr
Ġdis sim
Ġdis may
Ġdis content
Ġdis like
Ġdis pensable
Ġdis solution
Ġdis clos
Ġdis regarding
Ġdis eng
Ġdis proved
Ġdis closed
Ġdis figure
Ġdis hon
Ġdis proportion
Ġdis agreement
Ġdis close
Ġdis favour
Ġdis miss
Ġdis united
Ġdis proving
Ġdis join
Ġdis ease
Ġdis allowed
Ġdis union
Ġdis agreeableness
Ġdis involved
Ġdis qui
Ġdis plays
Ġdis grace
Ġdis agreeable
Ġdis inher
Ġdis ciples
Ġdis concert
Ġdis posal
et e
et ing
et ates
et ites
et uous
Ġworld ly
str ive
str iving
str aight
Ġle x
Ġle vity
Ġpre y
Ġpre ception
Ġpre determined
Ġpre conceived
Ġpre posit
Ġpre fixed
Ġpre dile
Ġpre fix
Ġpre lude
Ġpre decess
Ġpre cipit
Ġpre mier
here in
here with
here nt
here after
te acher
te leologia
ĠTh ou
ĠTh ree
ĠTh ousand
Ġar i
Ġar med
Ġar ks
Ġar bit
Ġar my
Ġar mist
Ġar cs
Ġch at
Ġch ose
Ġch art
Ġch ase
Ġch air
Ġch ican
ener gizing
ener getic
Ġpart isans
Ġpart icle
Ġpart aker
sp it
sp end
sp ite
sp arks
sp oke
Ġmoral ist
Ġmoral ized
ces ilas
tern itas
ĠS he
ĠS ens
ĠS pect
ĠS mall
ĠS oph
ĠS IM
ĠS ocr
ĠS YSTEM
ĠS ections
ĠS ulzer
ĠS ource
ĠS etting
ĠS PACE
ĠS kill
ĠS everal
sis mus
Ġph this
Ġph aenomena
el an
el ed
el le
el ater
sol ar
ens ate
ens oribus
ens urate
pre condition
pre ference
pre formation
pre determine
pre conceived
pre liminary
pre cision
pre rogative
pre miss
op oly
op ening
ag ent
ag ation
ag ination
ag ious
ag mentary
ag oras
fin e
fin al
fin ished
fin itude
fin itions
fin iteness
fin espun
ĠN on
ĠN il
ĠN ev
ĠN umber
ĠN ames
ĠN ecessary
ĠO M
ĠO ut
ĠO ther
ĠO reg
ĠO pposition
ĠO pposed
ĠO hio
ĠO bservation
ĠO bvious
ĠO BJECTIVE
ĠO perative
int ed
int end
int imate
int estine
Ġsub sequently
Ġsub serve
Ġsub joined
Ġsub scribe
Ġsub verted
Ġsub reption
Ġsub altern
Ġsub tlest
Ġsub serv
Ġsub tile
mat eriality
mat ron
Ġser ially
imit s
imit ative
solute ly
Ġne fas
Ġne utrality
Ġma zes
iz ations
nect icut
be o
be quest
be gun
be trays
Ġfar thest
ĠIn herence
ĠIn telligence
ĠIn cert
ĠIn vestig
Ġpresent able
Ġpl ate
Ġpl ant
Ġpl ast
Ġpl ants
Ġend ure
Ġend anger
Ġcaus as
Ġcomple mental
Ġcomple tes
Ġbel oved
Ġcont ext
Ġcont iguous
Ġcont agious
ĠG ive
ĠG ute
ĠG AL
ĠG OD
ĠG aining
ĠG ENERAL
ĠG eometry
ĠG eorg
ĠG oal
ĠG uided
ĠW ere
ĠW ise
ĠW OL
ĠW oh
ĠW erke
ĠW yom
ĠW alhall
ĠW ashing
ĠW orld
ost atic
ost ensive
ploy ee
ign ant
ign ia
ign ava
Ġgr av
Ġgr ants
com mit
com pose
com posed
com ply
com positio
Ġcontr ive
rit us
rit ory
The tic
The ology
ĠC oun
ĠC lear
ĠC ap
ĠC AT
ĠC ogito
ĠC ynics
ĠC olumb
ĠC OPERNIC
ĠC oexistence
ĠC icero
ĠC entral
Ġow er
ast ly
ast ical
ivers ity
ser ving
ism a
form arum
Ġpos se
Ġob edient
Ġob tus
Ġob viate
Ġdes pond
Ġdes cribing
Ġdes ider
Ġdes irous
Ġdes perate
Ġfound ations
old s
Ġcomm it
Ġcomm its
Ġcomm ended
Ġcomm ends
Ġcomm ensurate
Ġdist ances
Ġdist urb
Ġshould st
Ġshould ers
ari ably
Ġfollow er
ici i
ro ot
ro od
ro ad
ro amatic
spect ion
spect acle
ÃĦÅĤ N
ÃĦÅĤ en
ÃĦÅĤ su
ish ables
Ġrational istic
Ġrespect ed
Ġrespect ability
with hold
Ġpur a
Ġpur se
Ġpur posed
Ġpur ify
Ġpur port
Ġpur poseless
Ġrem orse
Ġdisc ard
Ġdisc ursively
Ġdisc overer
Ġdisc ouraging
ink s
ine ar
ine fficient
Ġinde bted
Ġinde fat
ĠH ob
ĠH ave
ĠH oly
ĠH oliness
ĠH ope
ĠH err
ĠH aving
ĠH OP
ĠH utcheson
ĠH ecub
ĠH onor
ĠH enry
ĠH awaii
ĠH umans
ĠH aller
Ġexam ines
Ġexam ining
der ives
Ġact um
Ġhapp ier
Ġfe ared
Ġfe ature
Ġfe asibility
Ġfe asible
âĢĿ ?
âĢĿ âĢĶâĢľ
Ġext ant
Ġext rem
Ġext ensions
Ġext orts
Ġext remit
Ġext irpate
Ġen light
Ġen clos
Ġen coun
Ġen counter
Ġen semble
Ġen acted
Ġen ouncing
Ġen unciated
Ġen cod
Ġen ric
Ġen actments
Ġen sues
xim ately
Ġag endum
over come
over turn
over powers
over sies
over borne
Ġorder ly
par able
par ison
par aded
par simony
par oxysms
under take
under value
under mine
less ly
Ġground work
med iating
Ġunivers itas
Ġsci re
stit utes
ĠE C
ĠE t
ĠE ternal
ĠE ffect
ĠE lectronic
ĠE duc
ĠE gy
ĠE urope
ĠE lea
ĠE sto
ĠR ight
ĠR ules
ĠR ather
ĠR ATION
ĠR esult
ĠR idic
ĠR hode
Ġeffect ual
ell ipse
Ġter ror
Ġter restr
Ġter ritory
Ġpres cription
Ġout look
Ġout bre
ty pic
Ġexp ends
Ġexp ounded
Ġexp anded
Ġexp ansion
Ġquestion ed
Ġquestion able
wo e
Ġmaxim a
ophy sical
reason ed
reason ably
Ġhuman ly
Ġpossess or
ear th
ear ning
Ġass ists
Ġass ault
Ġam ple
Ġam iable
Ġam az
Ġam putation
Ġam usement
Ġam bitious
Ġreal m
Ġreal ist
Ġreal issim
Ġreal itas
Ġreal itatis
rough ness
Ġappl ause
Ġappl ications
Ġent is
Ġent angles
Ġent reating
Ġent hus
av ish
Ġmind ed
Ġperfect s
Ġperfect ibility
Ġmat hema
Ġmat urity
Ġmat erially
sen ess
Ġcrit ics
Ġcrit ically
phys ically
phys ica
Ġsim ul
Ġsim ultaneity
Ġatt ending
Ġatt aches
Ġatt ested
Ġatt entive
edu ces
ĠD ev
ĠD ynam
ĠD ialectical
ĠD emonstr
ĠD ifferent
ĠD iog
ĠD atur
ĠD istrict
ceed ing
ass on
ass ure
ass ures
ass ification
ident ial
ble matical
). "
). [
Ġbas es
cons in
cons ilia
hemat a
Ġsec ured
Ġsensuous ness
cogn itive
cogn itio
Ġimp el
Ġimp utes
Ġimp uted
Ġimp uting
Ġimp ug
Ġimp utable
Ġimp els
Ġimp atient
Ġimp etus
Ġimp iety
Ġimp eret
Ġorigin arium
Ġorigin arius
ice berg
ular ly
Th ree
Th ales
Ġcor ner
Ġcor rel
Ġcor relates
Ġcor pus
Ġcor robor
there d
there on
there with
there from
Ġinv ites
Ġinv iting
Ġinv inc
Ġinv ested
Ġinv ariably
Ġpoint ing
Ġpoint ed
Ġhere dit
Ġhere tof
necess itates
Ġnatural is
Ġnatural ist
Ġnatural istic
Ġnatural ists
dis appear
dis content
dis like
dis claim
dis connected
dis pleasure
dis solution
dis regarded
dis regarding
dis appearance
dis figure
dis claims
dis continue
dis appeared
dis plays
dis secting
ange lical
Ġshow er
Ġuniversal itas
Ġinf use
Ġinf ers
Ġinf lu
Ġinf lict
Ġinf using
Ġinf lam
Ġbet ake
Ġbet imes
can o
Ġexpl icative
Ġexpl anatory
ner vus
Ġsens itivum
Ġintellig ently
Ġintellig ibilia
Ġrequire st
Ġquant itas
ĠM S
ĠM en
ĠM ight
ĠM ont
ĠM air
ĠM ED
ĠM OD
ĠM AD
ĠM oh
ĠM etamorph
ĠM assachuse
ĠM otives
ĠM aine
ĠM ilan
ĠM oderation
ĠM useum
ĠM exico
ĠM elan
ĠRe al
ĠRe ven
ĠRe public
ĠRe quire
ĠRe flection
ĠRe adable
ys ics
Ġkind red
app arent
app etites
Ġstr ife
Ġstr anger
Ġstr ik
Ġstr iking
Ġstr ipped
Ġstr atag
Ġmanifold ness
ught s
Ġnor mal
Ġap ology
Ġap olog
Ġhand ed
Ġhand iworks
Ġwhere on
Ġwhere ver
Ġwhere of
Ġwhere upon
ccess ion
Ġcharacter ize
Ġcharacter ization
Ġdem ur
Ġdem urred
Ġdem arcation
Ġconc aten
Ġconc ordant
phenomen ization
othe ism
Ġrest ores
Ġrest oring
Ġanaly zed
ingu ishable
ious ness
Ġref uge
Ġref rained
Ġref utations
Ġref usal
reg ion
reg ions
reg ulating
reg ister
reg num
reg ularly
Ġdiv est
Ġdiv iding
Ġdiv inity
Ġdiv erted
ev iating
ev angelical
Ġsum mit
und iminished
Ġnotion al
ĠL ake
ĠL ove
ĠL eg
ĠL imitation
ĠL aert
ĠL amber
ĠL AW
ĠL LC
ĠL ouisiana
ĠL imits
ĠL astly
ĠL earning
Ġcomp ute
Ġcomp ressed
Ġcomp iled
Ġcomp anies
Ġcomp endium
Ġadv ises
Ġadv ocate
Ġadv entures
Ġcontradict ed
Ġcontradict ories
Ġdedu cible
contr ol
contr action
contr acted
contr oversies
Ġfree zing
Ġres ort
Ġres ists
Ġres ource
Ġres cue
Ġres ources
ER UM
Ġsupreme ly
Ġconcl usio
Ġconcl usiveness
Ġtruth ful
Ġtruth fully
Ġremain der
Ġremain ders
Ġ1 000
Ġ1 15
Ġ1 13
Ġ1 40
Ġ1 10
Ġ1 45
Ġmost ly
Ġdec ry
Ġdec ade
ĠU s
ĠU bel
ĠU ta
ĠU NITY
ĠU ndoubted
ĠU NUM
Ġmet amorph
fic ence
Ġill imitable
irm ative
acc ustom
acc idens
lear nt
Ġsupp ress
Ġsupp ression
Ġsupp lant
Ġsupp orters
Ġpredic ata
Ġexpress ive
Ġconsist ed
Ġconsist ence
Ġphys ic
Ġphys iological
Ġphys iogn
Ġcontent less
Ġnow ise
Ġnow adays
In finite
In experienced
In tending
intuition al
Ġi ol
Ġi ality
Ġi que
Ġer go
Ġer adicated
Ġtot um
Ġconf use
Ġconf luence
Ġconf uted
Ġconf uting
Ġconf utation
Ġconf ront
represent able
represent atio
Ġmathemat a
Ġmathemat ic
pend ant
Ġcl ay
Ġcl oak
Ġcl imax
Ġmot to
Ġaff ixed
Ġaff irmat
sub mit
sub mitted
sub species
sub serve
sub ordination
sub tlest
sub traction
sub sequent
sub stitutes
Ġconcept as
Ġhypothe sin
rel ating
ĠCon sid
ĠCon stitution
ĠCon fusion
ĠCon viction
ĠCon necticut
Ġproble matic
ath y
wor se
Ġsatisf actions
Ġind ustr
Ġind ulg
Ġind istinct
Ġind ignant
Ġple ased
Ġconform ing
Ġconform ability
Ġsuccess ions
Ġsuccess ors
Ġworth less
Ġstand still
sert orical
raph ies
Ġac id
Ġac hed
Ġac hes
Ġac ademical
Ġac roamatic
Ġup per
read er
read ers
read ily
Ġright ful
Ġel uded
Ġel angu
Ġel icited
Ġel icit
Ġel imination
Ġocc ult
law giver
Ġed it
Ġed ited
Ġed ifying
cont iguity
Ġder iving
mon opoly
Ġleg is
Ġleg ion
Ġleg acy
Ġleg ibus
Ġconcern ment
,âĢĿ [
opher s
Ġimag ined
Ġimag ines
avour able
trib unal
Ġmetaphys ician
Ġconsequ ens
Ġconsequ ential
Ġexer tion
Ġexer ts
Ġparticular ize
Ġneed y
Ġemployment s
ention alism
Ġgu est
mis conceptions
mis chievous
Ġnum bered
Ġmod ify
Ġant ip
Ġant agon
Ġfin ish
Ġfin itude
Ġaccord ed
Ġwant onness
hence forward
hes itate
hes itation
Ġindic ations
ĠĠĠĠĠĠĠĠĠĠĠĠĠĠĠĠĠĠĠĠĠĠĠĠ ĠĠĠĠĠ
Ġsc ru
Ġsc ope
Ġsc orn
Ġsc rup
Ġsc heme
Ġsc anty
Ġneg atives
Ġneg atio
Ġneg lected
part ies
arr anged
arr ogance
subject ing
pect s
oubt ingly
Ġmain ly
Ġing u
Ġing enious
come ts
do cs
Ġmethod ically
Ġcommand ments
Ġlogic arum
Ġmean ness
Ġmean while
Ġphysical ly
Ġvirt uously
Ġless en
Ġless ens
ĠTH OU
Ġover gr
Ġover take
Ġover bal
Ġover sight
Ġover fl
Ġover takes
Ġover charge
Ġover thrown
Ġbelie ving
Ġimport unity
go at
Ġmen ace
ogress ively
Ġhence forward
transcendental is
Ġsol ar
Ġsol us
Ġsol utions
Ġdog s
Ġnon entities
Ġspeci erum
Ġspeci osa
mor row
Ġlong ings
Ġhold est
Ġanswer able
Ġequ ity
Ġequ ations
Ġequ ivocal
Ġequ ivocation
nature d
Ġideal e
Ġco here
Ġco ars
Ġco heres
Ġco hering
Ġco erce
Ġpost hum
Ġpost erio
Ġexcept ing
Ġformal iter
gr uity
gr oss
gr oping
gr image
gr andeur
ĠPr ior
ĠPr ofessor
ĠPr agmatical
ĠPr imacy
ĠSu ccession
Ġcontin ent
Ġcontin ents
Ġbound ed
Ġbound ary
Ġher ald
Ġess endi
ail able
Ġprev ention
Ġprev alent
will ingly
Ġident atis
Ġident itas
dist ance
dist ract
Ġpleasure s
Ġdoubt ing
Ġdoubt less
Ġprov able
Ġprov idential
Ġinst ability
Ġinst antly
Ġinst inctive
Ġinst igations
Ġmis used
Ġmis employment
Ġmis fortun
Ġmis application
Ġmis apprehension
Ġmis ery
Ġmis conceived
Ġmis understand
Ġmis carr
Ġmis chievous
Ġdialect ics
Ġdialect ically
Ġdialect icians
Ġdialect ician
Ġhar ass
Ġpass age
Ġpass io
Ġpass ively
Ġpreced ence
Ġargument ation
Ġargument um
Ġden ial
Ġden ounce
Ġden oted
Ġappre ciate
Ġmaterial e
Ġmaterial ist
ĠAs k
ĠAs soci
ĠAs sertorical
oc ritus
Ġce ptions
Ġgener is
Ġgener ic
Ġgener ate
Ġgener ating
Ġoblig ations
Ġoblig andi
Ġoblig antibus
Ġprogress es
Ġprogress ive
Ġprogress ively
Ġbeginning s
Ġallow ing
ties t
Ġprom ised
Ġprom inently
Ġprom pted
Ġvari ation
Ġvari ations
Ġvari eties
Ġvari etates
Ġfall ible
Ġsuper fici
Ġsuper added
Ġsuper ann
Ġsuper sensual
Ġsuper subtle
Ġimperative ly
sim ultaneity
Ġaw ful
bl ock
dif fers
ne ighbour
Ġlegisl ators
Ġpeculiar ly
nt ial
.âĢĿ âĢĶ
Ġfal seness
disc ord
disc redit
disc ursively
disc overer
For mal
strict ly
strict est
RE ASON
ave lled
cor ner
cor relate
cor ruption
Ġav ow
Ġav owed
Ġav arice
Ġharmon izing
some one
Ġund a
Ġund o
Ġund emonstr
Ġund iminished
Ġund eserving
Ġund ivided
Ġund eviating
Ġund oubtingly
ull ed
ull itions
des iring
des cribing
ĠY ear
ĠY ork
Ġcirc ulate
Ġbr other
Ġbr igh
Ġcontingent ia
Äłin qu
Äłin vol
Äłin trodu
what soever
right s
right ful
right fully
lar ge
Ġfurther s
Ġconj oins
moral ists
sh ut
sh ore
sh ield
sh arp
sh ifting
les ome
Ġsing ly
Ġsing ulare
Ġvol o
Ġvol unteer
Ġvol cano
Ġign ava
Ġign oble
sist ence
sist ency
Ġintellectual ists
Ġjud icii
consid ers
br aska
br utum
br idle
Ġtreat ises
erse y
ck er
ck ily
fer re
Ġspring ing
Ġintr ude
Ġintr usive
Ġintr ospect
ĠAn ne
ĠAn nihil
ĠAn ax
ĠAn imality
pres sible
pres cribe
pres cribing
pres erving
pres erve
Ġconv ulsion
Ġcorrect s
Ġcorrect ed
limit less
Ġpret ty
Ġpret ences
Ġpret ends
Ġpret ending
inde xes
Ġdistrib utor
Ġpar ading
Ġpar oxysms
Ġpar cel
Ġpar adise
sensuous ness
EC TION
ĠHe aven
ĠHe teronomy
All ow
All heit
Äłc le
Äłc op
Äłc reat
Äłre c
Äłre st
Äłre strict
Äłre vol
where in
where fore
Äłs a
Äłs ac
Ġcriticism s
Ġinfer ior
Ġmed ical
Ġmed itate
Ġmed dle
Ġmed ley
Ġmed itating
Ġmed icine
leg es
ech ism
ood less
Ġdeterminate ly
Ġignor ing
Ġignor atio
Ġauthor itatively
comm only
comm encement
world s
Ġcontinu a
Ġcontinu i
Ġcontinu ation
Ġcontinu ations
pur ity
pur poseless
pur chaser
Ġcompar ationis
pens ated
imp elled
imp els
imp etus
imp otently
imp etuous
intellig entia
intellig ibilis
IS M
IS TENCE
ĠUn ion
ĠUn question
ĠUn iversity
Ġmoment ary
rational istic
bel ow
fe res
fe asibility
just ly
Ġinfin itude
Ġinfin itus
Ġtrans form
Ġtrans ference
Ġtrans formation
Ġtrans port
Ġtrans ports
ĠEx planation
Ġseek est
Ġfield s
Ġexhib iting
rem ember
rem oval
rem embered
rem embers
att end
att ending
att aches
att aching
Ġins ured
Ġins ati
Ġins incerity
Ġins inuating
Ġins urmount
Ġins ensate
Ġrecogn izing
Ġrecogn izable
Äłf ig
Ġcomb ative
Ġcomb ining
Ġpain t
Ġpain ters
Ġexcl usions
Ġ3 000
Ġ3 8655
Ġdesign ations
Ġanteced ens
Ġtranscendent ly
Ġke ys
Ġabstract s
IN CIPLES
IN CLUDING
Ġcosmological ly
Ġcompre hens
Ġcompre hensibility
comp el
comp ass
comp etent
comp ulsion
comp assion
comp ete
Ġbl end
Ġbl oodless
Ġul ty
respect ively
Ġ5 2
general ness
igh s
Ġpursu its
incl uded
Ġsur passing
Ġsur mise
Ġsur moun
Ġsur faces
Ġsur veill
Ġsur gical
ĠAr ithmet
ĠAr kansas
ĠAr rived
ĠAr tist
Ġfore ver
Ġfore go
Ġfore thought
Ġfore seen
Ġfore stall
separ ation
separ ated
separ ating
separ ately
ific ed
ific ial
system a
system s
system atical
Ġapodeict ical
Ġpsych olog
Ġdel uding
Ġdel udes
Ġdel iverance
Ġdel ivery
Ġintrodu ctory
produ cing
Ġappro ves
Ġappro ving
Ġappro ached
Ġappro aching
Ġappro bations
consist ence
Ġmanifest ed
Ġmanifest ly
Ġmanifest ation
ĠV oid
ĠV au
ĠV irtue
ĠV olunteers
ĠV irginia
ĠV ermon
ĠV olta
ĠV ERUM
conf ounding
Ġkingdom s
Ġstates man
sum ma
Ġche ated
Ġche ats
cre ation
cre ate
ĠSp inozism
Ġcircum scribe
Ġcircum scribed
Ġcircum scribes
Ġcircum spection
Ġear s
employ s
Ġens ured
univers itas
Ġlet s
Ġlet ting
Ġge ograp
Ġro of
Ġagree ing
quant i
quant um
quant itative
quant itatis
quant orum
Ġorgan izations
Äłd r
Äłd og
Äłd edu
Äłd ialect
Äłd ogmat
ĠJ urists
ĠJ uno
ĠJ ersey
Ġindividual s
Ġsignific ant
Ġpostul atum
TH IS
TH IRD
sc hemata
perfect ions
perfect issimum
Ġline ar
distingu ishes
ĠK ingdom
ĠK ansas
ĠK entuck
mathemat ic
mathemat ically
ĠRE FL
ĠRE LATION
Ġvolition s
Ġsepar ations
ae que
ae ternitas
Ġtest is
Ġtest ing
Ġcare lessly
speculative ly
Ġdeser ved
Ġdeser ts
Ġcreat es
Ġcreat ors
Ġvarious ly
apt ation
apt itudes
ren ounce
Ġoff ended
Ġoff spring
ins ured
ins omuch
ins piring
ins ignia
Ġutter s
Ġutter ing
div ine
div inity
div isions
div ested
possess or
possess ing
possess ed
Ġdisp uted
Ġdisp elled
Ġdisp assion
Ġdisp utants
Ġuseful ness
Ġcre de
Ġfa de
Ġfa cia
Ġaccept able
Ġacqu ires
Ġacqu iesce
cogit ation
cogit ates
Every body
ven ing
ven ged
ĠÃ Ģ
gu ide
gu ided
gu iding
Ġgen esis
Ġadopt s
tot o
Ġopp ortunities
presu pposing
Ġgain er
Ġsimilar ities
Ġlight en
Ġlight ly
Ġfavour s
Ġfavour ing
Ġcosm otheology
Ġcosm icus
question es
Ġold er
Ġprop ound
Ġprop ortions
Ġprop ounds
Ġprop aed
Ġprop agation
Ġoccasion al
?âĢĿ âĢĶ
Ġsure r
Ġdogmat izing
Ġschool man
analy sing
analy sation
origin ate
conform s
conform ing
conform ed
Ġdestroy s
Ġdat ae
Ġforth with
predic able
belong ed
Ġta uro
Ġinter fered
Ġinter course
Ġinter rupted
Ġinter secting
Ġinter feres
Ġinter vening
demonstr able
demonstr ates
demonstr ating
should ers
Ġconver se
Ġconver sio
Ġkeep s
Ġir ref
Ġfr actions
Ġfr aming
Ġfr atern
Ġfr ivol
Ġfr agmentary
Ġdom estic
Ġdom inant
Ġreflection s
Ġconstruction s
imin al
success ions
Ġart ist
Ġart istic
Ġart ists
Ġart ifices
Ġart ifici
Ġart ificial
prov ide
prov ision
prov ides
real ize
real izes
purpose ly
Ġmag ical
adv antages
adv ocate
adv enturing
Ġmechan ics
Ġannihil ation
ĠAN TIC
Ġcomparison s
content ed
Äłl ist
Äłl ab
Re ality
Re flection
Re futation
Re alities
occ urs
occ asions
Ġ9 1
Ġ9 3
Ġ9 4
Ġ9 7
Ġ9 8
Ġ9 000
Ġredu ction
Ġredu ces
Ġdown ward
Ġdown wards
Ġdown fall
Ġtransc ended
non entity
non entities
compre hension
crit ically
ret reat
ret urn
great ly
vol unteer
discover ies
far ther
Ġindis solu
Ġindis soluble
ĠWith in
Ġdef ences
Ġdef ensive
Ġdef ended
Ġdef ensoribus
Ġadm ired
Ġadm ixt
Ġadm oto
correspond ence
Ġur n
Ġur y
Ġur ge
when ever
press es
universal itas
Ġprob ity
Ġprob andi
Ġplain er
Ġplain est
Ġclass ification
Ġfan atical
Ġpriv ation
Ġfear fully
investig ate
investig ated
den y
den ies
since re
Ġsever ity
Ġsophist s
Ġsophist ry
struct ure
Pr of
Pr udence
Ġfail s
Ġfail ure
Ġdivers a
Ġdivers ified
Ġprevent ing
Ġopen ing
Ġopen ly
Ġanalog ously
lat er
lat ent
lat est
ĠOR IGIN
attain ment
claim ants
Ġsk ilful
Ġpublic ly
Ġassign ing
Ġabsurd ities
Wh ich
Wh oever
Ġback ward
Ġfour fold
ĠIm agination
ĠIm materiality
Äłde pr
ĠPro cess
ĠPro positions
ĠPro vidence
ĠPro perty
ĠPro ceeding
Ġplan et
Ġstandard s
particular ity
Ġpract ise
Ġpract itioners
Äłh armon
through out
ustr ation
Ġrec urs
Ġrec urring
Ġhum bly
Ġprocess ion
Ġprocess ors
truth s
truth ful
truth fulness
Ġwrit ers
Ġconfin es
ĠAt qui
ĠAt omistic
Ġchain s
proceed ed
ED OM
mot us
Ġturn ed
Ġturn spit
turn s
inf it
inf allibly
rest ing
rest ed
ater al
Ġsa ves
Ġsa fer
post erity
post poned
post pone
ug nance
Ġcontrib uted
Ġsent ences
Ġbene ath
Ġborrow s
Ġelev ate
Ġelev ations
Ġweight iest
Ġstud ied
Ġobsc urities
Ġafford ed
Ġdomain s
Ġmajor ity
play ed
TIC ULAR
look ing
Ġmist ress
Äłcon sequ
super natural
super human
neg atively
neg atived
before hand
conting ently
indic es
indic ations
indic ative
Ġproduction s
Ġaxiom atic
ÄłA b
Äłex er
Äłex per
Ġcap abilities
Ġperform ances
Ġpreser ver
Ġpreser ving
ĠDe ceived
ĠDe fects
ĠDe ficiency
ĠDe gree
ĠDe utsches
ĠDe finitions
Ġearth ly
Con junction
Con sciousness
Con sistency
aff ord
aff air
aff irmed
draw s
Ġgl ad
Ġgl ances
Ġgl orifies
stant iality
mind ed
Ġeng age
Ġeng ages
Ġeng agement
ÄłP U
Äło per
Ġintention al
Ġqual ifies
Ġqual ifying
appre ciate
Ġnecessit as
Ġnecessit ating
cul pable
cul ae
cul prit
Ġpay able
Ġpay ment
Ġsubsum ing
Ġsubsum ptions
Ġfit test
Äłe lev
consequ ent
umer able
expect ing
expect ation
Ġcr ied
Ġcr ush
Ġcr iminal
Ġ7 50
Ġestim able
.) [
As k
_. âĢĻ
Ġaggreg ated
Ġaggreg ates
Ġproportion ately
imag inary
ĠPRO VIDED
Ġsubl unary
Ġreflect ive
feel s
Ġum er
Ġum pire
Ġum pires
Ġver ge
Ġver ification
Ġver ifying
Ġver acious
Ġver bi
Ġont ology
Ġont otheology
Ġguard ians
por al
Ġ6 000
assert io
assert orical
assert orial
Äłr atiocin
Äłpr act
Äłpr ogress
Ġpopular ly
Ġren ouncing
Ġrep el
Ġrep elled
Ġrep aired
Ġrep etition
Ġrep entance
Ġrep utans
Ġrep ugnance
Ġhabit a
Ġhabit ual
Ġhabit ually
ref use
ref lect
ref und
ref utation
ref lective
ref lected
Ġreturn ed
Ġexc iting
supp lies
Ġshort en
Ġshort ness
Ġdisappear ance
Ġfew er
Ġextensive ly
Ġinquire r
Ġinquire rs
Ġcheck ing
Ġcheck ed
fortun ately
pret end
pret ension
pret ended
plic anda
conscious ly
human ae
." ]
Ġavail ing
Ġcal oric
Ġcal umni
Ġbad ly
Ġbad ness
Ġbold est
Ġbold ness
Ġmin ute
Ġmin erals
Ġbeh oof
Ġpros cribed
Ġexec utes
Ġexec utive
Ġextr action
Ġextr aneous
Ġextr aneously
Ġextr acted
Ġextr amund
Ġdev ises
Ġdev ised
Ġdev iating
Ġdev oting
Ġpersu ading
Ġendless ness
Ġcausal itatis
Ġenjoy s
Ġenjoy ed
ĠEm peror
Ġpromot ed
che ck
che cks
PL E
dog ma
Ġid em
Ġid leness
Ġid olaters
ank ly
Ġplay ed
found s
found ations
Ġ0 1
Ġ0 2
observ able
observ ance
signif y
Ġord aining
Ġlea f
appro ves
appro val
appro ximately
Ġderiv ativ
Ġspecif y
pass es
pass age
Ġtw ice
inter change
inter vention
inter changed
inter preted
Ġwond ers
Ġwond rous
Ġbu ys
Ġbu yers
Ġsuggest ing
Ġsuggest ive
trans form
trans fer
trans fers
trans lated
Ġheav ens
Ġexperiment ing
Ġexperiment ed
Ġsafe guard
IL EI
OG IES
view s
view ed
ÄłC om
scept ical
scept ics
second ary
deg rade
establ ishes
establ ishment
ĠNO THING
intellectual is
PR INCIPLES
equ itable
equ als
equ ivocal
find ing
pot entially
conv ince
conv ictions
conv entionalism
Ġgrad ations
logical ly
Ġtal ks
inst inct
inst abilis
inst illing
Ġfortun ae
Ġcharge able
preced ed
ĠEvery where
Ġesteem s
Ġesteem ing
Ġillustr ative
Ġillustr ated
Ġillustr ates
Ġconvin ces
Ġtransgress ed
Ġtransgress ions
Ex position
Ex ternally
Ex actly
Ex planation
Ex tension
Ġlist ing
Ġlist ed
Ġlist ener
Ġlist ens
Ġlist ened
Ġweak er
Ġweak ens
Ġimit ative
ĠNot ions
ĠNot withstanding
Ġconfess es
Ġconfess ing
Ġfinal is
fact itious
show s
tal ks
tal ents
positive ly
Ġ15 0
Ġ15 5
distinction s
fall ing
fall acious
Ġprot est
Ġprot ection
Ġprot uber
Ġvan ishing
ĠWh ich
ĠWh ile
Ġsubstant iate
Ġsubstant iality
Ġconfirm ations
Ġanticip ates
Ġanticip atory
Ġ20 16
Ġ20 13
Ġ20 20
dec ision
dec ides
dec ried
dec lare
Ġhind ered
ĠIN CIDENTAL
ĠIN TU
Ġcompl ain
Ġmeasure s
Ġperi uria
Ġaddu ces
ĠInt ensive
ĠDis junctive
ĠDis pute
Ġprofound ly
Ġpsychological ly
ĠKant ian
direct or
restrict s
restrict ions
doubt s
doubt ing
doubt fulness
anteced es
anteced ens
Ġair s
Ġair less
anthrop ological
among st
except ing
except ivae
unal tered
unal terable
work ing
Ġfruit fulness
Ġfruit lessness
Ġdur able
ÄłD I
Ġattr active
Ġattr acted
Ġsym ptoms
Ġcommun is
Ġcommun ion
Ġcommun ities
Ġcommun io
Ġcommun icate
abstract o
abstract s
RI CELLI
Ġwar mest
Ġsound ness
Ġinj ure
Ġinj ured
lead ing
Ġhyp ophysical
Ġforbid ding
Ġsuff ice
Ġsuff iced
Ġsuff icing
Ġstart ing
Ġstart le
Ġstart les
Ġstart ling
Ġprejud ge
ĠCON CLUSION
Ġadmir ing
Ġminor ity
gener ation
gener ated
gener ating
Ġve hement
Ġtrib es
Ġtrib ute
correct ing
correct ed
assum es
An alytical
An cient
Äłen g
occup ying
maintain ing
Ġcur o
Ġcur ta
Ġcur vil
abs ent
acher s
compar ative
compar atio
Ġcultiv ates
Ġcultiv ating
concl ude
concl uded
concl udes
concl usiveness
comb atant
Ġ10 5
Ġsett ling
Ġcounter s
Ġcounter act
Ġcounter part
Ġcounter bal
Ġcounter acts
Ġtast es
sec ured
Ġdict et
Ġhy dro
Ġsusp ension
Ġobjection able
Ġrank ed
Ġpremis es
ĠNe braska
ĠObject ively
Ġimpart s
Ġapproxim ations
Ġapproxim ates
Ġapproxim ating
Ġgovern s
Ġgovern ed
Ġmon as
Ġmon adology
Ġmon otheism
prop ose
prop ensions
prop ortions
prop Ã¦deutic
prop ensity
distrib uted
distrib uting
affirm ation
affirm atively
Ġast erisk
col oured
col umn
clear ing
mod us
mod ality
mod ern
mod ification
mod ifying
mod eration
sour i
answ ered
progress ive
need s
need less
co exist
co existent
prom o
prom ised
prom ising
prom otion
ri ot
ri pture
see ks
ott ish
deduction s
Ġtell us
Ġbre ast
Ġbre aking
Ġbre vity
Ġarchitect onically
method ical
method ology
Ġapprehend s
Ġapprehend ing
Qu ality
Qu antity
SI US
Ġcle ver
Ġcle aving
Ġcle aves
Ġpenetr ated
Ġpenetr ating
Ġinward ly
Ġrecomm ends
Ġrecomm ending
Ġrecomm ender
Ġdr ive
Ġdr iest
Ġdr inks
Ġdream ing
Ġhard er
Ġhard ens
Ġhard ware
result ed
Ġdepr ived
Ġdepr iving
Ġdepr aved
Ġdepr avity
ĠAuthor s
ĠPer manent
ĠPer ceptions
ĠPer manence
ĠPer suasion
Ġdisclaim s
Ġdisclaim ed
Ġprefer ring
Ġpresum ptuously
Ġpresum ptuous
Ġnumer o
Ġnumer ation
Ġnumer ically
Ġcalcul ations
Ġcalcul ating
Ġhyper physics
Ġog n
Ġog y
enlar ge
continu ing
continu ed
continu ity
continu ance
AN TITY
anticip ations
anticip ated
anticip ating
grad ation
grad ations
grad ual
grad uation
af oresaid
Äłsu ff
Äłsu ggest
PH ICAL
mo ved
render s
Ġist is
entia e
long est
Ġann ual
Ġann ounce
Ġann ounced
Ġann ulled
ĠTr ademark
ĠTr illion
ĠTr ansgression
metaphysic a
cop ical
cop ied
coun tries
coun sels
Ġaugment ing
Ġaugment ed
Ġaugment ation
Ġcent ral
Ġfashion able
Ġrepro ached
Ġrepro aches
Ġdimin ution
Ġhorizon s
Ġpra ising
Ġdepart ure
Ġdepart ments
Ġalleg es
Ġalleg ation
Ġdoll ar
Ġshap es
Ġshap ing
ĠOr der
material s
ĠCom mon
ĠCom munity
ĠCom parison
Ġindetermin able
Ġindetermin ateness
Ġoutward ly
Ġexerc ising
Ġoverstep s
Ġfaith ful
Ġmagn et
Ġmagn ified
Ġmagn etic
Ġcolour s
affect ion
affect ation
affect ions
vari ations
vari ance
vari eties
Äłg en
cap acity
flu idity
Ġinc ited
Ġinc urred
Ġinc urable
search ing
evol ent
evol ved
AB OUT
eng aging
Ġanthrop ological
Ġanthrop omorphist
Äłtr ansc
Ġinner most
term ing
understand s
Ġinstruct ors
Ġfl ap
Ġfl oat
anc ers
imental ism
Ġprincip ii
Ġprincip iis
sophist ry
Ġcontempor aneous
cour t
opp ortunities
pet itio
Ġwa ited
Ġwid en
Ġwid ening
Ġcred ulity
Ġinstit ution
Ġinstit utions
Ġthreat s
Ġthreat ens
Ġmut ilate
Ġmund i
Ġnull a
Ġnull o
Ġnull ifying
Ġred ness
Ġrepe ating
Ġconject ured
Ġpropens ities
ĠTot um
Ġunb iased
Ġuniform ly
Ġviol ation
Ġviol ating
prof it
prof ound
Ġimprov ising
Ġimprov ements
Ġimprov idently
Ġquar rel
ĠAl most
ĠAl abama
ĠApp rehension
ĠApp endix
ĠAnt icipations
Ġsubmit ting
ĠMe iklej
Ġconceal ing
Ġdecom pose
Ġdecom positio
Ġclos ing
Ġclos est
Ġimperfect ions
Ġintuitive ly
Ġpeace able
ĠPhys iology
ĠPhys iocr
Ġappeal ing
Ġsacr ifices
Ġsacr ificed
Ġhypostat ization
Ġhypostat izes
80 9
add ing
add ressed
deser ves
deser ved
deser ted
po em
educ ation
educ ators
commun e
commun is
admit s
admit ting
ĠST AH
formal iter
apply ing
Ġfix ing
Ġreconci ling
Ġreconci lable
Ġhes itates
aggreg ation
aggreg ates
account s
sus ceptionem
sus ceptibility
Ġtechn ique
Ġtechn ically
Ġmid way
Ġrevol ve
Ġrevol ves
Ġrevol ved
Ġrevol utions
embr aces
Ġdeal er
Ġdeal ing
Ġrad ius
Ġrad iating
Ġvis ual
Ġvis ited
Ġvis ibly
Ġshar per
Ġshar ply
ĠĠĠĠĠĠĠĠĠĠĠĠĠĠĠĠĠĠĠĠĠĠĠĠĠĠĠĠĠĠĠĠ ĠĠĠĠĠĠĠĠĠĠĠĠĠĠĠĠĠĠĠ
ĠGree ks
Ġgrow s
Ġdesp ises
Ġdesp ised
Ġdesp icable
Ġdesp air
Ġenumer ated
Ġenumer ating
ĠEX PER
ĠEX ISTENCE
Ġmodel s
ĠMan ifold
Ġcompens ated
Ġcompens ates
Ġ12 0
Ġ12 5
Ġ12 40
Ġguarante es
Ġguarante eing
Ġoverlook ing
Ġfault s
Ġfault less
Ġirre voc
Ġirre coverably
Ġirre parable
Ġirre pressible
ĠSystem s
Ġobscure ly
ĠChrist ians
dogmat a
dogmat ic
dogmat ist
dogmat izing
dogmat ists
ĠNew slet
ĠNew sletter
ĠNew tonian
Ġten or
anim a
qual itas
qual ifies
pursu e
pursu ing
pursu its
furn ished
furn ishing
Ġpo et
Ġpo orest
Ġpress ing
Ġru ins
pract icable
don ations
mechan ical
mechan ics
Ġcour t
Ġcour ses
throw ing
rent ly
Ġconven iently
Ġaltern ative
Ġaltern ating
Ġphilosoph ic
Ġphilosoph ies
Ġphilosoph ized
Ġphilosoph ically
Ġphilosoph izing
psychological ly
Ġboast s
Ġboast ing
Ġboast ful
Ġexempt ed
Ġlic enses
Ġlur k
Ġsun ny
Ġsuit ability
Ġunf illed
Ġunf aithful
Ġunf olds
Ġunf avourable
Ġspo ke
Ġspo iled
Ġvac ans
ĠSome thing
Ġsubstit utes
Ġcontempt uous
Ġentertain s
Ġentertain ment
Ġinvalid ate
Ġsolic ited
Ġcoinc iding
discern ed
discern ment
Ġcombat ant
Ġkey stone
ĠANAL OGIES
Ġdefend ers
Ġspiritual e
Ġspiritual ist
Ġmulti plies
Ġmulti plicanda
Ġsubstantial e
ĠChristian ity
Ġsophism a
Per ception
Per fect
Per haps
Äłth reat
excl usion
excl ude
excl uded
excl udes
design ing
design ations
destroy s
destroy ing
destroy ed
organ um
organ ized
dev ote
dev ices
remark ed
remark able
remark ably
Leibnitz io
Leibnitz ian
Sp inozism
St ill
St ars
Un conditioned
Un ited
Un iverse
Un iversal
Un fortunately
Ġpat ience
Ġpat ched
Ġpat ches
invol ve
contempl ation
contempl ate
contempl ates
contempl ating
meaning less
41 09
Metaphys ical
treat ise
infin itude
defect s
Ġstead y
evil le
discus sing
soul s
Ġfat ality
Ġell ipses
essential ia
Ġmyst ical
Ġmyst ics
Ġmyst ery
Ġmyst erious
Ġmyst icum
ĠConcl uding
Ġfair ness
dogmatical ly
yllogism os
Ã¦ sthetic
Ġomit ting
Ġsil ly
Ġsil ently
Ġpupil age
Ġband s
Ġbirth place
Ġnarrow ly
Ġnarrow est
seem ing
Ġlab oured
Ġlab oure
Ġlab yrin
ĠIs land
Ġdece ives
Ġtrust ees
Ġperplex ities
ĠAb solute
ĠAb ove
Ġchild ish
Ġfell ow
Ġassist ing
Ġassist entiae
Ġimped es
Ġimped ing
Ġimped iment
ĠMORAL ITY
Ġ25 00
Ġirresist ibly
Ġfancy ing
Ġsketch ing
Ġobey ed
Ġsuffer ance
Ġsuffer ings
Ġridic ules
Gr ace
Ġnihil o
Ġnihil um
adm ired
adm irable
prev ailed
assign s
accur ately
accur acy
corrupt s
THE OREM
support ing
accompan ies
accompan iment
.. .
.. .âĢĿ
.. ..
Ar ithmetic
Ar cesilas
Tr ansition
Tr anslated
hon ourable
Ġanim i
Ġanim am
Ġanim ality
Ġanim ated
Ġanim ates
Ġanim advers
que en
endeavour ing
exc iting
exc uses
process es
advance d
advance ment
De fect
bal anced
cosm ologia
spont aneous
spont aneously
incre ment
introdu ces
Ġish ment
transc ending
exhib its
prob ably
absurd ity
He aven
He teronomy
Not withstanding
access ions
merit o
peculiar ly
uit ously
ĠQu id
ĠQu ality
ĠQu od
ĠQu antities
Ġcast ing
Ġgrat ified
Ġgrat iae
Ġgrat uitous
Ġgrat uitously
Ġcontrover sies
Ph ysics
did actically
met abasis
text s
Ġtext s
Ġfil ed
Ġfil ename
section s
Ġembarrass es
Ġembarrass ment
Ġtrace d
sur face
sur render
sur veyed
sur faces
sur prising
ĉĉ ĠĠ
ĉĉ ĉĉ
ĉĉ ĉĠĠ
Ġcat echism
Ġinn umerable
Ġinsist s
Ġinsist ing
Ġburd ensome
Ġreview s
Ġreview er
Ġreview ing
Ġdark est
Ġexagger ations
Ġexagger ates
Ġsust ains
Ġsust enance
ĠIll usion
ĠIll ino
Ġunexpected ly
Ġcompr ise
Ġround ness
Ġround about
Ġvit am
Ġvit ally
Ġvit ium
Ġvict ors
Ġvict ories
Ġvag um
Ġvag abond
Ġsynon ym
Ġsynon yms
indu ction
indu ced
Ġsevere ly
Ġste el
Ġste ward
ĠAfter wards
Ġdispens es
Ġchar ms
Ġsubter rane
Ġmast ers
Ġmast ered
ĠGer mans
ignor ant
Ġencour aged
Ġencour agement
ĠEnd s
Ġcritic ized
Ġcritic ised
Ġcritic izing
Ġattach ments
ĠMis souri
ĠLOGIC AL
Ġ178 1
Ġ178 5
Ġ178 8
maj estic
Ġsuperfluous ness
Ġfigur atively
Ġfigur ae
occasion al
occasion ing
Ġdefici encies
Ġinduce ment
Ġmistaken ly
Ġpunct uation
Ġpunct ilious
Ġstruct ures
Ġweakness es
Ġhinder ances
Ġpraise worthy
Ġrepeated ly
Ġfatal ism
Ġdeceit fully
revol t
revol ve
revol ution
revol ved
revol utions
analog on
analog ies
analog ous
analog ue
analog ously
Äłac cept
del ay
del ivered
del iverance
contest s
Ide as
TRIB UTION
bar ic
bar barism
mag ic
Ġrom ancers
enjoy s
enjoy ing
enjoy ments
det ected
Ġposit ives
occur red
Princi ples
creat ing
test s
test ed
your s
Ġeduc ators
keep ing
grat ified
grat ifying
grat uitous
substant iality
substant iae
remo ves
remo ving
Em ployee
bring s
last ing
last ly
spr ings
intr insically
Ġmal evolent
Ġep ithet
Ġep igenesis
soon er
close ly
Ġ13 0
Ġ13 5
prevent ed
71 2
Respect ing
ey es
fund raising
favour able
oe ia
popular ity
tent h
van ity
van ishes
van ishing
Ġpol itical
Ġine fficient
Ġredistrib ution
ulous ness
mail ing
Ġimagin ing
Ġimagin able
Ġimagin arius
Ġ45 57
hypothetical ly
rupted ly
fil es
fil ings
Ġastr ay
Ġastr onomy
Ġwarn ed
Ġwicked ness
Ġcens or
Ġcens ura
Ġsl umber
Ġsl ips
Ġsl avish
Ġsw im
Ġsw allowed
Ġsw ift
Ġpubl ication
Ġmar red
Ġmar ionet
Ġmar iner
Ġtol erably
Ġissu es
Ġrevel ata
Ġaspect s
Ġanxi eties
Ġlow ered
Ġweaken ed
Ġwithdraw s
Ġwithdraw ing
ĠID EAL
ĠIM MOR
Ġprohib itive
Ġprolong ation
Ġunpleasant ness
Ġspecul ate
Ġspecul atists
Ġrig id
Ġrig our
Ġratiocin ati
Ġratiocin atio
Ġratiocin atae
Ġregular ity
Ġselect ing
Ġreluct ance
Ġreluct antly
Ġconsult ed
ĠAmong st
Ġappell ations
ĠPsych ological
Ġprepar ing
Ġprepar atory
ĠSe a
ĠSe gner
ĠSe ptember
Ġsubdiv isibility
Ġcontrol s
ĠCan st
ĠCogn itive
Ġvalu able
ĠRel igion
ĠRoyal ties
Ġsimpl er
Ġsimpl ify
Ġsimpl ifying
ĠDetermin ation
Ġinvent ed
Ġinvent ory
Ġinvent ors
Ġinfring es
Ġinfring ed
ĠMon th
ĠLaw s
Ġrespon sibilities
particip ation
particip ate
particip ant
particip ating
Ġharmonious ly
Ġappropri ation
Ġappropri ating
Ġomnis cience
ĠEpicurean ism
ĠMoral ists
Ġsacred ness
Ġrecommend ations
Ġarchetyp a
Ġrevolution ized
Ġ199 1
Ġ199 4
Ġ199 7
Ġ199 8
Ġ199 9
Ġcatalog uers
bene fit
bene ficence
pun ishes
pun ishment
pun ishable
Ġpot ens
Ġpot entially
artic ulation
artic ulatio
avail s
avail ing
circum scribed
PEND ENCE
ban ished
coinc ide
coinc ident
coinc ides
coinc idence
dict ation
dict um
dict ates
dict atorial
fl ashed
numer o
numer ical
numer ically
numer ica
pat tern
Ġpet itio
Äłdes p
Ġsoci al
fort ified
intention ed
medi ation
appoint ed
Sy nthesis
authoriz e
authoriz ing
cultiv ation
cultiv ating
fr ame
fr ankly
fal sely
ration ally
sent iment
sent imentalism
reconci ling
requis ites
requis ita
IND EMNITY
exerc ises
exerc ised
signific ancy
Philos ophy
Philos ophers
17 5
17 39
Al ways
EG ORIES
Mathemat ical
fill s
fill ing
mem ory
writ ings
ones elf
Ġflu ency
Ġflu ctuating
perform ances
chief ly
Ġsensual ized
Ġsensual ists
indifferent ism
indifferent ists
Ġship wre
Ġartic le
Ġartic les
Ġcontest s
Ġcontest ed
conflict s
conflict ing
comparison s
Ideal ist
fixed ly
horizon s
lie u
rain bow
run s
wit nesses
hetical ly
infer red
Ġbes et
Ġble mish
Ġmer cury
Ġrob bed
Ġadvers ity
Ġadvers aries
critic izes
manifest ly
manifest ations
Ġanthropomorph ically
ĠUNDER STAND
Ġtemper ance
Ġoc ular
Ġcut s
Ġcut ting
Ġcustom s
Ġsal es
Ġsal utary
Ġsedu cing
Ġsedu ctive
Ġsoft ness
Ġincontest able
Ġball s
Ġmil es
Ġmil itant
Ġfere n
Ġecon omy
Ġelucid ation
Ġelucid ations
Ġrever sely
Ġrever ti
Ġdread s
Ġdwell ing
Ġbeg un
Ġhit ting
Ġlat est
Ġlive liness
Ġlof tiest
Ġloose ly
Ġdeed s
Ġhast e
Ġhast ens
Ġuninter fered
Ġunansw ered
Ġ(_ )
Ġmel ius
Ġmel anch
Ġundermin e
Ġundermin es
Ġundermin ing
Ġundermin ed
Ġtroub lesome
Ġimpract icability
Ġpersist ed
Ġpersist ence
Ġshadow y
Ġstopp ing
Ġquit ting
Ġconsent iunt
Ġappet ites
Ġappet imus
ĠPers ius
Ġleap ing
ĠThought s
Ġargu es
Ġargu ed
ĠSc ripture
ĠSc ottish
ĠSen sibility
ĠOp inions
Ġserious ness
ĠGos pels
Ġgrate ful
Ġgross ly
Ġremed ies
ĠEngl and
Ġinviol ability
Ġindul ged
Ġindivid ually
Ġindivid uality
Ġguess es
Ġantiqu ated
Ġcoal esce
Ġhero ic
Ġhero ism
Ġfals ification
Ġfals ify
Ġunden iably
Ġvolunt arily
Ġparallel ism
ĠArgum ent
Ġcollected ness
Ġfanci ful
Ġsignal ized
Ġextravag ances
Ġcredential s
Ġthreaten ings
Ġsharp est
Ġsharp ened
Ġpoison er
Ġunfair ly
Ġpragmatical ly
ĠMonad ology
cur rent
cur iosity
cur vature
eg otistic
Ġpon ens
Ġlear ner
Ġlear ning
Ġlear nt
ĠUT F
Concl usion
568 2
Ch aracter
Ch ange
Ch anges
Ġther mometer
Ġbar barism
Ġbar baric
Ġproc ures
Ġproc ured
Ġproc uring
cast ic
cast les
Cont act
Cont ents
Cont ingence
bre aking
bre vity
carr y
carr ied
fail s
fail ing
fail ure
oh n
ann ouncement
ann ouncing
asc ent
asc end
asc ension
impl ies
impl ied
impl anted
Äłpres er
emin ent
emin ence
emin ate
chimer a
chimer as
chimer ical
illustr ate
illustr ations
depr ive
depr ived
depr ives
prot ect
prot ensive
pros perous
pros pects
pros yllogismos
suggest s
suggest ion
suggest ed
prohib ition
prohib iting
prohib itivae
Ġcorrupt ing
attack ing
Epic urus
Mor als
Sto ic
cal m
cert ificate
dest ined
elev ating
fa ithful
fam ily
lo quacious
mer ge
mer chant
penetr ate
touch ing
touch stone
wis er
instruct ress
enumer ated
alter ations
Ġthrow s
thy self
threat ening
embarrass ing
conject ures
confin ed
conven iently
specul ators
propri ety
Ġresist ing
contempt ible
product s
myst ical
PLEAS URE
Ġ80 9
schol ar
circumst ance
62215 4
Among st
First ly
custom ary
firm ly
fault iness
high ly
pus hed
sure ly
Ġadequ ateness
Ġwarrant ies
Ġindiscern ible
Ġbow s
Ġret ort
Ġret orted
trace able
spread ing
prefer red
Ġthank ful
Ġthank fulness
weight iest
Ġapper tain
contrib ute
contrib uted
obvious ly
indefinite ly
belie ves
belie ved
invent ed
ĠÃ¢Ä¢Ä ¿
colour ing
false hood
178 1
178 7
Ġtempt ed
Ġtempt ation
Ġapt ness
Ġapt itudes
Ġtheolog ian
Ġwander ings
Ġcand id
Ġcitiz ens
Ġsag acious
Ġincompre hensibilities
Ġincorrect ly
Ġinstrum ents
Ġincontrovert ible
Ġbro ad
Ġthir ty
Ġthwart s
Ġming led
Ġmock ing
Ġfam ous
Ġfam ily
Ġfam iliar
Ġfant astical
Ġnom adic
Ġnought s
Ġecl ipse
Ġrepress ed
Ġremind ed
Ġhour s
Ġhint s
Ġliqu id
Ġlangu or
Ġlament ed
Ġlament able
Ġsuppos able
Ġproject ile
Ġdeposit or
Ġalkal is
Ġunsol ved
Ġunquestion ed
Ġcomfort able
Ġempiric ists
Ġembell ishing
Ġvicious ness
Ġtriumph ant
ĠBec ome
Ġhearer s
Ġimmedi ata
Ġabut s
ĠFac ulties
ĠFOU RTH
Ġquick en
Ġquick ly
Ġquick ened
ĠAd aptation
Ġjuris prudence
Ġaccus er
Ġappend ix
ĠPre pared
Ġdiss ension
Ġdispar age
Ġdispar ata
Ġdispar aging
Ġdisappoint ed
Ġdisgust ing
Ġcharm ing
Ġchallen ge
Ġchallen ged
Ġchallen ges
ĠSh ould
ĠSh all
ĠSh allow
ĠOTHER WIS
ĠInte ger
ĠGre cian
ĠWis est
ĠWis dom
ĠWis consin
ĠCl assification
ĠCopernic an
Ġobl ivion
Ġdiscret a
ĠHist orical
ĠHypothe tical
Ġenv ying
Ġenig matical
ĠEv il
Ġtert io
Ġimpot ent
Ġcorrection s
Ġinflex ibly
Ġanalyst s
Ġsummon s
Ġsummon ing
Ġsummon ed
ĠLat ins
Ġ18 2
Ġdecre ases
Ġillum inations
Ġsupplement ing
Ġsupplement ed
ĠOnt ology
Ġdegr ading
Ġelimin ate
Ġelimin ated
Ġelimin ating
Ġprovision ary
Ġinstant aneous
Ġbrief ly
Ġbrief est
Ġabsor ption
Ġabsor bed
Ġabsor bent
ĠExt ension
ĠExt ensive
ĠExt reme
Ġsurr ounds
Ġsurpass es
Ġsurrender ing
Ġ99 775
Ġ99 712
Ġindisp utably
ĠImper ative
Ġmistrust ful
Ġcrown s
Ġcrown ed
Ġdevi ation
ĠDisc ursive
Ġdescend ants
ĠNeg ative
Ġruin ous
Ġspoil s
ĠAbb Ã©
Ġfriend ship
Ġauthentic ity
Ġastronom er
Ġeconom ize
ĠPerson s
ĠPerson ality
Ġrapid ly
Ġearnest ly
Ġepoch s
aut ia
aut omaton
mark ed
Ã¢Ä¢Ä ¶
erect ing
erect ed
care fully
redistrib ution
redistrib uting
imagin able
imagin arium
ĠQU ALITY
ĠQU ANTITY
Ġven geance
phil autia
tell s
tell ing
fulfil s
fulfil ment
apper tain
apper tains
apprehend ed
contempor aneous
contempor aneously
Che mists
Im possibility
Im manent
astr ay
astr ology
gen us
gen uine
Ġrect ification
Ġrect ify
Ġevol ve
Ġevol ved
ĠLI ABILITY
ĠLI FE
blind ing
AT ES
Com munity
Com plete
aud ible
adequ ateness
bat tle
bungl ers
bungl ingly
cher ished
cher ishes
citiz en
citiz ens
dur ation
dam age
dam ages
dile mma
dimin ution
dimin ishes
fanci ed
fanci ful
govern ment
govern ments
hist orical
hist orian
hyp ocrisy
hyp ostatic
loc ations
loc ated
moun tains
mock ing
mock ed
null ity
null ifies
rhapsod y
rhapsod istic
tre ated
tre asure
temper ate
temper ament
voc abulary
wond er
wond ered
Ġener gy
inj ure
inj ury
incomp etent
incomp atible
reve als
reve aled
redu ction
redu ced
isol ate
isol ated
attr action
attr actions
Ġcert ify
Ġcert ificate
Ġban ish
Ġban ishes
sever ity
ste pping
ste eled
imm ensity
imm utability
Ġfort itude
Ġfort uitous
empiric ist
empiric ists
consol ing
consol ation
ampl ify
depre ciation
depre ciated
depart ure
depart ment
tranqu il
tranqu ility
pron ounce
pron ounces
succeed s
succeed ing
antagon ism
antagon istic
exec ution
exec uted
exto lled
exto lling
acknowled ged
acknowled ges
unfortun ate
unfortun ately
Ġyp othe
prepar ation
prepar ations
preponder ate
preponder ance
compl aint
compl acent
Ġcommend able
weak ens
weak nesses
accompl ish
accompl ishment
Introdu ction
Introdu ctory
subsum ed
subsum ption
short est
short ening
presum ption
presum ptuously
ruin ous
comput er
comput ers
superior ity
figur ative
figur ae
symbol ical
school s
school men
Certain ly
EI THER
Logical ly
bes ide
back wards
ein heit
hio ko
upright ness
uphold ers
inward ly
reject ion
itating ly
altern ately
Ġbit ter
Ġmus ic
Ġmus ician
Ġmill enni
secret ly
Ġconqu ered
Ġconqu eror
start ed
vert ently
exert ions
acid s
unceasing ly
uniform ity
ĠPO STUL
ĠPER CEPTION
ĠPER SIUS
strong er
Theoretical ly
display ing
contrast ed
Ġacknowled ged
Ġacknowled ges
arrogant ia
Ġawa it
Ġawa its
correction s
philosoph ize
collect s
detect ing
cobweb s
splendour s
condemn ation
Ġtem ere
Ġtem poral
Ġtrem ble
Ġtrem bles
Ġtorment ed
Ġtorment est
Ġwarr anted
Ġwarr ants
Ġwild est
Ġwatch ing
Ġwretched ness
Ġcou ple
Ġcou pled
Ġcount s
Ġcount less
Ġsit uation
Ġsink s
Ġsap io
Ġpu ppet
Ġpu ffing
Ġpal pable
Ġpal ingenesis
Ġpill ow
Ġpill ars
Ġpoly theism
Ġpoly syllogistic
Ġpomp ous
Ġincompar able
Ġincompar ably
Ġblessed ness
Ġmir acle
Ġmir ror
Ġfif th
Ġfif ty
Ġfight ing
Ġfra il
Ġfra ilty
Ġfier i
Ġfier ce
Ġnes cit
Ġnes cio
Ġeb ook
Ġeb ullitions
Ġeff icacy
Ġeff eminate
Ġeulog ies
Ġeulog ize
Ġreign s
Ġreap ed
Ġrenew ed
Ġrecapit ulate
Ġrecapit ulation
Ġconced ing
Ġconced ed
Ġcondem ning
Ġcondem ned
Ġdull est
Ġhover s
Ġhover ing
Ġprae ter
Ġprae ferre
Ġproud ly
Ġprogram me
Ġash amed
Ġangu ish
Ġexceed ing
Ġexceed ingly
Ġexcess es
Ġexcess ive
Ġexhort ation
Ġexempl ification
Ġexempl ifies
Ġlust ful
Ġforge ts
Ġforfe it
Ġforfe its
Ġgout y
ĠId entity
ĠId entification
Ġorn ament
Ġallot ment
Ġallure ment
Ġallure ments
Ġdefe at
Ġdefe ats
Ġdepict s
Ġdepict ed
Ġunt ouched
Ġunw aver
Ġunw onted
Ġunre strained
Ġunre venged
Ġuntr ained
Ġuntr avelled
Ġunjust ifiable
Ġunguarded ly
Ġ(* )
Ġspher ical
Ġspher oid
Ġrot ten
Ġrot eron
Ġrhet oric
Ġrhet oricians
Ġva unted
Ġva cillating
Ġtranqu il
Ġtranqu ility
Ġimpregn ation
Ġimpregn able
Ġabsol ves
Ġabsol uta
Ġabund ant
Ġabund antly
Ġusurp ed
Ġusurp ation
Ġshame less
Ġstat ute
Ġstat utes
Ġquib ble
Ġquib bling
ĠAff inity
ĠAff irmative
Ġjugg ling
Ġjugg lery
Ġaccum ulation
Ġaccum ulated
Ġaccru ing
Ġaccru ed
Ġadjust ing
Ġadjust ed
Ġyaw n
Ġyaw ning
Ġdismis sing
Ġdismis sed
Ġdisappro ved
Ġdisappro val
Ġdiscontinu ing
Ġdiscontinu ed
Ġprecl ude
Ġprecl udes
Ġpreponder ate
Ġpreponder ance
Ġchamp ion
Ġchamp ions
ĠSing le
ĠSing ular
ĠSpirit uality
ĠSUB JECTIVE
ĠSUB STAN
ĠIncl ination
ĠIncl uded
Ġplun ge
Ġplun ges
ĠComp elled
ĠComp uters
ĠCOM MON
ĠCOM POSITION
Ġdespot ic
Ġdespot ism
Ġdistrust ful
deriv ation
Ġextol s
Ġextingu ished
Ġextingu ishing
ĠEs se
ĠEs sential
ĠEqu ator
ĠEqu ivocal
ĠReciproc al
ĠReciproc ity
Ġoutwe ighed
Ġoutwe ighs
ĠDE FIN
ĠDE PENDENCE
ĠDest ination
ĠDest itute
ĠDON ATIONS
Ġimpair s
Ġstray ed
Ġconcess ion
Ġconcess ions
Ġconcur rence
Ġconcur rently
Ġsumm ary
Ġsumm un
Ġadvised ly
Ġconfer red
Ġcloud ed
Ġarrog ate
Ġarrog ates
Ġoverthrow ing
Ġcoar se
Ġcoar ser
Ġcool ness
ĠSub sistence
ĠSub stantiality
Ġmischief s
Ġharsh ness
Ġblow s
Ġdeline ate
Ġdeline ated
Ġcheer ful
Ġcheer fulness
ĠKNOW LED
Ġinterrog ation
Ġinterrog ate
Ġfrustr ate
Ġfrustr ated
Ġbenef ited
Ġbenef iting
Ġglim pses
Ġglim mer
ÄłPh ys
Ġrepul se
Ġrepul sed
Ġtwist ing
Ġsympath ize
Ġsympath izing
Ġsymbol s
Ġsympat hetic
Ġsympat hetically
Ġcommunic ates
Ġcommunic ating
Ġvex ing
Ġvex ed
Ġvehic le
Ġvehic ula
ĠPerfect ion
Ġambigu ities
Ġambigu ae
Ġincit ement
Ġincit ements
Ġepisyllogism s
Ġepisyllogism os
Ġratiocinant is
Ġratiocinant es
Ġsanct ity
Ġsanct ification
Ġincapac itate
Ġincapac itates
Ġflatten ing
Ġflatten ed
ĠPHILOSO PHY
ĠPHILOSO PHICAL
Ġarch ives
ĠOU GHT
ĠEM PIR
Ġtermin ation
Ġoft ener
Ġcul pable
Ġbal anced
Ġque en
Ġordin ances
Ġxi ii
Ġale theian
Ġade pts
Ġffici ent
Ġmort ification
ĠAM PHIBOL
REM ARK
errone ously
Ġcel estial
Ġpict ure
Ġbi as
Ġhat red
Ġanch or
ambig uity
deal ing
acqu ired
Ġrespond ed
Ġovert urning
Ġmedi ates
Äłmy st
100 00
Ab solutely
App rehension
Apr il
Astr onomy
Ant icipations
BE FORE
Bod ies
Bole yn
Cr usius
Cogn ition
CON CLUSION
Do es
Des pite
Dem ocritus
Dak ota
Det ection
Del aware
DON ATIONS
DIS TRIBUTION
DES IRE
FOU RTH
GS BERG
Gign i
Hold ing
Hypothe ses
Hamps hire
IP ATIONS
Ind iana
Ill ustration
Imag ination
Judgement s
Law s
Look ing
Mich igan
Mand eville
Mod o
Mast ers
Nat ural
Nol int
Nun c
Numer us
Neg ative
New tonian
Ov id
Ox ford
Object s
Ont ologia
Pre cepts
Phenomen a
Pun ishment
Pers ius
Post ing
Pro blematical
PAR TICULAR
Prop Ã¦deutic
Plat onism
Sh ould
Sim ply
Scept icism
Sach heit
Socr atic
Te achers
Tem pus
Vari ety
Wel come
WAN T
Zen o
bu ild
bur st
burd ensome
boast ing
benevol ent
cle arest
cent red
cans on
cens ura
dr iven
dich otomy
dise ase
dismis sed
eth ical
fle eting
fol k
fide lity
fant asy
foc us
frequ ently
fool ish
fals ity
foot ed
fri endship
gard ly
gart en
gra fted
gene alogy
hur ry
hast y
htm l
harm less
ju beo
juris diction
kak ov
liber ate
laps us
lax er
laud atur
mar vellous
mil king
mel ior
mole culae
micros copical
narr ower
nob ler
narrow ness
obe y
ran ks
rav ages
rip ened
royal ties
rho pon
sal ts
sign s
sink ing
swe et
sedu ced
slight est
saf ed
soft ware
tol erably
vig orously
vest ibule
viol ates
war ning
wide ly
year s
head er
heav y
Ġaud ience
inex orable
insp ire
intern e
instit ute
inconce ivabilities
incompar ably
inhab its
instrum entality
rece iving
retr ogressively
refin ed
reward ing
rearr anges
revel ation
revere ntial
reinst allation
repet ition
remiss io
isos celes
enem ies
encro aching
athe ism
Ġpit iful
escap ed
Ġbat tle
Ġbul warks
anas ia
anarch y
Ġeur hioko
Ġemin ent
leag ued
stud y
stret ch
asym ptotic
Ġhor ses
theolog ians
theosoph ists
immeasur ably
irks ome
irreconci lable
quaest io
resol ved
respon sibilities
Ġorg ans
perman ency
permiss ive
perdur abile
conca ve
condu ce
veget able
charm ing
challen ge
chican eries
illimit ableness
Ġatom us
awaken ed
abund ant
plau sibility
deep ly
delight s
develop ment
degrad ed
minuend ae
Ġrous ed
prae ceptivae
Ġabol ish
adminis ters
supre mum
possident is
individ uo
indemonstr abilia
indescrib ably
indistingu ishables
expon ents
extravag ance
uninter ruptedly
unfit ness
uncorrupt ed
unexception ably
unyield ingly
unrecogn izable
unsa fe
unveil ing
Ġappoint ment
sovereign ty
elabor ation
elucid ate
elench i
solip sismus
premis ses
prejud ice
prelimin aries
Ġserv ant
measure ment
comform able
compart ments
composit a
serious ly
proxim ate
parallel ism
synon ymous
assured ly
consent ientia
consummat um
dissert ation
ĠMON EY
undeter red
Incorrupt ibility
Innoc ence
subdiv isio
subrept io
subreption is
relinqu ish
monogram ma
Ġestr anged
misappre hensions
REFUT ATION
despot ism
despair ing
brief ly
fert ility
Allgem einheit
noolog ists
legitim ation
confront s
inviol able
invalid ity
guarante es
Subtr act
inflex ible
glimp se
reflex io
chemist ry
interpol ation
coacerv atio
address ing
sympat hetic
Trancendent al
laboure r
philodox y
Cheseld en
necessitat em
Quodlib et
scrut iny
Montaign e
Oklah oma
Wizenman n
pharmacop oeia
indiscernibil ium
KÃ ĸNI
ĠâĢĶ >
Ġtas ks
Ġtab ular
Ġtac itly
Ġtute lary
Ġtong ues
Ġtort uous
Ġtang ible
Ġtild e
Ġturbul ent
Ġaqu am
Ġauth rhopon
Ġavers amur
Ġaiothe ta
ĠaerumnosiqueSol ones
Ġoce an
Ġtheat re
Ġtheosoph ic
Ġwind y
Ġwast ing
Ġcoll ateral
Ġcree p
Ġcover ing
Ġcru cible
Ġcrow ning
Ġcovert ly
Ġcitab ere
Ġsor ry
Ġsou lless
Ġsar castic
Ġsqu are
Ġsore ly
Ġscan ning
Ġswor n
Ġsix ty
Ġswell ing
Ġsatir ical
Ġpiv ot
Ġpil grimage
Ġpum ice
Ġpall iatives
Ġpud ori
Ġpop ulation
Ġpock et
Ġpiec es
Ġinim ical
Ġincon gruity
Ġinad vertently
Ġinca utious
Ġinop s
Ġincogn izable
Ġinext inguishable
Ġinconsist encies
Ġinconsider ateness
Ġincess antly
Ġinsuper able
Ġinert iae
Ġincul cate
Ġinappro priate
Ġinco herent
Ġinorgan ic
Ġincorrupt ible
Ġinhab ited
Ġinaccess ible
Ġinoff ensive
Ġinadequ acy
Ġbos om
Ġbun gles
Ġbast ard
Ġburn t
Ġbarr iers
Ġbungl er
Ġbiog raphies
Ġboister ous
Ġthrif ty
Ġmess age
Ġmad ness
Ġmour ns
Ġmonstr osities
Ġmarr ied
Ġmild est
Ġmalle ability
Ġmicros cope
Ġtoll ens
Ġtourn ey
Ġtouc hes
Ġfur thered
Ġfet ters
Ġfond ness
Ġfost ers
Ġfoun tain
Ġfath om
Ġfool ed
Ġfores ight
Ġfrug ality
Ġnig gardly
Ġnour ishing
Ġnug atory
Ġeuth anasia
Ġeffici ency
Ġisland ers
Ġrepr inted
Ġrenow ned
Ġresem bles
Ġreminis cence
Ġreprim anded
Ġresear ches
Ġitem s
Ġconst ans
Ġconstr aining
Ġcongr uent
Ġconquest s
Ġconger ies
Ġcongrat ulate
Ġdar ling
Ġdaw ned
Ġdab ble
Ġdig ressions
Ġdang ers
Ġdra ughts
Ġbeckon ing
Ġbefit ting
Ġhur tful
Ġprimit ively
Ġprhole psis
Ġassem bled
Ġanatom ist
Ġexpos ure
Ġlog ician
Ġlif ts
Ġlad der
Ġlun ar
Ġlik ed
Ġloft iness
Ġlaug hed
Ġsupe resset
Ġsupel lex
Ġgallow s
Ġgestic ulate
ĠImit ation
Ġproxim ity
Ġproclaim ed
ĠTod ay
ĠTex as
ĠTyp ic
ĠText s
ĠTOR RICELLI
ĠTIM E
ĠTerr asson
ĠTrade Mark
ĠTenn essee
Ġdepre ciated
Ġdepress ed
Ġdebar red
Ġdebat able
Ġintus susceptionem
Ġintol erable
Ġintemper ance
Ġbuttress es
Ġuncom pensated
Ġunreason able
Ġunass ailable
Ġunlu ckily
Ġunten able
Ġunhes itatingly
Ġungr ateful
Ġunwill ing
Ġunatt ended
Ġuncomp romising
Ġunthink ingly
Ġunsatisf actorily
Ġunadv isable
Ġunri pe
Ġunalt ered
Ġuneduc ated
Ġunsus ceptible
Ġunutter able
Ġunmist akable
Ġunbecom ing
Ġunintention al
Ġunprot ected
Ġuneas iness
Ġunwarrant able
Ġunascertain ed
Ġunskill ful
Ġunilater ally
Ġunsophistic ated
Ġlawsu its
Ġspati i
Ġcomfor ting
Ġrout e
Ġrud eness
Ġrick tig
Ġrhapsod ically
Ġundergo es
Ġundertoo k
Ġvind ication
Ġvoy age
Ġvivid ly
Ġvindic ated
Ġvouch safed
Ġvider i
Ġvarie gated
Ġtrail er
Ġtrah or
Ġtrampl ed
Ġtraduc ers
ĠBON UM
ĠBru cker
ĠBAC ON
ĠBaum garten
Ġheark ened
Ġimprud ent
Ġimmeasur able
Ġabort ive
Ġabomin able
Ġabhor rence
Ġpersp icuity
Ġperpend icular
Ġpersec ute
Ġpersever ance
Ġnoet a
Ġsyncret istic
Ġkins folk
Ġshun ned
Ġshoot s
Ġshrew dness
ĠFollow ing
ĠFRE EDOM
ĠFrequ ent
ĠFals us
ĠFlor ida
ĠFranc is
ĠFonten elle
Ġstag gered
Ġstup idity
Ġstret ches
Ġrelie ving
Ġrelinqu ishing
Ġrelativ a
Ġevok ed
Ġconscient iousness
Ġconserv ative
ĠAlex ander
ĠAXIOM S
ĠApodeict ical
Ġjoc ose
Ġjeal ous
Ġjew el
Ġaccoun ted
Ġmanual s
Ġmanufact ures
Ġadmis sibility
Ġadminis tering
ĠPha edo
ĠPoint s
ĠPne umatism
ĠPlat onic
ĠPOP ULAR
ĠPursu ing
ĠPennsylvan ia
Ġdissol ves
Ġdisarr anging
Ġdissim ulation
Ġdisclos es
Ġdiseng age
Ġdishon est
Ġdisproportion ate
Ġdisqui et
Ġdisinher it
Ġpredile ction
Ġpredecess ors
Ġprecipit ated
ĠThousand s
Ġarbit er
Ġarmist ice
Ġchican es
ĠSens ations
ĠSpect ators
ĠSoph isma
ĠSIM PLE
ĠSocr ates
Ġphthis is
ĠNev ada
ĠOreg on
ĠObvious ly
Ġsubserv ient
ĠIncert aeque
ĠInvestig ation
Ġplast er
ĠGAL ILEI
ĠGeorg ia
ĠWOL F
ĠWoh l
ĠWyom ing
ĠWalhall a
ĠWashing ton
Ġgrav itation
ĠCoun sels
ĠClear ness
ĠCap e
ĠCAT EGORIES
ĠColumb ia
ĠCOPERNIC US
Ġobtus eness
Ġdespond ing
Ġdesider atum
Ġindefat igably
ĠHob bes
ĠHOP E
ĠHecub a
Ġextrem es
Ġextremit ies
Ġenlight enment
Ġenclos ing
Ġencoun ters
Ġencod ing
Ġenric hed
ĠEduc ation
ĠEgy ptians
ĠEurope an
ĠRATION AL
ĠRidic ule
Ġterrestr ial
Ġoutbre ak
Ġamaz ement
Ġrealissim a
Ġenthus iasm
ĠDev oid
ĠDynam ical
ĠDemonstr ations
ĠDiog enes
Ġimpug ned
Ġcorrel ative
Ġcorrobor ating
Ġinvinc ible
Ġheredit ary
Ġheretof ore
Ġinflu encing
Ġinflict s
Ġinflam mable
ĠMont ana
ĠMair an
ĠMED IUM
ĠMOD ALITY
ĠMAD E
ĠMoh ammed
ĠMetamorph oses
ĠMassachuse tts
ĠReven ue
ĠRequire ment
Ġstrik ingly
Ġstratag em
Ġapolog ize
Ġconcaten ation
ĠLeg al
ĠLaert ius
ĠLamber t
ĠUta h
ĠUndoubted ly
Ġmetamorph osed
Ġphysiogn omists
Ġaffirmat ives
ĠConsid ered
Ġindustr ious
Ġindulg ent
Ġelangu escence
Ġantip athy
Ġantagon ism
Ġscru ple
Ġscrup ulousness
ĠTHOU GHT
Ġovergr own
Ġoverbal ance
Ġoverfl ow
Ġcoars est
Ġposthum ous
Ġmisfortun es
Ġmiscarr iage
ĠAssoci ation
Ġsuperfici ality
Ġsuperann uated
Ġundemonstr ated
Ġbrigh ter
Ġintrospect ions
ĠAnnihil ate
ĠAnax agoras
ĠUnquestion ably
Ġinsati able
Ġinsurmount able
Ġcomprehens ive
Ġsurmoun ted
Ġsurveill ance
ĠArithmet ical
Ġpsycholog ist
ĠVau canson
ĠVermon t
ĠVolta ire
Ġgeograp hers
ĠKentuck y
ĠREFL ECTION
Ġdispassion ate
Ġpropaed eutic
Ġirref utable
Ġfratern al
Ġfrivol ity
Ġdomestic ae
Ġartifici ally
ĠANTIC IPATIONS
Ġindissolu bly
Ġadmixt ures
ĠORIGIN ATION
Ġ750 175
Ġverbi age
Ġguardians hip
Ġcalumni ators
Ġextramund anum
Ġderivativ us
Ġprotuber ance
ĠINTU ITION
Ġcurvil inear
Ġcounterbal ancing
Ġhydro chloric
Ġanthropomorphist s
ĠMeiklej ohn
ĠPhysiocr acy
ĠSTAH L
ĠEXPER IENCE
Ġirrevoc ably
ĠNewslet ters
Ġlaboure rs
Ġlabyrin th
Ġanimadvers ions
ĠIllino is
Ġsubterrane an
Ġswift ness
Ġmarionet te
ĠIDEAL ISM
ĠIMMOR TALITY
Ġshipwre ck
ĠUNDERSTAND ING
Ġmelanch oly
ĠOTHERWIS E
Ġmillenni um
ĠPOSTUL ATES
Ġpolysyllogistic a
Ġunwaver ing
ĠSUBSTAN CE
ĠDEFIN ITION
ĠKNOWLED GE
ĠEMPIR ICAL
ĠAMPHIBOL Y
KÃĸNI GSBERG
2 00
o ks
Ã ¢Ä
Ġ :
Ġ ;
Ġ iori
Ġ eneral
Ġ irst
Ġ uth
Ġ ike
Ġ ivid
Ġ iverse
Ġ llogism
Ġ ivity
Ġ icip
Ġ icense
Ġ eduction
Ġ hensible
Ġ veyed
Ġ ÄłÄłÄłÄłÄłÄłÄłÄłÄłÄłÄłÄłÄłÄłÄłÄł
Ġ jected
Ġ ibus
Ġ izable
Ġt t
Ġt aining
Ġa ther
Ġa use
Ġa ment
Ġa cious
Ġo ol
Ġo du
Ġo ured
Ġo cr
Ġo oks
Ġc y
Ġc ies
Ġc cess
Ġp ic
Ġp pos
Ġp able
Ġp eci
Ġp poses
Ġin ct
Ġin ity
Ġb id
Ġm um
Ġm all
Ġf ers
Ġf ici
Ġf icial
Ġn ce
Ġe ad
Ġe rest
Ġis ions
Ġit ation
Ġit um
Ġit ions
Ġit ates
Ġpr i
Ġu it
Ġu le
Ġu ition
Ġu ity
Ġu ght
Ġu man
Ġu bl
Ġan ged
Ġon str
ĠI L
Ġor iz
Äł ing
Äł ess
Äł il
Äł ide
Äł stand
Äł our
Äł imit
Äł ign
Äł ast
Äł are
Äł der
Äł ang
Äł ful
Äł necess
Äł phenomen
Äł stru
Äł subject
Äł dom
Äł connect
Äł some
Äł respect
Äł quant
Äł perfect
Äł ground
Äł think
Äł presu
Äł non
Äł effect
Äł hand
Äł attain
Äł legisl
Äł anthrop
Äł occup
Äł compar
Äł intu
Äł Qu
Äł anticip
Äł cap
Äł ideal
Äł discus
Äł estim
Äł desc
Äł grat
Äł manifest
Äł transgress
Äł contrib
Äł belie
Äł deriv
ĠT I
ĠT IC
Ġde qu
Ġal og
Ġat ter
Ġat ives
Ġr op
Ġem onstr
Ġtr odu
Ġim al
Ġim ental
Ġsy ch
Ġj un
Ġman ence
Ġad ing
Ġle ase
Ġar n
ĠS E
ĠC L
ĠC T
Ġpos ing
ÃĦÅĤ tr
ÃĦÅĤ acc
ÃĦÅĤ ob
ÃĦÅĤ sh
Ġen ing
ĠE NT
ĠR O
ĠR AN
Ġi i
Ġi k
Ġi ar
Ġi ans
Ġi ally
Ġi ating
Ġer able
ÄłÄł Äł
Ġel s
Ġant ly
Ġut ive
Ġut able
Ġop e
Ġav our
Äłin j
Äłc our
Äłc ogit
Äłc ultiv
Äłre du
Äłre comm
Äłre main
Äłs k
Äłs w
Äłs ent
Äłs il
Äłs how
Äłf re
Äłf al
Äłf an
Äłf ound
Äłf ollow
Ġul ties
Äłp at
Äłp sych
Äłd ict
Äłd own
ĠJ EC
Äłm ot
Äłm ar
Äłm ult
Äłun f
Ġsequ ently
Äłb u
Äłb re
Äłb ound
Ġur d
Ġur ity
Äła str
Äła ffect
Äłt w
Äłt est
Äłt reat
Ġic o
Ġate gor
Äłh on
Äłh ar
Äłh ard
Äłh ind
Äłh op
Äłh ypothe
Äłex pect
Äłex hib
ÄłP RO
Äło pp
Ġver s
Äłv iol
Äłpr os
Äłw ond
Äłw rit
Ġil is
ÄłD IS
Äłen lar
ÄłM e
Äłn umer
ÄłE m
Äłst art
Ġog it
Ġog ic
Äład d
Äłsub sum
Äłar chety
ÄłN ew
Äłat tr
Äłsp e
Äłal tern
Ġain ing
Ġos sib
Äłpro b
Ġced e
Ġci ated
Äłob st
Äłob sc
Äłdec l
Ġcrib es
Ġcrib ing
Äłam big
Ġtern ally
Äłinv estig
Ġust om
Äłappro xim
19 9
Ġlect ed
Äłaff irm
Ġoy al
Ġix ed
Ġolog ia
Äłcal cul
Ġsel ves
Ġoll ow
Äłmag n
Äłhy per
Äłhyp ostat
Ã¢Ä ¢
Ã Ĥ
Ġ ]
Ġ ÃĦ
Ġ ÃĦÅĤ
Ġ edom
Ġ igin
Ġ utenberg
Ġ iew
Ġ ).
Ġ irc
Ġ iber
Ġ ÃĦÅĤÃĦÅĤ
Ġ uthoriz
Ġ velop
Ġ ialectic
Ġ igion
Ġ ÃĦÅĤÃĦÅĤÃĦÅĤÃĦÅĤ
Ġ ieve
Ġ icious
Ġ ictions
Ġt on
Ġa res
Ġa ult
Ġa ving
Ġa enomen
Ġa iled
Ġo ot
Ġo res
Ġo um
Ġo use
Ġo phy
Ġo gress
Ġthe less
Ġw o
Ġw are
Ġc id
Ġc ience
Ġs ess
Ġp endent
Ġp irit
Ġin ion
Ġin al
Ġin ing
Ġin ci
Ġin ary
Ġb ers
Ġf t
Ġf ter
Ġf ered
Ġn i
Ġn the
Ġn ex
Ġe e
Ġe ci
Ġe termin
Ġe lf
Ġe cond
Ġis sim
Ġre pt
Ġre ction
Ġre nt
Ġit le
Ġas on
Ġas much
Ġu ality
Ġu ra
Ġu les
Ġan k
Ġan ation
Ġan cy
Ġon y
Ġl f
Ġl ict
Ġwe en
Ġg in
Ġg ing
Ġg um
Ġwith standing
ĠI TION
ĠI ES
Ġor ic
Ġor ies
Ġor ily
Ġor row
Ġor tion
Äł ct
Äł os
Äł ci
Äł ist
Äł ans
Äł min
Äł ge
Äł possib
Äł condition
Äł ell
Äł ke
Äł oun
Äł can
Äł lu
Äł lear
Äł crib
Äł synthe
Äł will
Äł oc
Äł giv
Äł every
Äł right
Äł moral
Äł philos
Äł categor
Äł rational
Äł bel
Äł appear
Äł univers
Äł consider
Äł distingu
Äł worth
Äł tot
Äł great
Äł discover
Äł truth
Äł natural
Äł conting
Äł ST
Äł regress
Äł fortun
Äł observ
Äł establ
Äł preced
Äł IM
Äł attrib
Äł imper
Äł anteced
Äł person
Äł abstract
Äł gain
Äł command
Äł set
Äł clos
Äł method
Äł agree
Äł material
Äł sophist
Äł aggreg
Äł let
Äł destr
Äł mean
Äł contempl
Äł seem
Äł geometr
Äł specif
Äł allow
Äł ignor
Äł occasion
Äł princip
Äł care
Äł sensib
ĠT Y
ĠT ER
Ġare r
Ġare st
Ġare nt
Ġat i
Ġat us
Ġat ever
Ġat eness
ab it
Ġr og
Ġem per
Ġem ark
Ġv ious
Ġhe nd
Ġhe res
Ġhe ther
Ġhe ma
Ġim ents
Ġab l
Ġab les
Ġab leness
Ġper ience
Ġk en
Ġk ing
Ġus ive
Ġif ice
Ġif ices
Ġse ly
Ġad ed
Ġy m
Ġy ond
Ġle ctr
Ġpre me
Ġar act
Ġar ies
Ġar ium
ĠS I
ĠO G
Ġser t
Ġpl ic
Ġpl oy
ĠC I
ÃĦÅĤ G
ÃĦÅĤ I
ÃĦÅĤ O
ÃĦÅĤ R
ÃĦÅĤ al
ÃĦÅĤ th
ÃĦÅĤ ind
ÃĦÅĤ for
ÃĦÅĤ sp
ÃĦÅĤ com
ÃĦÅĤ In
ÃĦÅĤ imp
ÃĦÅĤ dec
Ġact ical
Ġen se
Ġen cies
ĠR A
ty p
Ġam p
Ġent al
Ġent ially
Ġest y
Ġest ig
Ġhere nce
Ġres sion
Ġres sed
ĠU M
Ġill ion
Ġill ed
Ġi qu
Ġi king
Ġi xt
Ġer ity
Ġac ity
Ġac ks
Ġes ides
Ġless ness
ĠTH ER
Ġut y
Ġut onomy
Ġsol ute
Ġher ing
Äłin fin
Äłin stit
Äłin cre
Äłin cap
Ġet ent
Ġet aphys
Äłc at
Äłc ent
Äłc osm
Äłc red
Äłc arr
Äłre ject
Äłre pe
Äłre conci
Äłre quire
Äłre mark
Äłs l
Äłs ing
Äłs an
Äłs ci
Äłs ust
Äłs us
Äłs ens
Äłs ign
Äłs ignif
Äłs pont
Äłs ignific
Äłf l
Äłf it
Äłf at
Äłf act
Äłf lu
Äłf avour
Äłf urn
Äłf ail
Äłf ruit
Ġul a
Ġul g
Ġul ative
Ġul sion
Äłp ay
Äłp ain
Äłp ath
Äłp enetr
Äłd on
Äłd est
Äłd ivers
Äłd irect
Äłd oubt
Äłm et
Äłm el
Äłm etaphys
Äłm echan
ĠÃ Ĥ
Ġir med
Äłl ic
Äłb as
Äłb et
Ġur al
Äła ut
Äła uthoriz
Äła ugment
Äłt a
Äłt al
Äłt ol
Ġic es
Ġic ate
Ġic ated
Äłde g
Äłde ce
Ġang er
Ġang es
Äłh old
Äłh abit
Äłcon j
Äłcon fin
Äłcon cern
ÄłA l
ÄłA s
ÄłA pp
Äłex ec
ÄłP H
ÄłP ers
Äło be
Ġum b
Ġver se
Äłv it
Äłv is
Äłv an
Äłv ent
Äłpr a
Äłpr iv
Äłpr ofess
Äłdis claim
Ġmin is
ÄłS e
ÄłS p
ÄłS t
ÄłS y
Äłw a
Äłw id
Äłw ant
Ġord ing
Ġled ge
ĠIN G
Ġil ed
ÄłD is
Äłen joy
Äłen umer
Äłen cour
ÄłM on
ÄłM is
ÄłM or
Äłn um
Äłn ull
Äłan nihil
Äłan alog
ÄłE pic
Äłst ud
Äłst ead
Äłst reng
Äład du
Äłpre jud
Ġist ance
Äłim part
Äłim prov
Äłper i
Äłper su
Äłper form
Äłsub stit
ÄłI ll
Äłsp o
Äłal leg
Ġou ble
Ġou bted
Äłbe h
Äłsh ar
Äłas c
Äłimp ed
Ġect ed
Äłcom pl
Äłcom pens
Ġud gement
Ġci ation
Ġoun ces
Ġoun ced
Ġoun cing
Äłconf ess
Ġort ions
Äłwe ak
Ġfere nt
Ġec ulative
Äłres ol
Ġore tical
Äłpres um
Äłunder min
Äłgu arante
ĠÄłÄł Äł
Äłcrit ic
Ġck on
Ġpens able
Ġane ously
Äłsim pl
ĠAR T
Äłprom ot
Äłpost ul
Ġpir ical
Ġcious ness
ĠEN CE
ĠATION S
Ġosm ological
Ġoph ical
Ġpend ence
Äłsch ol
Äłpun ct
Äłjust if
Äłmain tain
Ġogene ous
Ġanscendent al
Ġunte ers
Ġferen ces
Ġoum en
Ä ¥
Ä ¨
Ġ ?
Ġ llig
Ġ ird
Ġ ilar
Ġ ividual
Ġ idance
Ġ nderstanding
Ġ iberty
Ġ ndered
Ġ ivalent
Ġ vey
Ġ ilst
Ġ ialectical
Ġ ivable
Ġ irtue
Ġ ichael
Ġ igination
Ġ ndeed
Ġ iece
Ġ ibilis
Ġ iversal
Ġ ilege
Ġ irdly
Ġ ÃĦÅĤÃĦÅĤÃĦÅĤÃĦÅĤÃĦÅĤÃĦÅĤÃĦÅĤÃĦÅĤ
Ġ xioms
Ġ veloped
Ġ hensibility
Ġ iberum
Ġ hensions
Ġ icipations
Ġ ÃĦÅĤÃĦÅĤÃĦÅĤÃĦÅĤÃĦÅĤÃĦÅĤÃĦÅĤÃĦÅĤÃĦÅĤÃĦÅĤÃĦÅĤÃĦÅĤÃĦÅĤÃĦÅĤÃĦÅĤÃĦÅĤ
Ġt un
Ġt imate
Ġt eness
Ġa gement
Ġa phys
Ġo in
Ġo the
Ġo ul
Ġo ud
Ġo ment
Ġo uch
Ġo ast
Ġo ted
Ġo mor
Ġo gr
Ġo men
Ġo ined
Ġo ses
Ġo tt
Ġo vered
Ġof ess
Ġc ell
Ġc ks
Ġc ceed
Ġc ern
Ġc hes
Ġc ient
Ġs cribe
Ġs let
Ġs thetic
Ġp ter
Ġp ute
Ġp ort
Ġp ses
Ġp oreal
Ġin o
Ġin ction
Ġin ations
Ġin ally
Ġin ently
Ġin ions
Ġin omy
Ġb ed
Ġb ly
Ġb ol
Ġb ig
Ġb les
Ġth od
Ġth ics
Ġf old
Ġn ect
Ġe g
Ġe w
Ġe ing
Ġe ous
Ġe ties
Ġis able
Ġis ibility
Ġre am
Ġre me
Ġre edom
Ġit ect
Ġit us
Ġit iz
Ġit ted
Ġit atis
Ġand on
Ġand er
Ġcon ci
Ġd ic
Ġd ated
Ġd uct
Ġbe red
Ġh il
Ġh ood
Ġas ions
Ġu b
Ġu c
Ġu ent
Ġu ation
Ġu ating
Ġu ously
Ġan qu
Ġon om
Ġon um
Ġl able
Ġl ated
Ġl imin
Ġsu ous
Ġsu asion
Ġg g
Ġg an
Ġg ress
Ġg gest
Ġor ough
Ġor ph
Ġor ial
Ġor ts
Äł z
Äł ll
Äł cept
Äł ate
Äł ore
Äł ound
Äł pir
Äł ud
Äł now
Äł sequ
Äł pon
Äł fere
Äł tern
Äł spect
Äł ish
Äł other
Äł princi
Äł trib
Äł certain
Äł hes
Äł any
Äł up
Äł regard
Äł ont
Äł strict
Äł consid
Äł call
Äł proc
Äł subst
Äł AR
Äł ask
Äł proper
Äł system
Äł contain
Äł Every
Äł interest
Äł belong
Äł kind
Äł content
Äł correspond
Äł subsist
Äł proceed
Äł maxim
Äł accord
Äł attempt
Äł On
Äł diffic
Äł proble
Äł EM
Äł IR
Äł import
Äł lead
Äł similar
Äł answ
Äł see
Äł arbitr
Äł result
Äł obtain
Äł grad
Äł demand
Äł esteem
Äł apodeict
Äł educ
Äł utter
Äł accident
Äł argument
Äł discern
Äł class
Äł comprehend
Äł explain
Äł assign
Äł support
Äł process
Äł appe
Äł confirm
Äł occur
Äł extend
Äł artic
Äł distinct
Äł Concl
Äł architect
Äł omni
Äł erect
Äł redistrib
Äł imagin
Äł strugg
Äł apprehend
Äł typ
Ġall en
ĠT RIB
Ġal f
Ġal ed
Ġal ent
Ġal th
Ġal ogism
Ġha ust
Ġat ir
ol ong
Ġour se
Ġr s
Ġr or
Ġr ist
Ġr own
Ġem ents
Ġv ation
Ġv ity
Ġv ered
ĠB L
ĠB ook
Ġhe t
Ġhe it
Ġim er
Ġim es
Ġab or
Ġab ilis
Ġus h
Ġus ory
Ġif e
Ġif ic
Ġif ferent
Ġif orm
Ġst ant
ĠA C
ĠA CE
ĠA BILITY
Ġad em
Ġad emark
Ġy right
Ġy llogism
ĠP L
ĠP END
Ġle v
Ġle ctive
Ġar um
Ġar ge
Ġar mon
Ġar ante
ĠS C
Ġph ist
ĠN I
ĠN AL
ĠN ITY
ĠO D
ĠO L
ĠO S
Ġser ted
Ġend i
Ġend er
ĠG HT
Ġpos ite
ÃĦÅĤ H
ÃĦÅĤ g
ÃĦÅĤ he
ÃĦÅĤ se
ÃĦÅĤ ar
ÃĦÅĤ qu
ÃĦÅĤ ec
ÃĦÅĤ ab
ÃĦÅĤ ant
ÃĦÅĤ el
ÃĦÅĤ pro
ÃĦÅĤ inv
ÃĦÅĤ che
ÃĦÅĤ prop
Ġen cing
Ġen evol
Ġag on
Ġag ing
Ġag ed
ĠE MENT
ĠR IN
ha p
Ġam es
Ġam ing
Ġam ples
Ġmat ic
Ġest ic
Ġest ed
Ġstr um
Ġstr aint
Ġstr ained
Ġap s
ĠU D
ĠU L
Ġi pp
Ġi ance
Ġi ology
Ġi ences
Ġi ae
Ġer it
Ġer se
Ġer ci
Ġer ial
Ġer ably
Ġple x
Ġac ing
Ġac le
Ġarr ow
Ġes is
Ġfin itum
Ġing dom
Ġsol u
Ġop ular
Ġmis sible
Ġav ity
Ġav ag
Ġav oured
Ġund ity
Ġund amental
Äłin n
Äłin ex
Äłin determin
Äłin sist
Äłin fer
Äłin struct
Ġet ween
Äłc ens
Äłc lear
Äłc oinc
Äłre ce
Äłre ver
Äłre ve
Äłre pro
Äłre fer
Äłre ciproc
Äłre view
Äłre mo
Äłre luct
Äłs al
Äłs cept
Äłs pr
Äłs edu
Äłs piritual
Äłs hap
Äłf ut
Äłf ur
Äłf il
Äłf ill
Äłf am
Äłf ac
Äłf lat
Äłf als
Äłf oot
Äłf ri
Ġbl ing
Ġul ated
Ġul ates
Ġra de
Ġra ph
ĠV E
Äłp e
Äłp ot
Äłp ut
Äłp ol
Äłp ress
Äłp oint
Äłp eculiar
Äłp ubl
Äłp oly
Ġens es
Äłd at
Äłd am
Äłd raw
Äłd ynam
Äłd imin
Äłm o
Äłm al
Äłm ut
Äłm id
Äłm em
Äłm il
Äłm ast
Äłm ach
Äłm und
Äłm oment
Äłun b
Äłun w
Ġcre t
Ġir ing
Äłl at
Äłl os
Äłl ur
Äłl ight
Äłl oc
Ġom p
Äłb ar
Äłb od
Äłb old
Äłb orrow
Äłb oast
Ġur ther
Ġur ality
Äła ir
Äła ccess
Äła uthor
Äłt re
Äłt end
Äłt urn
Äłt echn
Ġic a
Ġic ial
Ġic ability
Äłde tr
Äłde pend
Äłde part
Äłde fici
Ġang ing
Äłh ast
Äłcon ject
Äłcon cept
Äłcon duct
Äłcon ven
ÄłA M
ÄłA nt
ÄłA NAL
Äłex agger
Äłex erc
Äłe as
Äłe lement
Ġum ber
Ġver ted
Ġol ly
Ġol iness
Äłr ig
Äłr ad
Äłr idic
Äłv ac
Äłv ict
Äłv ag
Äłv iew
Äłv irt
Äłpr im
Äłpr ud
Äłpr olong
Ġren g
Ġren ce
Äłdis par
Ġstru ction
Ġid er
ÄłS c
ÄłS h
ÄłS UB
Äłw is
Äłw ar
ÄłC ogn
ÄłC ategor
Ġil ia
ÄłD E
ÄłD etermin
Ġies t
ÄłM at
ÄłM etaphys
Äłan al
Ġast ic
Äłst e
Ġog ism
Ġog icians
Äład mit
Äład opt
Äład vers
Äłpre p
Äłpre par
Äłpre mis
Äłpre fer
Äłsu cceed
Äłsu ffer
Äłim pl
Äłg overn
Äłper plex
Ġclos ed
Äłsub l
Äłsub ter
Äłsub div
Äłch o
Äłch ar
Äłch ang
Äłch imer
Äłch allen
Ġiv er
Ġiv ae
Ġiv ocal
Äłar gu
Ġru it
Ġru pted
ÄłI D
ÄłI de
ÄłO r
ÄłO bject
ÄłN O
ÄłN e
ÄłN ot
Äłsp ecul
Ġct ory
Äłth orough
Ġou b
Ġou bt
Äłhe ter
Äłhe av
Ġos s
ÄłÄłÄłÄłÄłÄłÄłÄłÄłÄłÄłÄłÄłÄłÄłÄł ÄłÄłÄłÄł
Äłsh ort
Äłsh arp
Ġell ing
ÄłW is
Ġound s
Ġound ation
ÄłG er
Ġlu ence
Äłse tt
Äłcom pr
Ġip se
Ġci proc
Ġci pline
Ġx ious
Äłem barrass
Äłfor bid
Äłacc ompl
Äłpl ain
ĠHA T
Äłent ertain
Äłqu ick
Äłstr ong
Äłdec om
Äłdec lar
Äłind ivid
Ġult iv
Ġpt ions
ÄłIn t
Ġoc ation
Ġsem ble
Äłres pon
Äłel imin
Äłel abor
Äłel ucid
Ġore tic
Ġpon ent
Äłinv ent
Ġress ions
Äłappro pri
ĠAL ITY
Äłinf ring
Äłref lect
ĠÄ ¢
ĠÄ ī
Äłapp et
Äłunder t
Äłev id
Äłag re
Äłmod er
Äłprop ens
Äłprop ortion
Äłsol ic
ÄłEx t
Ġfect s
Äłme asure
ÄłÃĥ Ä¨
ĠÂ ¦
Ġpens ably
Ġane ity
ĠAR K
ĠAR RAN
Ġangu age
Äłop en
Äłsy non
Ġrit ique
Ġpir ic
Ġpir icism
Ġith met
Ġither to
Äłconce al
ÄłPro ble
Äładm ir
Ġode ict
ĠIC AL
Ġatis f
ĠCE P
Äłsum mon
Ġurs ive
Äłconv in
Ġounce ment
Äī Äī
Ġmort ality
Ġaly tic
Ġug ment
Ġgh t
Äłdif feren
Äłval u
Ġcise ly
Ġsib ilities
Ġech an
Ġiter ary
Äłher o
Äłabs or
Ġyn am
ÄłCh rist
Ġogene ity
Ġctr ine
Ġpond er
Ġecul iar
Ġri ption
Äłinqu ir
Äłsac r
Äłfig ur
Ġpeci al
Ġuit ous
Ġubl ic
Äłdiscus s
Ġjun ctive
ĠENT AL
ĠJEC TIVE
Äłmult i
Äłarchety p
Äłobst in
Ġissim um
Ġlectr onic
Ġaract er
Ġplic ity
Ġixt ure
Äłspont ane
Ġogr am
9 9
K Ãĥ
O K
¸ NI
Â ´
Ä «
Ġ ÅĤ
Ġ ialect
Ġ ignif
Ġ irt
Ġ xiom
Ġ ibnitz
Ġ ÄłÄłÄłÄłÄłÄłÄłÄł
Ġ ili
Ġ iboly
Ġ ignific
Ġ hentic
Ġ ilarly
Ġ ievous
Ġt es
Ġt ent
Ġt ered
Ġt ellig
Ġt lest
Ġa h
Ġa ight
Ġa ved
Ġa ments
Ġa ired
Ġa seless
Ġa pons
Ġa mental
Ġo e
Ġo h
Ġo k
Ġo ure
Ġo ple
Ġo min
Ġo very
Ġo ad
Ġo ose
Ġo mat
Ġo ke
Ġo lf
Ġo ice
Ġo ved
Ġo tle
Ġo des
Ġo ments
Ġo val
Ġo real
Ġo tion
Ġo vere
Ġo sing
Ġo theology
Ġo cks
Ġo inc
Ġo soph
Ġthe tic
Ġof old
Ġw art
Ġc s
Ġc ence
Ġc il
Ġc ible
Ġc iate
Ġc ision
Ġc iences
Ġc ulation
Ġc overably
Ġs in
Ġs ation
Ġs id
Ġs tain
Ġs ies
Ġs ciousness
Ġs akes
Ġs cribed
Ġp ire
Ġp one
Ġp ite
Ġp el
Ġp ty
Ġp ted
Ġp perception
Ġp ont
Ġp ared
Ġp posite
Ġp dated
Ġin y
Ġin om
Ġin ning
Ġb t
Ġb st
Ġb ation
Ġb our
Ġb ted
Ġb its
Ġb itious
Ġb arrass
Ġb servation
Ġth rop
Ġm ong
Ġm ise
Ġm unity
Ġf ace
Ġf its
Ġf fer
Ġf lection
Ġf fort
Ġn it
Ġn itude
Ġn gl
Ġe al
Ġe es
Ġe em
Ġe tic
Ġe avour
Ġe llig
Ġe ciproc
Ġe ibnitz
Ġe avoured
Ġe ctions
Ġe ometry
Ġe culation
Ġis c
Ġis k
Ġis l
Ġis y
Ġis en
Ġis ter
Ġis tr
Ġis trib
Ġis mis
Ġis yllogism
Ġis seurs
Ġre w
Ġre es
Ġre ement
Ġre ating
Ġre hension
Ġre ption
Ġre ator
Ġit im
Ġit ative
Ġit ute
Ġit led
Ġit ial
Ġit ating
Ġit tle
Ġit imate
Ġit les
Ġit hetic
Ġit udes
Ġit eness
Ġand i
Ġand o
Ġand ed
Ġand om
Ġd le
Ġbe ll
Ġh o
Ġh ic
Ġh ort
Ġh io
Ġh ip
Ġpr ight
Ġpr iate
Ġas m
Ġas is
Ġas ur
Ġas us
Ġas ant
Ġas ibility
Ġu ct
Ġu ly
Ġu um
Ġu ary
Ġu ge
Ġu ated
Ġu el
Ġu gg
Ġu cid
Ġan ations
Ġan gement
Ġan ced
Ġan cing
Ġan while
Ġan illa
Ġon ations
Ġon ically
Ġl ain
Ġl ig
Ġl ied
Ġl ude
Ġl eness
Ġl uct
Ġsu s
Ġsu al
Ġg y
Ġg or
Ġg est
Ġg ue
Ġg reg
ĠI ON
ĠI CT
Ġor i
Ġor m
Ġor ment
Ġor ted
Ġor ne
Ġor tun
Ġor ned
Äł ect
Äł pt
Äł ith
Äł sel
Äł rom
Äł ther
Äł ous
Äł use
Äł ak
Äł ome
Äł ult
Äł ener
Äł oy
Äł ced
Äł ort
Äł rit
Äł old
Äł ÃĦ
Äł ach
Äł aly
Äł lect
Äł ten
Äł but
Äł red
Äł EN
Äł TI
Äł them
Äł HA
Äł aim
Äł ane
Äł bit
Äł rect
Äł men
Äł For
Äł lar
Äł own
Äł yn
Äł ogene
Äł sensuous
Äł peci
Äł world
Äł quest
Äł oriz
Äł nihil
Äł ip
Äł apt
Äł urs
Äł change
Äł question
Äł avoid
Äł should
Äł enetr
Äł ante
Äł abstr
Äł ash
Äł OR
Äł soci
Äł hig
Äł when
Äł struct
Äł claim
Äł manif
Äł angu
Äł particular
Äł mind
Äł feel
Äł jun
Äł you
Äł proof
Äł argum
Äł intel
Äł addition
Äł intellectual
Äł common
Äł begin
Äł suffici
Äł transcendent
Äł who
Äł With
Äł QU
Äł sole
Äł err
Äł contem
Äł search
Äł evol
Äł sem
Äł Be
Äł LI
Äł arm
Äł embr
Äł accomp
Äł destroy
Äł meaning
Äł Gr
Äł accur
Äł THE
Äł accompan
Äł endeavour
Äł becom
Äł advance
Äł absurd
Äł answer
Äł maj
Äł contest
Äł duc
Äł Princi
Äł anthropomorph
Äł your
Äł keep
Äł particip
Äł avail
Äł intention
Äł doctr
Äł IND
Äł happen
Äł cast
Äł sensual
Äł attack
Äł inevit
Äł seek
Äł tell
Äł fulfil
Äł apper
Äł contempor
Äł esca
Äł blind
Äł omnipot
Äł indubit
Äł rap
Äł errone
Äł thank
Äł UNDER
[...]
