{"<s>":0,"<pad>":1,"</s>":2,"<unk>":3,"<mask>":4,"!":5,"\"":6,"#":7,"$":8,"%":9,"&":10,"'":11,"(":12,")":13,"*":14,"+":15,",":16,"-":17,".":18,"/":19,"0":20,"1":21,"2":22,"3":23,"4":24,"5":25,"6":26,"7":27,"8":28,"9":29,":":30,";":31,"<":32,"=":33,">":34,"?":35,"@":36,"A":37,"B":38,"C":39,"D":40,"E":41,"F":42,"G":43,"H":44,"I":45,"J":46,"K":47,"L":48,"M":49,"N":50,"O":51,"P":52,"Q":53,"R":54,"S":55,"T":56,"U":57,"V":58,"W":59,"X":60,"Y":61,"Z":62,"[":63,"\\":64,"]":65,"^":66,"_":67,"`":68,"a":69,"b":70,"c":71,"d":72,"e":73,"f":74,"g":75,"h":76,"i":77,"j":78,"k":79,"l":80,"m":81,"n":82,"o":83,"p":84,"q":85,"r":86,"s":87,"t":88,"u":89,"v":90,"w":91,"x":92,"y":93,"z":94,"{":95,"|":96,"}":97,"~":98,"¡":99,"¢":100,"£":101,"¤":102,"¥":103,"¦":104,"§":105,"¨":106,"©":107,"ª":108,"«":109,"¬":110,"®":111,"¯":112,"°":113,"±":114,"²":115,"³":116,"´":117,"µ":118,"¶":119,"·":120,"¸":121,"¹":122,"º":123,"»":124,"¼":125,"½":126,"¾":127,"¿":128,"À":129,"Á":130,"Â":131,"Ã":132,"Ä":133,"Å":134,"Æ":135,"Ç":136,"È":137,"É":138,"Ê":139,"Ë":140,"Ì":141,"Í":142,"Î":143,"Ï":144,"Ð":145,"Ñ":146,"Ò":147,"Ó":148,"Ô":149,"Õ":150,"Ö":151,"×":152,"Ø":153,"Ù":154,"Ú":155,"Û":156,"Ü":157,"Ý":158,"Þ":159,"ß":160,"à":161,"á":162,"â":163,"ã":164,"ä":165,"å":166,"æ":167,"ç":168,"è":169,"é":170,"ê":171,"ë":172,"ì":173,"í":174,"î":175,"ï":176,"ð":177,"ñ":178,"ò":179,"ó":180,"ô":181,"õ":182,"ö":183,"÷":184,"ø":185,"ù":186,"ú":187,"û":188,"ü":189,"ý":190,"þ":191,"ÿ":192,"Ā":193,"ā":194,"Ă":195,"ă":196,"Ą":197,"ą":198,"Ć":199,"ć":200,"Ĉ":201,"ĉ":202,"Ċ":203,"ċ":204,"Č":205,"č":206,"Ď":207,"ď":208,"Đ":209,"đ":210,"Ē":211,"ē":212,"Ĕ":213,"ĕ":214,"Ė":215,"ė":216,"Ę":217,"ę":218,"Ě":219,"ě":220,"Ĝ":221,"ĝ":222,"Ğ":223,"ğ":224,"Ġ":225,"ġ":226,"Ģ":227,"ģ":228,"Ĥ":229,"ĥ":230,"Ħ":231,"ħ":232,"Ĩ":233,"ĩ":234,"Ī":235,"ī":236,"Ĭ":237,"ĭ":238,"Į":239,"į":240,"İ":241,"ı":242,"Ĳ":243,"ĳ":244,"Ĵ":245,"ĵ":246,"Ķ":247,"ķ":248,"ĸ":249,"Ĺ":250,"ĺ":251,"Ļ":252,"ļ":253,"Ľ":254,"ľ":255,"Ŀ":256,"ŀ":257,"Ł":258,"ł":259,"Ń":260,"Ġt":261,"he":262,"Ġa":263,"on":264,"in":265,"Ġo":266,"Ġthe":267,"re":268,"it":269,"Ġof":270,"is":271,"en":272,"at":273,"er":274,"Ġw":275,"Ġc":276,"ion":277,"Ġs":278,"Ġp":279,"al":280,"ic":281,"Ġin":282,"nd":283,"es":284,"Ġb":285,"Ġth":286,"or":287,"Ġm":288,"Ġto":289,"ce":290,"ct":291,"Ġf":292,"ing":293,"an":294,"ed":295,"Ġn":296,"Ġe":297,"se":298,"ou":299,"Ġis":300,"ly":301,"le":302,"ĠĠ":303,"Ġre":304,"Ġit":305,"Ġand":306,"Ġcon":307,"Ġd":308,"Ġbe":309,"st":310,"om":311,"ent":312,"Ġwh":313,"ot":314,"ar":315,"as":316,"ut":317,"ich":318,"ect":319,"Ġh":320,"Ġpr":321,"Ġas":322,"ll":323,"Ġu":324,"Ġwhich":325,"Ġthat":326,"the":327,"iv":328,"im":329,"ition":330,"ation":331,"os":332,"ity":333,"Ġan":334,"Ġex":335,"Ġon":336,"Ġl":337,"ical":338,"Ġnot":339,"ĠĠĠĠ":340,"pt":341,"ject":342,"Ġthis":343,"ess":344,"ow":345,"Ġwe":346,"ith":347,"Ġfor":348,"id":349,"ib":350,"bject":351,"Ġsu":352,"ence":353,"cept":354,"ter":355,"ure":356,"ld":357,"ir":358,"Ġg":359,"Ġwith":360,"th":361,"ur":362,"ci":363,"ver":364,"ĠI":365,"qu":366,"og":367,"ive":368,"res":369,"ist":370,"Ġor":371,"ception":372,"ason":373,"Äł":374,"ay":375,"ere":376,"gh":377,"ain":378,"Ġcan":379,"ec":380,"if":381,"Ġby":382,"and":383,"per":384,"sel":385,"âĢ":386,"sib":387,"ul":388,"Ġall":389,"em":390,"rom":391,"pp":392,"Ġpro":393,"Ġreason":394,"ĠT":395,"Ġobject":396,"con":397,"Ġare":398,"ve":399,"ate":400,"ch":401,"Ġfrom":402,"end":403,"il":404,"Ġde":405,"Ġal":406,"ust":407,"ore":408,"Ġint":409,"ple":410,"act":411,"ther":412,"Ġbut":413,"us":414,"hen":415,"Ġits":416,"ossib":417,"Ġha":418,"Ġconception":419,"ill":420,"Ġat":421,"Ġonly":422,"aw":423,"am":424,"ab":425,"pl":426,"Ġun":427,"ould":428,"dition":429,"nder":430,"de":431,"ough":432,"âĢĶ":433,"um":434,"ol":435,"self":436,"ig":437,"inci":438,"ĠĠĠĠĠĠĠĠ":439,"Ġca":440,"Ġ(":441,"ans":442,"tain":443,"Ġour":444,"Ġthere":445,"min":446,"ies":447,"Ġlaw":448,"termin":449,"tr":450,"Ġmust":451,"Ġsp":452,"Ġcom":453,"not":454,"cc":455,"of":456,"Ġr":457,"ality":458,"est":459,"Ġpossib":460,"Ġprinci":461,"ecess":462,"ous":463,"resent":464,"Ġem":465,"Ġwor":466,"Ġso":467,"ide":468,"Ġpure":469,"Ġexist":470,"Ġother":471,"her":472,"Ġme":473,"Ġunder":474,"ience":475,"Ġhave":476,"perience":477,"Ġv":478,"Ġdetermin":479,"Ġtr":480,"stand":481,"ction":482,"Ġdo":483,"Ġsen":484,"ogn":485,"Ġmere":486,"Ġwill":487,"fore":488,"od":489,"pr":490,"ime":491,"ĠThe":492,"ĠB":493,"use":494,"ary":495,"Ġcondition":496,"very":497,"ge":498,"Ġany":499,"ak":500,"Ġnecess":501,"Ġhe":502,"Ġim":503,"Ġab":504,"omen":505,"ad":506,"Ġitself":507,"ound":508,"Ġmay":509,"Ġper":510,"henomen":511,"ori":512,"Ġform":513,"all":514,"Ġthem":515,"Ġnat":516,"Ġno":517,"ard":518,"Ġthey":519,"standing":520,"su":521,"Ġthing":522,"ame":523,"pir":524,"pos":525,"Ġsy":526,"uition":527,"Ġk":528,"able":529,"ind":530,"ever":531,"Ġtime":532,"Ġreg":533,"Ġus":534,"Ġexperience":535,"ility":536,"ose":537,"iori":538,"pirical":539,"ant":540,"ex":541,"Ġif":542,"ph":543,"ff":544,"Ġsh":545,"ĠF":546,"Ġbeing":547,"Ġse":548,"art":549,"endent":550,"Ġcannot":551,"ace":552,"ations":553,"actical":554,"out":555,"Ġcogn":556,"ome":557,"Ġst":558,"Ġone":559,"ud":560,"Ġhas":561,"Ġqu":562,"Ġide":563,"Ġphenomen":564,"Ġthese":565,"Ġrel":566,"Ġev":567,"ves":568,"ĠBut":569,"ght":570,"Ġpossible":571,"ord":572,"present":573,"ire":574,"wh":575,"Ġmor":576,"ance":577,"Ġcons":578,"Ġpriori":579,"now":580,"ĠA":581,"our":582,"Ġgiv":583,"Ġintuition":584,"ac":585,"Ġj":586,"ative":587,"Ġnature":588,"Ġacc":589,"Ġman":590,"Ġempirical":591,"ult":592,"thing":593,"un":594,"one":595,"ansc":596,"Ġwould":597,"ples":598,"Ãł":599,"Ġtherefore":600,"ement":601,"Ġsuch":602,"Ġapp":603,"Ġunderstanding":604,"Ġtheir":605,"ca":606,"Ġexistence":607,"anscendent":608,"ite":609,"Ġad":610,"Ġconceptions":611,"sequ":612,"for":613,"Ġpractical":614,"ers":615,"Ġcognition":616,"pon":617,"Ġprinciple":618,"ally":619,"Ġy":620,"ute":621,"nthe":622,"Ġsubject":623,"ĠFor":624,"Ġregard":625,"ĠP":626,"to":627,"Ġdis":628,"ĠÃł":629,"selves":630,"position":631,"Ġgiven":632,"ently":633,"),":634,"Ġobjects":635,"et":636,"so":637,"ions":638,"Ġworld":639,"ict":640,"ight":641,"Ġmerely":642,"Ġknow":643,"anscendental":644,"str":645,"which":646,"ment":647,"ong":648,"Ġle":649,"Ġpre":650,"here":651,"fere":652,"te":653,"cl":654,"ĠTh":655,"Ġar":656,"Ġch":657,"Ġwithout":658,"feren":659,"ener":660,"Ġpart":661,"tical":662,"Ġphenomena":663,"Ġrepresent":664,"Ġsame":665,"sp":666,"ertain":667,"Ġsome":668,"Ġmoral":669,"Ġthings":670,"ces":671,"Ġevery":672,"Ġmeans":673,"Ġprinciples":674,"ĠĠĠĠĠĠĠĠĠĠĠĠĠĠĠĠ":675,"tern":676,"ought":677,"ie":678,"gement":679,"ake":680,"Ġsynthe":681,"ise":682,"ĠS":683,"sis":684,"sequently":685,"Ġwhat":686,"Ġhow":687,"atter":688,"Ġunity":689,"Ġph":690,"ated":691,"hing":692,"el":693,"sol":694,"Ġnecessary":695,"ens":696,"ording":697,"pre":698,"ress":699,"Ġeven":700,"Ġmy":701,"led":702,"ays":703,"Ġwho":704,"op":705,"Ġhis":706,"ag":707,"fin":708,"ĠN":709,"oy":710,"ppos":711,"Ġcase":712,"ness":713,"phy":714,"that":715,"cause":716,"ĠO":717,"udgement":718,"ternal":719,"int":720,"Ġsub":721,"though":722,"mat":723,"Ġthan":724,"Ġlaws":725,"eneral":726,"possib":727,"Ġser":728,"imit":729,"Ġmore":730,"Ġidea":731,"Ġfre":732,"Ġrelation":733,"ced":734,"solute":735,"Ġne":736,"Ġaction":737,"Ġma":738,"condition":739,"Ġcontain":740,"iz":741,"ecul":742,"du":743,"nect":744,"Ġbecause":745,"Ġalso":746,"be":747,"Ġfar":748,"Ġdif":749,"ilos":750,"Ġdoes":751,"ber":752,"ĠIn":753,"ledge":754,"ways":755,"Ġpresent":756,"Ġpl":757,"Ġupon":758,"Ġcertain":759,"Ġtranscendental":760,"Ġend":761,"Ġcaus":762,"Ġcomple":763,"Ġconditions":764,"Ġbel":765,"ort":766,"Ġnothing":767,"Ġcont":768,"ogical":769,"ĠIt":770,"ĠG":771,"reat":772,"Ġpossibility":773,"oll":774,"ĠW":775,"ond":776,"hether":777,"Ġinto":778,"ational":779,"Ġjudgement":780,"ollow":781,"cious":782,"ulty":783,"ost":784,"ue":785,"Ġuse":786,"Ġthen":787,"Ġwhen":788,"Ġaccording":789,"ffect":790,"Ġcause":791,"Ġnever":792,"Ġsense":793,"Ġproposition":794,"ploy":795,"ign":796,"Ġgr":797,"gor":798,"me":799,"com":800,"irst":801,"Ġgeneral":802,"Ġcontr":803,"Ġgo":804,"rit":805,"ategor":806,"The":807,"ial":808,"uch":809,"Ġconsequently":810,"ĠC":811,"Ġalone":812,"Ġow":813,"stem":814,"ast":815,"Ġabsolute":816,"ivers":817,"Ġproper":818,"ser":819,"Ġthought":820,"Ġhim":821,"Ġspace":822,"ism":823,"form":824,"Ġpos":825,"ates":826,"Ġlimit":827,"Ġrequ":828,"Ġalways":829,"Ġob":830,"Ġconnect":831,"are":832,"pro":833,"Ġdes":834,"conception":835,"ither":836,"Ġfound":837,"old":838,"Ġcomm":839,"Ġthemselves":840,"Ġdist":841,"Ġown":842,"Ġcould":843,"Ġknowledge":844,"Ġfac":845,"Ġshould":846,"fect":847,"possible":848,"ari":849,"Ġphilos":850,"Ġfollow":851,"Ġemploy":852,"Ġsay":853,"ici":854,"Ġalthough":855,"Ġseries":856,"ro":857,"Ġwas":858,"ÃĦ":859,"Ġobjective":860,"Ġcall":861,"spect":862,"Ġfirst":863,"ÅĤ":864,"ÃĦÅĤ":865,"Ġquest":866,"ish":867,"edom":868,"Ġrational":869,"Ġdifferen":870,"Ġrespect":871,"Ġbeen":872,"with":873,"Ġpur":874,"Ġrem":875,"Ġdisc":876,"other":877,"Ġconsid":878,"ied":879,"Ġcomplete":880,"ink":881,"ach":882,"ine":883,"ĠNow":884,"Ġinde":885,"ered":886,"Ġsystem":887,"ĠH":888,"Ġexam":889,"der":890,"Ġact":891,"we":892,"Ġhapp":893,"Ġwhether":894,"Ġthus":895,"Ġfe":896,"uth":897,"âĢľ":898,"âĢĿ":899,"ĠThis":900,"Ġext":901,"Ġen":902,"Ġbelong":903,"ination":904,"Ġfaculty":905,"xim":906,"Ġag":907,"Ġreality":908,"Ġformer":909,"ree":910,"iness":911,"Ġcategor":912,"sess":913,"over":914,"eculative":915,"Ġvery":916,"Ġsynthesis":917,"dic":918,"Ġorder":919,"Ġval":920,"par":921,"Ġsomething":922,"under":923,"Ġmake":924,"Ġlatter":925,"mit":926,"Ġhowever":927,"suous":928,"less":929,"Ġground":930,"Ġwere":931,"uman":932,"med":933,"ciousness":934,"Ġplace":935,"Ġunivers":936,"Ġsci":937,"stit":938,"ode":939,"ĠâĢľ":940,"Ġnecessity":941,"ĠE":942,"ĠR":943,"pose":944,"Ġyou":945,"Ġfreedom":946,"Ġgood":947,"Ġfind":948,"Ġcausality":949,"Ġthose":950,"Ġeffect":951,"by":952,"ha":953,"Ġwhole":954,"ics":955,"adict":956,"ell":957,"Ġter":958,"object":959,"Ġpres":960,"sy":961,"aly":962,"Ġthink":963,"Ġout":964,"ile":965,"ke":966,"preme":967,"ty":968,"Ġdut":969,"Ġexp":970,"Ġquestion":971,"wo":972,"Ġmaxim":973,"Ġsensib":974,"ophy":975,"reason":976,"Ġhuman":977,"Ġpossess":978,"exist":979,"ear":980,"ual":981,"igin":982,"Ġass":983,"Ġam":984,"Ġreal":985,"ove":986,"Ġjust":987,"rough":988,"Ġprodu":989,"Ġappl":990,"Ġent":991,"Ġpow":992,"av":993,"Ġmind":994,"Ġperfect":995,"uten":996,"ĠIf":997,"berg":998,"oun":999,"arily":1000,"Ġyet":1001,"utenberg":1002,"Ġmat":1003,"oint":1004,"Ġname":1005,"man":1006,"sen":1007,"Ġcrit":1008,"this":1009,"phys":1010,"Ġsim":1011,"ible":1012,"Ġatt":1013,"Ġspeculative":1014,"edu":1015,"Ġdetermined":1016,"ication":1017,"Ġsubst":1018,"Ġdifferent":1019,"ogit":1020,"ks":1021,"lect":1022,"ĠD":1023,"erest":1024,"iew":1025,"hed":1026,"ceed":1027,"ived":1028,"ince":1029,"lf":1030,"Ġrepresentation":1031,"ural":1032,"Ġsphere":1033,"Ġsynthetical":1034,"ological":1035,"ass":1036,"Ġgreat":1037,"ident":1038,"ble":1039,").":1040,"ike":1041,"Ġtwo":1042,"Ġbas":1043,"cons":1044,"hemat":1045,"Ġmanif":1046,"ory":1047,"Ġfact":1048,"Ġduty":1049,"Ġsec":1050,"ang":1051,"ffici":1052,"Ġvalid":1053,"Ġideas":1054,"roject":1055,"ule":1056,"Ġsensuous":1057,"determin":1058,"rib":1059,"Ġincl":1060,"cogn":1061,"Ġinternal":1062,"Ġimp":1063,"Ġself":1064,"Ġthrough":1065,"Ġdetermination":1066,"Ġshall":1067,"Ġcalled":1068,"Ġword":1069,"Ġscience":1070,"princi":1071,"Ġperception":1072,"ution":1073,"aract":1074,"oo":1075,"conditioned":1076,"Ġview":1077,"Ġorigin":1078,"yp":1079,"ice":1080,"ular":1081,"Ġfeel":1082,"understanding":1083,"Ġsubjective":1084,"aracter":1085,"ĠWe":1086,"Th":1087,"Ġcor":1088,"Ġconstit":1089,"yond":1090,"ful":1091,"there":1092,"finite":1093,"Ġphilosophy":1094,"ogy":1095,"Ġinv":1096,"Ġhig":1097,"eci":1098,"Ġpoint":1099,"Ġpurpose":1100,"ved":1101,"Ġest":1102,"Ġhere":1103,"Ġrule":1104,"Ġabsolutely":1105,"necess":1106,"usion":1107,"Ġexample":1108,"ted":1109,"Ġnatural":1110,"ents":1111,"Ġconsciousness":1112,"dis":1113,"ange":1114,"Ġmode":1115,"oth":1116,"Ġshow":1117,"Ġwhile":1118,"Ġ_":1119,"Ġuniversal":1120,"ern":1121,"Ġinf":1122,"Ġstill":1123,"Ġeach":1124,"Ġimpossible":1125,"Ġhimself":1126,"iate":1127,"Ġbet":1128,"irect":1129,"Ġcogit":1130,"Ġnecessarily":1131,"sion":1132,"Ġphenomenon":1133,"ĠProject":1134,"can":1135,"Ġexternal":1136,"Ġexpl":1137,"Ġdetermine":1138,"Ġadmit":1139,"Ġpower":1140,"ires":1141,"Ġinterest":1142,"action":1143,"ating":1144,"Ġconnection":1145,"ner":1146,"aphys":1147,"Ġanother":1148,"Ġsens":1149,"Ġleast":1150,"wise":1151,"Ġgive":1152,"Ġactions":1153,"Ġway":1154,"ellig":1155,"Ġintellig":1156,"Ġrequire":1157,"Ġbeyond":1158,"Ġquite":1159,"Ġquant":1160,"ĠGutenberg":1161,"atis":1162,"Ġlike":1163,"ĠM":1164,"Ġwell":1165,"experience":1166,"ĠRe":1167,"Ġhappiness":1168,"Ġnamely":1169,"ys":1170,"Ġkind":1171,"app":1172,"Ġdetermining":1173,"Ġstr":1174,"Ġmanifold":1175,"ught":1176,"Ġnor":1177,"Ġeither":1178,"Ġourselves":1179,"Ġap":1180,"Ġhand":1181,"ances":1182,"Ġcontains":1183,"abl":1184,"Ġcategories":1185,"age":1186,"tic":1187,"Ġwhere":1188,"ccess":1189,"its":1190,"Ġindeed":1191,"Ġconsider":1192,"Ġcharacter":1193,"Ġdem":1194,"Ġlimits":1195,"ra":1196,"Ġconc":1197,"Ġappear":1198,"atisf":1199,"phenomen":1200,"othe":1201,"Ġproceed":1202,"Ġrest":1203,"Ġanaly":1204,".,":1205,"Ġstate":1206,"empt":1207,"ingu":1208,"gin":1209,"ook":1210,"Ġmorality":1211,"ize":1212,"gum":1213,"ious":1214,"Ġref":1215,"fficient":1216,"reg":1217,"Ġterm":1218,"Ġdiv":1219,"ev":1220,"Ġsum":1221,"Ġcommon":1222,"pposition":1223,"Ġcontrary":1224,"ark":1225,"ypothe":1226,"ology":1227,"und":1228,"ring":1229,"Ġproof":1230,"Ġnotion":1231,"much":1232,"ĠL":1233,"Ġcomp":1234,"Ġadv":1235,"Ġsee":1236,"ished":1237,"Ġcontradict":1238,"Ġmatter":1239,"Ġdedu":1240,"ĠThus":1241,"contr":1242,"akes":1243,"Ġable":1244,"Ġassum":1245,"Ġfree":1246,"Ġfollows":1247,"Ġfeeling":1248,"Ġres":1249,"ER":1250,"ference":1251,"But":1252,"Ġsupreme":1253,"Ġconce":1254,"ably":1255,"existence":1256,"Ġconcl":1257,"Ġrepresentations":1258,"conceptions":1259,"lu":1260,"ences":1261,"Ġought":1262,"Ġsecond":1263,"sible":1264,"Ġtrue":1265,"Ġtruth":1266,"Ġremain":1267,"Ġboth":1268,"Ġ1":1269,"pendent":1270,"icism":1271,"Ġmost":1272,"stru":1273,"Ġhad":1274,"mediate":1275,"from":1276,"Ġsince":1277,"Ġdec":1278,"Ġtake":1279,"Ġdistin":1280,"ives":1281,"ĠReason":1282,"fter":1283,"ten":1284,"ĠU":1285,"Ġmet":1286,"Ġparts":1287,"Ġpresu":1288,"Ġsensibility":1289,"icular":1290,"Ġsubstance":1291,"fic":1292,"Ġill":1293,"irm":1294,"acc":1295,"ween":1296,"Ġmuch":1297,"lear":1298,"Ġbegin":1299,"Ġmight":1300,"Ġbeings":1301,"Ġmanner":1302,"Ġregards":1303,"Ġattain":1304,"Ġsupp":1305,"Ġlogical":1306,"Ġpredic":1307,"asmuch":1308,"Ġexpress":1309,"Ġconsist":1310,"Ġphys":1311,"Ġwork":1312,"Ġcontent":1313,"Ġnow":1314,"onstr":1315,"In":1316,"intuition":1317,"Ġi":1318,"Ġregarded":1319,"Ġmade":1320,"ited":1321,"Ġer":1322,"Ġtot":1323,"Ġdirect":1324,"Ġbefore":1325,"Ġfoundation":1326,"ma":1327,"aid":1328,"Ġaim":1329,"but":1330,"Ġconf":1331,"represent":1332,"Ġmathemat":1333,"hest":1334,"pend":1335,"Ġdiscover":1336,"osm":1337,"pposed":1338,"ving":1339,"Ġcl":1340,"Ġmot":1341,"Ġaff":1342,"sub":1343,"Ġargum":1344,"Ġunconditioned":1345,"estig":1346,"pond":1347,"Ġconcept":1348,"oid":1349,"tm":1350,"ÄłÄł":1351,"Ġhypothe":1352,"Ġexists":1353,"Ġconsidered":1354,"ision":1355,"Ġ[":1356,"Ġconditioned":1357,"ene":1358,"atic":1359,"respond":1360,"son":1361,"Ġjudgements":1362,"Ġbetween":1363,"Ġquantity":1364,"oub":1365,"rel":1366,"lement":1367,"Ġothers":1368,"Ġabove":1369,"ĠAnd":1370,"empirical":1371,"ĠCon":1372,"Ġproble":1373,"ĠOn":1374,"red":1375,"ath":1376,"know":1377,"wor":1378,"ward":1379,"asure":1380,"ogic":1381,"Ġsatisf":1382,"Ġthough":1383,"cise":1384,"Ġind":1385,"Ġdeg":1386,"Ġpropositions":1387,"principle":1388,"nat":1389,"Ġple":1390,"pable":1391,"Ġconform":1392,"ĠOf":1393,"ized":1394,"OO":1395,"EN":1396,"Ġsuccess":1397,"Ġdefin":1398,"Ġset":1399,"Ġworth":1400,"ialect":1401,"utes":1402,"Ġstand":1403,"only":1404,"omy":1405,"ules":1406,"iqu":1407,"sert":1408,"raph":1409,"TI":1410,"Ġac":1411,"Ġarr":1412,"Ġclear":1413,"Ġsimple":1414,"Ġbased":1415,"ON":1416,"oretical":1417,"practical":1418,"Ġsour":1419,"Ġup":1420,"Ġans":1421,"agraph":1422,"read":1423,"aken":1424,"Ġdesire":1425,"Ġagain":1426,"unction":1427,"being":1428,"Ġright":1429,"ĠPure":1430,"Ġhighest":1431,"crib":1432,"thod":1433,"odu":1434,"Ġimper":1435,"Ġregress":1436,"Ġestabl":1437,"Ġel":1438,"ife":1439,"Ġemployed":1440,"Ġocc":1441,"them":1442,"law":1443,"Ġed":1444,"matical":1445,"ning":1446,"cont":1447,"Ġder":1448,"Ġmany":1449,"Ġextend":1450,"Ġcognitions":1451,"Ġcauses":1452,"ep":1453,"perception":1454,"Ġobser":1455,"mon":1456,"ignif":1457,"Ġleg":1458,"Ġconcern":1459,",âĢĿ":1460,"ĠGod":1461,"ental":1462,"Ġansw":1463,"opher":1464,"theless":1465,"Ġimag":1466,"avour":1467,"cognition":1468,"Ġcompletely":1469,"Ġinasmuch":1470,"Ġanything":1471,"Ġchange":1472,"ique":1473,"trib":1474,"certain":1475,"Ġafter":1476,"ount":1477,"Ġdistingu":1478,"Ġrules":1479,"Ġpresented":1480,"Ġsole":1481,"Ġperson":1482,"Ġmetaphys":1483,"Ġinfinite":1484,"Ġconsequ":1485,"Ġexer":1486,"Ġbelongs":1487,"Ġmaxims":1488,"ude":1489,"Ġes":1490,"mum":1491,"tle":1492,"It":1493,"Ġseem":1494,"Ġparticular":1495,"Ġneed":1496,"Ġemployment":1497,"must":1498,"Ġrequires":1499,"phenomena":1500,"ention":1501,"irt":1502,"Ġgu":1503,"Ġconnected":1504,"mis":1505,"Ġnum":1506,"urn":1507,"Ġresult":1508,"ather":1509,"Ġmod":1510,"Ġlife":1511,"Ġimmediate":1512,"Ġmyself":1513,"therefore":1514,"necessary":1515,"ection":1516,"Ġant":1517,"Ġfin":1518,"Ġaccord":1519,"Ġends":1520,"Ġconting":1521,"onum":1522,"Ġwant":1523,"Ġgrounds":1524,"Ġentire":1525,"hence":1526,"luence":1527,"hes":1528,"Ġindic":1529,"OOK":1530,"Ġeverything":1531,"ĠĠĠĠĠĠĠĠĠĠĠĠĠĠĠĠĠĠĠĠĠĠĠĠ":1532,"Ġvalidity":1533,"cy":1534,"Ġapplication":1535,"Ġsystematic":1536,"Ġattempt":1537,"Ġreally":1538,"ides":1539,"Ġsc":1540,"mere":1541,"Ġcop":1542,"BOOK":1543,"ourse":1544,"Ġneg":1545,"Ġintuitions":1546,"part":1547,"arr":1548,"subject":1549,"HA":1550,"pect":1551,"Ġ\"":1552,"oul":1553,"aim":1554,"possibility":1555,"This":1556,"Ġinvestig":1557,"Ġtotality":1558,"how":1559,"Ġnew":1560,"oubt":1561,"contradict":1562,"Ġmain":1563,"Ġing":1564,"come":1565,"Ġelement":1566,"Ġcorrespond":1567,"'s":1568,"lig":1569,"Ġintelligible":1570,"Ġread":1571,"duct":1572,"ase":1573,"Ġside":1574,"Ġbod":1575,"AL":1576,"do":1577,"Ġassert":1578,"Ġmethod":1579,"Ġcommand":1580,"raw":1581,"itself":1582,"Ġbonum":1583,"Ġlogic":1584,"conditions":1585,"Ġcontained":1586,"Ġdegree":1587,"isl":1588,"ob":1589,"ps":1590,"Ġmean":1591,"Ġeas":1592,"ension":1593,"Ġphysical":1594,");":1595,"Ġrather":1596,"Ġvirt":1597,"ov":1598,"ctr":1599,"Ġless":1600,"ĠTH":1601,"Ġover":1602,"Ġthereby":1603,"Ġphilosopher":1604,"without":1605,"manent":1606,"Ġsenses":1607,"Ġbelie":1608,"Ġimport":1609,"Ġut":1610,"If":1611,"go":1612,"Ġmen":1613,"Ġwords":1614,"ready":1615,"ogress":1616,"unity":1617,"Ġhence":1618,"erial":1619,"bec":1620,"ane":1621,"ided":1622,"transcendental":1623,"We":1624,"ily":1625,"aking":1626,"ities":1627,"Ġsol":1628,"Ġdog":1629,"Ġotherwise":1630,"TER":1631,"Ġnon":1632,"Ġspeci":1633,"Ġerr":1634,"synthe":1635,"mor":1636,"Ġlong":1637,"paragraph":1638,"Ġdemonstr":1639,"Ġabstr":1640,"Ġhold":1641,"Ġattrib":1642,"Ġanswer":1643,"Ġrelations":1644,"Ġremains":1645,"bit":1646,"Ġequ":1647,"anation":1648,"nature":1649,"Ġ^":1650,"Ġ{":1651,"ises":1652,"Ġideal":1653,"Ġsignif":1654,"Ġsoul":1655,"atever":1656,"Ġindependent":1657,"Ġbasis":1658,"Ġsummum":1659,"Ġco":1660,"Ġperfectly":1661,"Ġtheoretical":1662,"Ġpost":1663,"Ġexcept":1664,"ĠThere":1665,"Ġformal":1666,"ĠThat":1667,"Ġproblem":1668,"Ġaccordance":1669,"Ġentirely":1670,"CHA":1671,"dom":1672,"gr":1673,"ĠPr":1674,"ĠSu":1675,"PTER":1676,"Ġmem":1677,"Ġneither":1678,"Ġcontin":1679,"uthor":1680,"Ġsensible":1681,"comple":1682,"Ġproperly":1683,"Ġinfluence":1684,"eing":1685,"Ġtoo":1686,"ually":1687,"although":1688,"Ġbound":1689,"Ġever":1690,"Ġconduct":1691,"Ġgives":1692,"ĠHence":1693,"Ġthinking":1694,"Ġnumber":1695,"Ġher":1696,"ency":1697,"iar":1698,"rect":1699,"Ġinqu":1700,"Ġexplain":1701,"ause":1702,"men":1703,"Ġess":1704,"ceive":1705,"Ġbecome":1706,"Ġalready":1707,"Ġsufficient":1708,"ail":1709,"ases":1710,"Ġdiffic":1711,"osmological":1712,"Ġsaid":1713,"priori":1714,"Ġprev":1715,"CHAPTER":1716,"mall":1717,"ceived":1718,"ranscendental":1719,"will":1720,"Ġaccount":1721,"ĠOF":1722,"Ġexercise":1723,"Ġvirtue":1724,"any":1725,"hension":1726,"Â§":1727,"Ġident":1728,"dist":1729,"Ġpleasure":1730,"Ġforms":1731,"inations":1732,"Ġdoubt":1733,"Ġdetermines":1734,"Ġdistinction":1735,"Ġ2":1736,"Ġprov":1737,"ĠII":1738,"pure":1739,"Ġop":1740,"Ġinst":1741,"irc":1742,"Ġexpect":1743,"Ġtaken":1744,"Ġmis":1745,"Ġdialect":1746,"Ġhar":1747,"Ġhop":1748,"cedure":1749,"Ġproduce":1750,"Ġcogitated":1751,"eculiar":1752,"lectual":1753,"Ġpass":1754,"Ġpreced":1755,"Ġargument":1756,"Ġprove":1757,"Ġdeduction":1758,"Ġelse":1759,"Ġden":1760,"Ġappre":1761,"Ġmaterial":1762,"ext":1763,"up":1764,"Ġabout":1765,"ĠAs":1766,"oc":1767,"Ġconstru":1768,"oundation":1769,"Ġapply":1770,"sensible":1771,"Ġerror":1772,"itive":1773,"Ġce":1774,"Ġrender":1775,"Ġcourse":1776,"Ġgener":1777,"Ġoblig":1778,"Ġremark":1779,"Now":1780,"time":1781,"Ġaffect":1782,"Ġmakes":1783,"Ġprogress":1784,"ulties":1785,"ĠĠĠĠĠĠĠĠĠĠĠĠĠĠĠĠĠĠĠĠĠĠĠĠĠĠĠĠĠĠĠĠĠĠĠĠĠĠĠĠ":1786,"Ġbeginning":1787,"Ġallow":1788,"ties":1789,"Ġlies":1790,"Ġlimited":1791,"urther":1792,"ĠĠĠ":1793,"Ġprom":1794,"Ġdepend":1795,"ability":1796,"Ġvari":1797,"objects":1798,"consciousness":1799,"regard":1800,"Ġpredicate":1801,"because":1802,"antage":1803,"Ġfall":1804,"Ġsuper":1805,"Ġconscious":1806,"Ġapplied":1807,"uted":1808,"consequently":1809,"ĠBeing":1810,"cannot":1811,"Ġassume":1812,"Ġconsists":1813,"Ġimperative":1814,"Ġcopy":1815,"sych":1816,"sim":1817,"Ġchang":1818,"Ġaw":1819,"Ġaid":1820,"Ġcognize":1821,"these":1822,"ppose":1823,"Ġexisting":1824,"pposite":1825,"Ġnevertheless":1826,"Ġquestions":1827,"have":1828,"bl":1829,"Ġlook":1830,"dequ":1831,"ĠTHE":1832,"**":1833,"dif":1834,"Ġcapable":1835,"ield":1836,"ne":1837,"Ġlegisl":1838,"Ġpeculiar":1839,"they":1840,"Ġshown":1841,"Ġexplanation":1842,"Ġmaintain":1843,"Ġpath":1844,"ically":1845,"ined":1846,"Ġdraw":1847,"nt":1848,"onic":1849,"imate":1850,"Ġdivision":1851,"Ġaffirm":1852,".âĢĿ":1853,"hema":1854,"Ġfal":1855,"Ġwhose":1856,"Ġinclinations":1857,"principles":1858,"Ġhigher":1859,"Ġimagination":1860,"Ġsolely":1861,"merely":1862,"ctrine":1863,"inte":1864,"disc":1865,"For":1866,"connect":1867,"Ġunderstand":1868,"Ġaddition":1869,"Ġreference":1870,"Ġwhatever":1871,"Ġpurely":1872,"Ġfollowing":1873,"Ġdifference":1874,"Ġcontradiction":1875,"overed":1876,"ogism":1877,"absolute":1878,"would":1879,"ont":1880,"Ġprocedure":1881,"ĠSupreme":1882,"ulative":1883,"strict":1884,"RE":1885,"ave":1886,"cor":1887,"Ġav":1888,"Ġadd":1889,"objective":1890,"teness":1891,"their":1892,"Ġagre":1893,"Ġly":1894,"Ġwithin":1895,"Ġtermed":1896,"wards":1897,"Ġharmon":1898,"poses":1899,"ia":1900,"io":1901,"some":1902,"Ġund":1903,"ull":1904,"des":1905,"hib":1906,"Ġworks":1907,"Ġyour":1908,"_,":1909,"ĠY":1910,"Ġwish":1911,"Ġcirc":1912,"Ġspe":1913,"Ġevident":1914,"Ġhappens":1915,"Ġillusion":1916,"Ġhypothesis":1917,"Ġsource":1918,"eavour":1919,"ni":1920,"oumen":1921,"dequate":1922,"Ġintel":1923,"giv":1924,"Ġbr":1925,"every":1926,"onomy":1927,"ĠeB":1928,"Ġdone":1929,"Ġcertainly":1930,"Ġeffects":1931,"Ġinclination":1932,"Ġanalytical":1933,"Ġdefinition":1934,"Ġcontingent":1935,"Ġfalse":1936,"Äłin":1937,"orough":1938,"lectr":1939,"what":1940,"happ":1941,"right":1942,"posed":1943,"Ġcogitate":1944,"lar":1945,"whether":1946,"Ġsmall":1947,"Ġagainst":1948,"Ġhope":1949,"cing":1950,"haps":1951,"Ġrelate":1952,"according":1953,"ting":1954,"Ġfurther":1955,"Ġconj":1956,"Ġdid":1957,"Ġpermanent":1958,"Ġrepresented":1959,"Ġcategory":1960,"moral":1961,"sh":1962,"philos":1963,"ential":1964,"amental":1965,"Ġcertainty":1966,"les":1967,"own":1968,"Ġdemand":1969,"Ġempirically":1970,"Ġextension":1971,"determination":1972,"undamental":1973,"Ġimmediately":1974,"Ġschema":1975,"Ġnegative":1976,"ix":1977,"Ġsing":1978,"Ġvol":1979,"00":1980,"Ġign":1981,"imes":1982,"categor":1983,"oph":1984,"sist":1985,"etaphys":1986,"proposition":1987,"Ġintellectual":1988,"Ġopposite":1989,"ĠTo":1990,"usions":1991,"ĠThey":1992,"Ġjustif":1993,"Ġsubstances":1994,"Ġsensation":1995,"Ġmathematics":1996,"relation":1997,"Ġte":1998,"ivid":1999,"ption":2000,"Ġjud":2001,"consid":2002,"ply":2003,"idence":2004,"Ġfut":2005,"Ġdistinct":2006,"br":2007,"Ġtreat":2008,"erse":2009,"Ġbring":2010,"ĠTranscendental":2011,"ritique":2012,"Ġperfection":2013,"Ġconclusion":2014,"Ġclaim":2015,"Ġconsequence":2016,"Ġinquir":2017,"ck":2018,"Ġoper":2019,"fer":2020,"yn":2021,"complete":2022,"Ġspring":2023,"Ġendeavour":2024,"Ġadvantage":2025,"ses":2026,"Ġintr":2027,"ĠAn":2028,"pposes":2029,"Ġproperties":2030,"Ġperceptions":2031,"knowledge":2032,"Ġconformity":2033,"Ġful":2034,"oment":2035,"pres":2036,"Ġconv":2037,"llig":2038,"Ġserve":2039,"judgement":2040,"ised":2041,"Ġcorrect":2042,"even":2043,"ead":2044,"ittle":2045,"Ġthree":2046,"Ġthorough":2047,"such":2048,"ĠAll":2049,"Ġaccordingly":2050,"Ġbelonging":2051,"representations":2052,"Ġseems":2053,"limit":2054,"ared":2055,"call":2056,"tog":2057,"Ġpret":2058,"RA":2059,"inde":2060,"imal":2061,"ird":2062,"ogene":2063,"Ġabs":2064,"Ġdistrib":2065,"toge":2066,"Ġrelates":2067,"Ġvalue":2068,"Ġrests":2069,"ishes":2070,"Ġpar":2071,"Ġfunction":2072,"Ġet":2073,"Ġanal":2074,"Ġlie":2075,"Ġdeterminations":2076,"things":2077,"Ġdisposition":2078,"Ġcho":2079,"Ġproperty":2080,"Ġpossesses":2081,"Ġamong":2082,"themselves":2083,"Ġeasily":2084,"lectronic":2085,"together":2086,"asion":2087,"sensuous":2088,"EC":2089,"odeict":2090,"Ġbody":2091,"Ġapprehension":2092,"hat":2093,"Ġobtain":2094,"ÄłÄłÄłÄł":2095,"Ġagreement":2096,"gan":2097,"Ġdiscovered":2098,"ĠHe":2099,"Ġextent":2100,"Ġcriter":2101,"Ġconceive":2102,"ĠĠĠĠĠĠĠĠĠĠĠĠĠĠĠĠĠĠĠĠĠĠĠĠĠĠĠĠĠĠĠĠĠĠĠĠĠĠĠĠĠ":2103,"ap":2104,"All":2105,"ior":2106,"lection":2107,"Äłc":2108,"Ġknown":2109,"Äłre":2110,"exam":2111,"ack":2112,"Ġpowers":2113,"Ġinvol":2114,"where":2115,"Ġcases":2116,"always":2117,"Äłs":2118,"Ġthereof":2119,"ĠFoundation":2120,"uded":2121,"Ġevent":2122,"Ġcriticism":2123,"Ġinfer":2124,"Ġapperception":2125,"ĠConsequently":2126,"Ġchanges":2127,"Ġfuture":2128,"Ġmed":2129,"hil":2130,"no":2131,"leg":2132,"ilar":2133,"ech":2134,"Ġproved":2135,"ood":2136,"ĠÂ§":2137,"Ġintu":2138,"Ġdeterminate":2139,"Ġcritical":2140,"bitr":2141,"Ġignor":2142,"Ġauthor":2143,"comm":2144,"Ġactual":2145,"Ġterms":2146,"peci":2147,"proc":2148,"Ġstrict":2149,"ynam":2150,"Ġlead":2151,"subst":2152,"world":2153,"Ġcontinu":2154,".[":2155,"pur":2156,"Ġnoumen":2157,"Ġlittle":2158,"Ġdoctrine":2159,"Ġexpression":2160,"Ġmathematical":2161,"Ġderived":2162,"Ġinvestigation":2163,"given":2164,"AR":2165,"iverse":2166,"ividual":2167,"Ġante":2168,"ower":2169,"Ġcompar":2170,"pens":2171,"requ":2172,"Ġconceived":2173,"imp":2174,"intellig":2175,"IS":2176,"ensive":2177,"ĠUn":2178,"may":2179,"esides":2180,"Ġmoment":2181,"Ġnay":2182,"Ġdynam":2183,"Ġsupposed":2184,"Ġhaving":2185,"Ġregulative":2186,"Ġconstitutes":2187,"Ġelements":2188,"does":2189,"Ġmember":2190,"rational":2191,"hend":2192,"Ġask":2193,"ferent":2194,"TION":2195,"bel":2196,"fe":2197,"just":2198,"llogism":2199,"atement":2200,"Ġsupport":2201,"reedom":2202,"Ġinfin":2203,"ended":2204,"ĠThese":2205,"sufficient":2206,"aces":2207,"Ġanalysis":2208,"Ġsuccession":2209,"Ġestablished":2210,"Ġdifficulty":2211,"nit":2212,"dem":2213,"Ġsolution":2214,"Ġtrans":2215,"ordin":2216,"Ġcompleteness":2217,"ĠEx":2218,"Ġseek":2219,"Ġsch":2220,"Ġfield":2221,"Ġexhib":2222,"Ġarises":2223,"Ġrequired":2224,"Ġaims":2225,"Ġmotive":2226,"Ġarguments":2227,"Ġestablish":2228,"Ġdistinguish":2229,"Ġmetaphysics":2230,"however":2231,"Ġcorresponding":2232,"ru":2233,"rem":2234,"att":2235,"caus":2236,"Ġins":2237,"ole":2238,"Ġrecogn":2239,"Äłf":2240,"Ġprof":2241,"Ġcomb":2242,"ety":2243,"Ġrequis":2244,"Ġdiscus":2245,"Ġpain":2246,"iving":2247,"Ġexcl":2248,"Ġspont":2249,"Ġvain":2250,"Ġapart":2251,"Ġdirectly":2252,"Ġsources":2253,"Ġdogmatical":2254,"Ġprevious":2255,"Ġsingle":2256,"Ġspontane":2257,"Ġ3":2258,"quest":2259,"row":2260,"never":2261,"Ġregarding":2262,"Ġcognized":2263,"Ġdesign":2264,"Ġobserv":2265,"Ġanteced":2266,"inomy":2267,"Ġonce":2268,"Ġsupposition":2269,"Ġhel":2270,"Ġperhaps":2271,"ĠĠĠĠĠĠĠĠĠĠĠĠĠĠĠĠĠĠĠĠ":2272,"ĠCritique":2273,"Ġenough":2274,"Ġuniversality":2275,"Ġgreatest":2276,"Thus":2277,"Ġintelligence":2278,"istic":2279,"Ġtoge":2280,"Ġbecom":2281,"arn":2282,"synthetical":2283,"Ġtogether":2284,"most":2285,"Ġtakes":2286,"ingdom":2287,"Ġtranscendent":2288,"Ġke":2289,"Ġevil":2290,"Ġsatisfaction":2291,"Ġabstract":2292,"ophical":2293,"IN":2294,"inion":2295,"Ġcosmological":2296,"ask":2297,"ĠIde":2298,"Ġcompre":2299,"ĠSuch":2300,"eculation":2301,"Ġpresents":2302,"Ġfaculties":2303,"Ġcategorical":2304,"Ġlikewise":2305,"representation":2306,"Ġsuccessive":2307,"Ġsupersensible":2308,"Ġdynamical":2309,"Ġcome":2310,"comp":2311,"appl":2312,"Ġbl":2313,"vel":2314,"ising":2315,"Ġul":2316,"respect":2317,"name":2318,"Ġ5":2319,"general":2320,"igh":2321,"ivity":2322,"nothing":2323,"oriz":2324,"Ġpursu":2325,"Ġoccup":2326,"Ġmeaning":2327,"Section":2328,"incl":2329,"Ġthird":2330,"Ġdon":2331,"Ġsur":2332,"Ġaltogether":2333,"ĠAr":2334,"proper":2335,"elled":2336,"Ġproduced":2337,"Ġconstitution":2338,"Ġbetter":2339,"Ġsuppose":2340,"Ġdialectical":2341,"Ġpreceding":2342,"ense":2343,"icable":2344,"Ġfore":2345,"separ":2346,"Ġra":2347,"appear":2348,"nihil":2349,"ft":2350,"follow":2351,"abour":2352,"Ġdestr":2353,"Ġey":2354,"Ġrestrict":2355,"ific":2356,"atively":2357,"system":2358,"Ġapodeict":2359,"Ġoften":2360,"Ġpsych":2361,"Ġelectronic":2362,"Ġdel":2363,"capable":2364,"ensions":2365,"Ġhumanity":2366,"sense":2367,"Ġcritique":2368,"Ġpredicates":2369,"Ġconstruct":2370,"Ġharmony":2371,"Ġintrodu":2372,"called":2373,"produ":2374,"Ġappro":2375,"II":2376,"itum":2377,"icip":2378,"ogeneous":2379,"ines":2380,"consist":2381,"Ġmanifest":2382,"Ġappearance":2383,"Ġadvance":2384,"Ġ*":2385,"ĠV":2386,"Ġopposition":2387,"Ġfull":2388,"uting":2389,"Ġexact":2390,"conf":2391,"Ġunless":2392,"Ġkingdom":2393,"Ġstates":2394,"uding":2395,"Ġprecept":2396,"Ġarise":2397,"Ġrefer":2398,"Ġimportance":2399,"Ġaffected":2400,"Ġrequisite":2401,"sum":2402,"ctive":2403,"ES":2404,"Ġche":2405,"ometr":2406,"ium":2407,"ments":2408,"thought":2409,"cre":2410,"ubl":2411,"inv":2412,"Äłp":2413,"Ġessential":2414,"has":2415,"Ġsort":2416,"Ġlast":2417,"Ġvoid":2418,"space":2419,"ĠSp":2420,"Ġobjectively":2421,"Ġsimply":2422,"Ġdecl":2423,"contradiction":2424,"Ġreader":2425,"Ġattribute":2426,"Ġbounds":2427,"something":2428,"Ġcircum":2429,"Ġcriterion":2430,"pecially":2431,"Ġhelp":2432,"ison":2433,"Ġear":2434,"employ":2435,"Ġens":2436,"univers":2437,"iction":2438,"Ġlet":2439,"idance":2440,"Ġge":2441,"Ġro":2442,"Ġagree":2443,"ENT":2444,"consider":2445,"quant":2446,"Ġorgan":2447,"Äłd":2448,"ccording":2449,"Ġfinite":2450,"bers":2451,"ĠJ":2452,"Ġadequate":2453,"Ġarbitr":2454,"Ġappears":2455,"Ġbelief":2456,"ĠPrinci":2457,"alone":2458,"utonomy":2459,"Ġsoon":2460,"Ġleave":2461,"Ġmoreover":2462,"means":2463,"formation":2464,"Ġactually":2465,"determined":2466,"Ġconstitute":2467,"Ġadmitted":2468,"Ġconcepts":2469,"Ġindividual":2470,"laws":2471,"Ġabstraction":2472,"Ġsignific":2473,"Ġpostul":2474,"Ġaway":2475,"namely":2476,"TH":2477,"sc":2478,"perfect":2479,"place":2480,"ying":2481,"Ġline":2482,"distingu":2483,"then":2484,"cribe":2485,"Ġavoid":2486,"RO":2487,"latter":2488,"ĠK":2489,"atum":2490,"ciproc":2491,"pe":2492,"Ġinev":2493,"urd":2494,"constit":2495,"ooks":2496,"echan":2497,"Ġinevit":2498,"love":2499,"reality":2500,"Ġfurn":2501,"Ġfundamental":2502,"ceptions":2503,"contain":2504,"Ġuniverse":2505,"ĠBy":2506,"ĠSection":2507,"mathemat":2508,"Ġpositive":2509,"Ġplaced":2510,"ĠRE":2511,"Ġgreater":2512,"Ġoriginal":2513,"necessity":2514,"Ġpresuppose":2515,"known":2516,"Ġconjunction":2517,"Ġvolition":2518,"Äłm":2519,"Ġsepar":2520,"ae":2521,"Ġ4":2522,"iter":2523,"RAN":2524,"ages":2525,"ool":2526,"Ġtest":2527,"utive":2528,"Ġcare":2529,"speculative":2530,"Ġdeser":2531,"worth":2532,"Ġcreat":2533,"ote":2534,"pty":2535,"olly":2536,"alytic":2537,"Ġconcre":2538,"phenomenon":2539,"Ġphilosophers":2540,"Ġidentical":2541,"Ġvarious":2542,"ip":2543,"metaphys":2544,"phist":2545,"apt":2546,"ren":2547,"iber":2548,"sibility":2549,"CE":2550,"There":2551,"Ġoff":2552,"ffort":2553,"Ġposition":2554,"ins":2555,"Ġimportant":2556,"Ġutter":2557,"ground":2558,"Ġetc":2559,"div":2560,"freedom":2561,"itle":2562,"Ġwit":2563,"cience":2564,"possess":2565,"Ġevents":2566,"Ġdisp":2567,"Ġuseful":2568,"Ġfounded":2569,"Ġexamination":2570,"mitted":2571,"Ġdeduced":2572,"Ġmotives":2573,"Ġclearly":2574,"Ġdistinguished":2575,"Ġindicates":2576,"synthesis":2577,"Ġbrought":2578,"happiness":2579,"categories":2580,"arch":2581,"urs":2582,"Äłun":2583,"hetic":2584,"gg":2585,"Ġcre":2586,"Ġcarr":2587,"Ġscept":2588,"Ġfa":2589,"ures":2590,"Ġaccept":2591,"Ġacqu":2592,"Ġclaims":2593,"cogit":2594,"upon":2595,"Ġtask":2596,"Ġwis":2597,"Ġunable":2598,"Ġspeculation":2599,"Ġperceive":2600,"Ġstatement":2601,"ourselves":2602,"Ġlearn":2603,"Ġleft":2604,"Ġacting":2605,"Ġsciences":2606,"Ġpossession":2607,"Ġattention":2608,"Ġconsideration":2609,"Ġhypothetical":2610,"Ġresults":2611,"Ġcopyright":2612,"Ġspeak":2613,"ĠeBook":2614,"Ġeyes":2615,"Every":2616,"etermin":2617,"my":2618,"val":2619,"speci":2620,"opt":2621,"ven":2622,"ĠÃ":2623,"fac":2624,"him":2625,"tun":2626,"Ġput":2627,"Ġsuffici":2628,"ublic":2629,"gu":2630,"Ġtheology":2631,"Ġdeterminable":2632,"Ġwhom":2633,"Ġwholly":2634,"Ġgen":2635,"ends":2636,"Ġadopt":2637,"Ġmorals":2638,"Ġinterests":2639,"Ġpresupposes":2640,"Ġdirected":2641,"Ġstands":2642,"Ġconsequences":2643,"Ġantinomy":2644,"connection":2645,"Ġbecomes":2646,"lict":2647,"ously":2648,"tot":2649,"Ġopp":2650,"think":2651,"change":2652,"presu":2653,"xi":2654,"Ġgain":2655,"Ġstep":2656,"Ġsimilar":2657,"arks":2658,"Ġlight":2659,"Ġforce":2660,"Ġdrawn":2661,"pic":2662,"Ġmental":2663,"Ġfavour":2664,"ending":2665,"his":2666,"ishing":2667,"Ġcosm":2668,"Ġempty":2669,"unconditioned":2670,"ĠSt":2671,"ortion":2672,"Ġlimitation":2673,"Ġdesires":2674,"Ġexamples":2675,"Ġenable":2676,"Ġmotion":2677,"Ġproblematical":2678,"Ġespecially":2679,"Ġguidance":2680,"mission":2681,"Ġindicate":2682,"Ġattempts":2683,"Ġbodies":2684,"Ġlegislation":2685,"absolutely":2686,"question":2687,"Ġapodeictic":2688,"Ġcircumst":2689,"Ġsignificance":2690,"Ġconcreto":2691,"ively":2692,"Ġold":2693,"izing":2694,"Ġation":2695,"nderstanding":2696,"Ġaccom":2697,"IT":2698,"Ġfig":2699,"posite":2700,"cribed":2701,"more":2702,"rop":2703,"atives":2704,"stood":2705,"Ġprop":2706,"ume":2707,"Ġoccasion":2708,"?âĢĿ":2709,"inction":2710,"Ġopposed":2711,"Ġsure":2712,"ured":2713,"Ġdefinite":2714,"series":2715,"Ġpurposes":2716,"pendence":2717,"END":2718,"Ġconcerns":2719,"Ġcommands":2720,"Ġdogmat":2721,"Ġinstead":2722,"Ġobliged":2723,"Ġdepends":2724,"ĠYou":2725,"philosophy":2726,"Ġjustified":2727,"Ġjudge":2728,"Ġschool":2729,"Ġinsight":2730,"Ġarbitrary":2731,"satisf":2732,"analy":2733,"aint":2734,"interest":2735,"IC":2736,"oly":2737,"origin":2738,"avoid":2739,"arent":2740,"conform":2741,"used":2742,"Ġphilosophical":2743,"Ġhappen":2744,"Ġdestroy":2745,"Ġgeometr":2746,"When":2747,"into":2748,"Ġreach":2749,"Ġdat":2750,"Ġwhy":2751,"Ġhigh":2752,"Ġforth":2753,"ibility":2754,"Ġsyllogism":2755,"Ġphenomenal":2756,"ached":2757,"predic":2758,"ĠWhen":2759,"Ġcommunity":2760,"manence":2761,"Ġsubjectively":2762,"Ġmodes":2763,"contradictory":2764,"Ġassertions":2765,"Ġeasy":2766,"Ġbelieve":2767,"Ġchoice":2768,"belong":2769,"iterary":2770,"Ġwisdom":2771,"icense":2772,"kind":2773,"Ġta":2774,"Ġinter":2775,"ÃĦÅĤÃĦÅĤ":2776,"demonstr":2777,"Ġtimes":2778,"pline":2779,"should":2780,"ms":2781,"Ġwise":2782,"iment":2783,"ately":2784,"udes":2785,"free":2786,"timate":2787,"Ġsought":2788,"angement":2789,"Ġconver":2790,"Ġsubtle":2791,"eduction":2792,"good":2793,"Ġkeep":2794,"Gutenberg":2795,"To":2796,"either":2797,"ged":2798,"same":2799,"Ġir":2800,"Ġfr":2801,"Ġeffort":2802,"Ġdom":2803,"Ġprior":2804,"impossible":2805,"iding":2806,"cipline":2807,"chive":2808,"pposing":2809,"Ġrespecting":2810,"Ġuniversally":2811,"Ġfinds":2812,"Ġwhereby":2813,"Ġreflection":2814,"Ġderive":2815,"Ġextended":2816,"Ġidentity":2817,"Ġopinion":2818,"Ġconstruction":2819,"Ġgenerally":2820,"different":2821,"causality":2822,"Ġinevitably":2823,"faculty":2824,"cess":2825,"imin":2826,"success":2827,"jud":2828,"sens":2829,"asing":2830,"than":2831,"ENTAL":2832,"Ġpe":2833,"emark":2834,"Ġart":2835,"prov":2836,"Ġfully":2837,"real":2838,"Ġcoun":2839,"character":2840,"purpose":2841,"Ġmag":2842,"adv":2843,"could":2844,"Ġautonomy":2845,"Ġcol":2846,"also":2847,"Ġincapable":2848,"Ġbesides":2849,"Ġmaking":2850,"Ġmechan":2851,"cede":2852,"Ġprimal":2853,"Ġannihil":2854,"Ġlay":2855,"ĠĠĠĠĠĠĠ":2856,"those":2857,"Ġexisted":2858,"Ġregion":2859,"whole":2860,"ĠAN":2861,"case":2862,"Ġpractically":2863,"Ġeveryone":2864,"Ġsubordin":2865,"Ġproduces":2866,"Ġcompelled":2867,"Ġassumed":2868,"Ġconclusions":2869,"Ġmetaphysic":2870,"Ġfinally":2871,"Ġcontingency":2872,"Ġindependently":2873,"Ġinquiry":2874,"ĠAnalytic":2875,"Ġcomparison":2876,"intelligible":2877,"Ġutterly":2878,"etermined":2879,"path":2880,"content":2881,"Äłl":2882,"conce":2883,"ief":2884,"enetr":2885,"UT":2886,"itable":2887,"hensible":2888,"ante":2889,"expl":2890,"Re":2891,"greg":2892,"mort":2893,"arge":2894,"struction":2895,"like":2896,"Ġhon":2897,"Ġheter":2898,"Ġattained":2899,"Project":2900,"occ":2901,"Ġ9":2902,"Ġtable":2903,"internal":2904,"Ġtheory":2905,"Ġredu":2906,"Ġdown":2907,"Ġexper":2908,"Ġlabour":2909,"Ġnotions":2910,"usory":2911,"Ġuncondition":2912,"idea":2913,"Ġtransc":2914,"Ġimpl":2915,"anted":2916,"stratum":2917,"ferences":2918,"Ġduties":2919,"sensibility":2920,"fully":2921,"Ġpoints":2922,"Ġcontradictory":2923,"contrary":2924,"Ġconflict":2925,"Ġarrive":2926,"Ġmembers":2927,"Ġfunctions":2928,"substance":2929,"Ġinfinity":2930,"Ġdonations":2931,"Ġcosmical":2932,"non":2933,"abstr":2934,"SC":2935,"ists":2936,"Ġsequ":2937,"compre":2938,"ckon":2939,"crit":2940,"ret":2941,"erit":2942,"acy":2943,"ounce":2944,"great":2945,"iang":2946,"vol":2947,"Ġom":2948,"ification":2949,"irection":2950,"Ġsecure":2951,"anger":2952,"discover":2953,"far":2954,"matter":2955,"ww":2956,"Ġindis":2957,"ings":2958,"ars":2959,"Ġgiving":2960,"Ġaccess":2961,"ĠWith":2962,"former":2963,"aight":2964,"oin":2965,"science":2966,"eriori":2967,"Ġsake":2968,"Ġtowards":2969,"Ġfill":2970,"Ġdirection":2971,"omogeneous":2972,"ash":2973,"Äłb":2974,"Ġcanon":2975,"Ġdef":2976,"Ġdependent":2977,"actions":2978,"Ġtherein":2979,"Ġmeet":2980,"piricism":2981,"Ġmorally":2982,"Ġadm":2983,"been":2984,"ĠWhat":2985,"itherto":2986,"ĠHow":2987,"necessarily":2988,"Ġkinds":2989,"ĠLiterary":2990,"Ġpresupposed":2991,"Ġarrangement":2992,"obser":2993,"Ġspecial":2994,"ĠPractical":2995,"ĠIII":2996,"Ġdialectic":2997,"correspond":2998,"Ġoperations":2999,"Ġsufficiently":3000,"OR":3001,"light":3002,"soci":3003,"hig":3004,"ian":3005,"Ġur":3006,"ND":3007,"when":3008,"alent":3009,"orrow":3010,"Äła":3011,"How":3012,"press":3013,"lev":3014,"Ġprud":3015,"immediate":3016,"elf":3017,"universal":3018,"xiom":3019,"Su":3020,"first":3021,"isible":3022,"Ġprob":3023,"Ġperceived":3024,"Ġaccident":3025,"Ġmaj":3026,"Ġplain":3027,"Ġclass":3028,"Ġcomprehend":3029,"effect":3030,"times":3031,"Ġfan":3032,"Ġnone":3033,"Ġreciproc":3034,"Ġpriv":3035,"Ġexposition":3036,"Ġlos":3037,"urally":3038,"oretic":3039,"usiness":3040,"Ġcomposite":3041,"Ġrise":3042,"external":3043,"Ġevidence":3044,"Ġpurity":3045,"Ġfear":3046,"Ġproduct":3047,"determining":3048,"Ġstraight":3049,"Ġwhereas":3050,"Ġtotal":3051,"Ġequal":3052,"ĠTherefore":3053,"Ġdeny":3054,"Ġobligation":3055,"ĠeBooks":3056,"limited":3057,"Ġpretensions":3058,"Ġanalogy":3059,"Ġignorance":3060,"Ġspontaneity":3061,"ĠArchive":3062,"Ġpsychology":3063,"ĠPrinciples":3064,"Ġcarry":3065,"subsist":3066,"investig":3067,"eem":3068,"contin":3069,"ixed":3070,"den":3071,"eness":3072,"org":3073,"ibnit":3074,"Äłt":3075,"point":3076,"since":3077,"Ġsever":3078,"Ġunited":3079,"Ġsophist":3080,"uthoriz":3081,"struct":3082,"ibnitz":3083,"AS":3084,"Pr":3085,"What":3086,"side":3087,"vious":3088,"Ġic":3089,"Ġfail":3090,"Ġreceived":3091,"Ġdivers":3092,"asant":3093,"Ġassoci":3094,"Ġlove":3095,"ifice":3096,"Ġreasoning":3097,"Ġdefect":3098,"ĠAccording":3099,"sphere":3100,"Ġsubstratum":3101,"Ġcontaining":3102,"existent":3103,"That":3104,"Ġfeelings":3105,"ĠConceptions":3106,"Ġimperatives":3107,"Ġobserve":3108,"Ġattributes":3109,"Ġsignification":3110,"Ġprevent":3111,"Ġprovided":3112,"Ġopen":3113,"Ġanalog":3114,"Ġnoumenon":3115,"pensable":3116,"velop":3117,"Ġultimate":3118,"reng":3119,"mortality":3120,"iangle":3121,"cceed":3122,"hand":3123,"lat":3124,"ired":3125,"tion":3126,"itude":3127,"ĠOR":3128,"eibnitz":3129,"ites":3130,"ator":3131,"attain":3132,"claim":3133,"Ġcontem":3134,"pter":3135,"ization":3136,"missible":3137,"Ġspecies":3138,"power":3139,"Ġsk":3140,"Ġpublic":3141,"amed":3142,"Ġused":3143,"Ġpresence":3144,"Ġassign":3145,"Ġabsurd":3146,"Ġoppon":3147,"Wh":3148,"ild":3149,"ially":3150,"Ġtitle":3151,"Ġshe":3152,"Ġback":3153,"Ġfour":3154,"sthetic":3155,"uty":3156,"ĠIm":3157,"Äłde":3158,"ula":3159,"Ġdet":3160,"ĠFrom":3161,"ĠPro":3162,"Ġplan":3163,"ĠGeneral":3164,"withstanding":3165,"manif":3166,"angu":3167,"ĠUnderstanding":3168,"Ġstandard":3169,"certainty":3170,"Ġassertion":3171,"Ġlonger":3172,"Ġdemonstrate":3173,"Ġcease":3174,"Ġlegislative":3175,"Ġundetermined":3176,"propositions":3177,"Ġthoroughly":3178,"Ġparagraph":3179,"Ġnoumena":3180,"Ġpreviously":3181,"ĠSpace":3182,"Ġcircumstances":3183,"Ġschools":3184,"avoidable":3185,"Ġseveral":3186,"OU":3187,"Ġang":3188,"throp":3189,"Ġate":3190,"opular":3191,"particular":3192,"valid":3193,"air":3194,"uous":3195,"Ġpract":3196,"Äłh":3197,"izes":3198,"Ġworthy":3199,"iberty":3200,"joy":3201,"through":3202,"ustr":3203,"Ġsight":3204,"Ġrec":3205,"Ġhum":3206,"Ġprocess":3207,"truth":3208,"Ġenlar":3209,"Ġjustice":3210,")âĢĶ":3211,"iting":3212,"Ġwrit":3213,"Ġpast":3214,"Ġindu":3215,"Ġinformation":3216,"Ġmention":3217,"Ġrece":3218,"Ġconfin":3219,"Ġhitherto":3220,"Ġasc":3221,"irmed":3222,"Ġunknown":3223,"Ġvent":3224,"ademark":3225,"ounded":3226,"Ġnaturally":3227,"Ġquality":3228,"Ġrelatively":3229,"ĠAt":3230,"Ġchain":3231,"Ġpartly":3232,"ignity":3233,"proceed":3234,"hapter":3235,"Ġminds":3236,"Ġproceeds":3237,"Ġdecide":3238,"Ġdefined":3239,"Ġmetaphysical":3240,"Ġprovide":3241,"Ġdemands":3242,"Ġintuited":3243,"ĠUnited":3244,"Ġdiscuss":3245,"Ġobservation":3246,"Ġfurnish":3247,"ED":3248,"mot":3249,"ts":3250,"Ġturn":3251,"natural":3252,"***":3253,"turn":3254,"inf":3255,"rest":3256,"issim":3257,"ater":3258,"Ġsa":3259,"post":3260,"Ġ=":3261,"theoretical":3262,"Ġdiscern":3263,"well":3264,"adequate":3265,"ug":3266,"Ġheld":3267,"Ġcontrib":3268,"Ġsatisfied":3269,"cribes":3270,"Ġconcerned":3271,"Ġsent":3272,"als":3273,"Ġinsepar":3274,"Ġbene":3275,"Ġborrow":3276,"Ġbusiness":3277,"Ġfirm":3278,"Ġelev":3279,"Ġweight":3280,"Ġsucceed":3281,"Ġcomposition":3282,"Ġpermanence":3283,"Ġstud":3284,"aches":3285,"ĠSo":3286,"ĠSy":3287,"ĠOur":3288,"Ġobst":3289,"Ġobsc":3290,"âĢĿ;":3291,"Ġadmitting":3292,"Ġquantities":3293,"Ġafford":3294,"relate":3295,"Ġwants":3296,"Ġdemonstration":3297,"Ġholds":3298,"Ġproblems":3299,"Ġdenied":3300,"Ġvariety":3301,"everything":3302,"Ġsprings":3303,"example":3304,"Ġignorant":3305,"Ġauthority":3306,"Ġdiscussion":3307,"Ġantecedent":3308,"Ġforeign":3309,"Ġexactly":3310,"quantity":3311,"Ġscepticism":3312,"Ġdomain":3313,"Ġmajor":3314,"nex":3315,"play":3316,"maxim":3317,"TIC":3318,"look":3319,"Ġmist":3320,"Äłcon":3321,"seless":3322,"accord":3323,"ialectic":3324,"ENDENTAL":3325,"vere":3326,"super":3327,"neg":3328,"ert":3329,"before":3330,"conting":3331,"ÄłÄłÄłÄłÄłÄłÄłÄł":3332,"distinguish":3333,"SCENDENTAL":3334,"gl":3335,"gress":3336,"say":3337,"Ġpun":3338,"uring":3339,"Ġunderstood":3340,"indic":3341,"Ġproduction":3342,"Ġexpected":3343,"Ġadded":3344,"By":3345,"ople":3346,"Ġaxiom":3347,"rees":3348,"itled":3349,"least":3350,"Ġdest":3351,"Ġdanger":3352,"entific":3353,"Ġlost":3354,"Ġlower":3355,"ceptivity":3356,"ÄłA":3357,"Äłex":3358,"ified":3359,"oliness":3360,"ĠĠĠĠĠĠĠĠĠ":3361,"Ġcap":3362,"Ġpossibly":3363,"Ġimmortality":3364,"Ġperform":3365,"Ġapparent":3366,"ĠPh":3367,"aged":3368,"Ġscientific":3369,"Ġpreser":3370,"Ġapplies":3371,"ĠDe":3372,"Ġimpul":3373,"Ġconstitutive":3374,"Ġadmits":3375,"Ġpresupposition":3376,"Ġillusory":3377,"Ġindif":3378,"Ġafterwards":3379,"Ġantit":3380,"Ġ200":3381,"Ġinstance":3382,"connected":3383,"Ġspeaking":3384,"Ġinquiries":3385,"Ġabsence":3386,"attempt":3387,"Ġearth":3388,"RANSCENDENTAL":3389,"Ġdata":3390,"Ġefforts":3391,"issimum":3392,"Con":3393,"aff":3394,"draw":3395,"Ġgl":3396,"cies":3397,"On":3398,"psych":3399,"stant":3400,"igion":3401,"mind":3402,"Ġeng":3403,"oubted":3404,"ÄłP":3405,"Ġseen":3406,"ggest":3407,"Äło":3408,"Ġintention":3409,"Ġtry":3410,"Ġqual":3411,"physical":3412,"appre":3413,"after":3414,"ico":3415,"urity":3416,"actory":3417,"Ġnecessit":3418,"Ġimage":3419,"arer":3420,"Ġremo":3421,"Ġapplicable":3422,"cul":3423,"Ġpay":3424,"Ġinference":3425,"Ġmark":3426,"edience":3427,"Ġeth":3428,"Ġreckon":3429,"Ġdignity":3430,"utation":3431,"Ġproves":3432,"Ġtriangle":3433,"Ġstreng":3434,"oney":3435,"ĠNay":3436,"Ġsubsum":3437,"ĠCosmological":3438,"icians":3439,"Ġexamine":3440,"Ġoriginate":3441,"Ġdivided":3442,"Ġdeduce":3443,"Ġconclude":3444,"Ġsecondly":3445,"Ġindirect":3446,"beings":3447,"Ġdemonstrated":3448,"Ġequally":3449,"Ġrenders":3450,"Ġsmallest":3451,"completely":3452,"Ġendeavours":3453,"Ġconviction":3454,"Ġexhibit":3455,"Ġraised":3456,"mathematics":3457,"worthy":3458,"Ġlearned":3459,"Ġdiversity":3460,"ST":3461,"Ġfit":3462,"Äłe":3463,"consequ":3464,"umer":3465,"Ġity":3466,"irit":3467,"expect":3468,"express":3469,"JEC":3470,"Ġcr":3471,"Ġanci":3472,"ITY":3473,"Ġ7":3474,"Ġauthoriz":3475,"pri":3476,"again":3477,"Ġestim":3478,"Ġesca":3479,"legisl":3480,"Ġfigure":3481,".)":3482,"As":3483,"_.":3484,"lies":3485,"ains":3486,"Ġaggreg":3487,"subjective":3488,"independent":3489,"Ġproportion":3490,"manifold":3491,",\"":3492,"Transcendental":3493,"ges":3494,"gutenberg":3495,"overy":3496,"take":3497,"inasmuch":3498,"Ġbest":3499,"Ġmerit":3500,"Ġmoney":3501,"another":3502,"Ġreceive":3503,"imag":3504,"Ġforces":3505,"thus":3506,"Ġdevelop":3507,"Ġspirit":3508,"Ġempiricism":3509,"orious":3510,"ĠPU":3511,"ĠPRO":3512,"Ġrepresents":3513,"ĠĠĠĠĠĠĠĠĠĠĠĠĠĠĠĠĠĠ":3514,"ĠNo":3515,"Ġsubl":3516,"imitive":3517,"Ġdifferences":3518,"ĠHere":3519,"Ġproceeding":3520,"Ġanalytic":3521,"Ġreflect":3522,"regress":3523,"Ġbegins":3524,"Ġexpressions":3525,"Ġhypotheses":3526,"cisely":3527,"Ġdegrees":3528,"Ġinvestigations":3529,"going":3530,"Ġposteriori":3531,"Ġerrors":3532,"Ġinvolves":3533,"Ġinferred":3534,"feel":3535,"nitude":3536,"Ġprofess":3537,"Ġpostulate":3538,"himself":3539,"ĠStates":3540,"Ġprivate":3541,"Ġloss":3542,"subsistent":3543,"anguage":3544,"cern":3545,"jun":3546,"Ġum":3547,"you":3548,"Ġver":3549,"Ġol":3550,"ERG":3551,"oined":3552,"vice":3553,"step":3554,"Ġont":3555,"Ġformed":3556,"proof":3557,"Ġguard":3558,"Ġaccomp":3559,"BERG":3560,"oper":3561,"por":3562,"Ġ6":3563,"assert":3564,"Ġusu":3565,"Ġones":3566,"Äłr":3567,"Äłv":3568,"Äłpr":3569,"ify":3570,"cond":3571,"while":3572,"Ġconsistent":3573,"Ġcontinue":3574,"Ġallowed":3575,"ares":3576,"ik":3577,"Ġpopular":3578,"Ġren":3579,"Ġrep":3580,"argum":3581,"ased":3582,"Ġhabit":3583,"notion":3584,"Ġobserved":3585,"Ġinvolved":3586,"Ġleads":3587,"employment":3588,"Hence":3589,"two":3590,"Ġtheoretic":3591,"ref":3592,"Ġwishes":3593,"Ġsign":3594,"Ġincre":3595,"ouble":3596,"Ġreturn":3597,"entially":3598,"Ġholiness":3599,"Ġascribe":3600,"Ġanimal":3601,"Ġexc":3602,"Ġnotwithstanding":3603,"Äłdis":3604,"ĠTime":3605,"Ġobjections":3606,"Ġcomes":3607,"ideas":3608,"Ġanyone":3609,"Ġforming":3610,"supp":3611,"Ġshort":3612,"Ġsubjects":3613,"Ġdisappear":3614,"ternally":3615,"Ġserves":3616,"Ġplaces":3617,"Ġfollowed":3618,"Ġremarks":3619,"ĠHume":3620,"Ġactivity":3621,"Ġfew":3622,"Ġextensive":3623,"Ġthinks":3624,"Ġrealissimum":3625,"Ġenter":3626,"determine":3627,"Ġincluded":3628,"Ġshows":3629,"Ġrequirement":3630,"Ġappearances":3631,"Ġproofs":3632,"ficial":3633,"Ġexpresses":3634,"Ġsatisfy":3635,"Ġnegation":3636,"Ġcoexistence":3637,"Ġinquire":3638,"Ġprecedes":3639,"Ġpromise":3640,"ĠYOU":3641,"ĠIdeas":3642,"Ġcheck":3643,"cogitate":3644,"ĠÃ¦":3645,"Ġpeople":3646,"Reason":3647,"Ġindispensable":3648,"fortun":3649,"pret":3650,"oblig":3651,"bid":3652,"ained":3653,"andon":3654,"ember":3655,"Ġsearch":3656,"ician":3657,"hypothe":3658,"tt":3659,"Ġways":3660,"plic":3661,"ultiv":3662,"conscious":3663,"Ġstru":3664,"human":3665,"itect":3666,"itimate":3667,"Ġmo":3668,"Ġexception":3669,".\"":3670,"SE":3671,"sely":3672,"Ġoccur":3673,"Ġavail":3674,"Ġfulf":3675,"Ġblind":3676,"From":3677,"til":3678,"Ġcal":3679,"Ġsays":3680,"Ġbad":3681,"Ġbold":3682,"Ġmin":3683,"Ġmult":3684,"lease":3685,"Ġbeh":3686,"Ġhomogeneous":3687,"Ġpros":3688,"Ġexec":3689,"Ġextr":3690,"Ġliberty":3691,"istance":3692,"âĢĻ":3693,"Ġdev":3694,"olution":3695,"Ġviz":3696,"Ġimmanent":3697,"Ġpersu":3698,"Ġpermission":3699,"evertheless":3700,"Ġdiscipline":3701,"Ġdisplay":3702,"Ġprecede":3703,"finitum":3704,"Ġendless":3705,"Ġcausal":3706,"ĠGUT":3707,"ĠCh":3708,"Ġobedience":3709,"ishment":3710,"Ġrespects":3711,"Ġdiscovery":3712,"Ġfee":3713,"Ġenjoy":3714,"ĠEm":3715,"Ġentitled":3716,"Ġattend":3717,"ĠDo":3718,"ĠDiv":3719,"determines":3720,"Ġstrong":3721,"Ġconsiderations":3722,"Ġrefund":3723,"Ġcommonly":3724,"ĠLeibnitz":3725,"Ġcomply":3726,"Ġassumption":3727,"ENBERG":3728,"Ġpersons":3729,"Ġguide":3730,"Ġschemat":3731,"Ġcopies":3732,"morality":3733,"Ġcoexistent":3734,"Ġpromot":3735,"regards":3736,"diffic":3737,"Ġchoose":3738,"Ġcontinuous":3739,"Ġinfinitum":3740,"inclination":3741,"Ġconstructed":3742,"Ġintroduce":3743,"consistent":3744,"Ġprecepts":3745,"Ġseparate":3746,"Ġcreature":3747,"Ġstatements":3748,"Ġgenu":3749,"Ġgeometry":3750,"conceit":3751,"Ġunconditional":3752,"Ġsophistical":3753,"Ġassociated":3754,"Ġopponent":3755,"JECT":3756,"ĠGUTENBERG":3757,"che":3758,"Ġion":3759,"inct":3760,"exer":3761,"PL":3762,"dog":3763,"ustom":3764,"unte":3765,"Ġmediate":3766,"iol":3767,"Ġid":3768,"ati":3769,"ank":3770,"conci":3771,"concern":3772,"defin":3773,"Ġplay":3774,"proble":3775,"EM":3776,"found":3777,"line":3778,"Ġ0":3779,"ÄłS":3780,"Äłw":3781,"depend":3782,"Ġaccur":3783,"observ":3784,"Ġangles":3785,"IR":3786,"signif":3787,"inqu":3788,"infinite":3789,"atio":3790,"ors":3791,"Ġholy":3792,"Ġprim":3793,"Ġord":3794,"pleasure":3795,"order":3796,"Ġlea":3797,"appro":3798,"Ġderiv":3799,"Ġspecif":3800,"influence":3801,"contingent":3802,"foundation":3803,"pass":3804,"were":3805,"Ġtw":3806,"hesis":3807,"inter":3808,"inary":3809,"Ġwond":3810,"Ġcost":3811,"Ġpaid":3812,"Ġinferences":3813,"Ġbu":3814,"leological":3815,"Ġreceptivity":3816,"Ġconstant":3817,"Ġhist":3818,"imer":3819,"owed":3820,"Ġsuggest":3821,"Ġreasons":3822,"Ġunavoidable":3823,"trans":3824,"Ġheav":3825,"Ġimpossibility":3826,"Ġreligion":3827,"nthetical":3828,"Ġknows":3829,"straint":3830,"Ġparty":3831,"ĠSolution":3832,"solution":3833,"Ġgoes":3834,"aching":3835,"ĠEpic":3836,"exists":3837,"anged":3838,"Ġconstituted":3839,"ĠMor":3840,"Ġcommonest":3841,"ĠLicense":3842,"Ġassuming":3843,"Ġattainment":3844,"Ġdefine":3845,"Ġimagine":3846,"cognitions":3847,"Ġcorresponds":3848,"Ġutility":3849,"Ġidealism":3850,"Ġremarkable":3851,"regarded":3852,"Ġfalls":3853,"intel":3854,"judgements":3855,"Ġmedium":3856,"ART":3857,"ruit":3858,"nevertheless":3859,"application":3860,"follows":3861,"Ġadvanced":3862,"metaphysics":3863,"ursive":3864,"totality":3865,"Ġtax":3866,"Ġmagnitude":3867,"Ġmechanism":3868,"Ġhonest":3869,"Ġexperiment":3870,"Ġimplies":3871,"corresponding":3872,"investigation":3873,"Ġsafe":3874,"Ġstudy":3875,"accordance":3876,"Ġantithesis":3877,"plicity":3878,"IL":3879,"OG":3880,"view":3881,"oured":3882,"ÄłC":3883,"addition":3884,"Ġusing":3885,"scept":3886,"alogism":3887,"ndered":3888,"second":3889,"ili":3890,"deg":3891,"olog":3892,"establ":3893,"Ġappe":3894,"ĠNO":3895,"intellectual":3896,"PR":3897,"equ":3898,"find":3899,"pot":3900,"Ġforward":3901,"conv":3902,"concept":3903,"Ġgrad":3904,"Ġacts":3905,"Ġaware":3906,"brated":3907,"logical":3908,"nor":3909,"Ġtal":3910,"inst":3911,"Ġfortun":3912,"trodu":3913,"Ġdoctr":3914,"Ġcharge":3915,"preced":3916,"Ġsubsist":3917,"Ġhappy":3918,"ĠEvery":3919,"Ġesteem":3920,"ables":3921,"Ġillustr":3922,"Ġphysics":3923,"Ġconvin":3924,"Ġtransgress":3925,"Ex":3926,"inions":3927,"lebrated":3928,"Ġaside":3929,"Ġlist":3930,"Ġlanguage":3931,"Ġweak":3932,"Ġproposed":3933,"Ġreasonable":3934,"ĠTO":3935,"Ġuntil":3936,"ĠĠĠĠĠĠĠĠĠĠĠĠ":3937,"Ġtrademark":3938,"Ġhead":3939,"Ġimit":3940,"Ġpermit":3941,"Ġformula":3942,"presented":3943,"Ġadapt":3944,"etent":3945,"Ġarising":3946,"Ġsometimes":3947,"ĠNat":3948,"ĠNot":3949,"Ġfrequ":3950,"beyond":3951,"These":3952,"Ġlimitations":3953,"Ġsaying":3954,"ĠEven":3955,"Ġattached":3956,"ĠDeduction":3957,"Ġsecret":3958,"Ġconcluded":3959,"Ġconfess":3960,"Ġaffirmed":3961,"Ġdesired":3962,"Ġfinal":3963,"Ġessentially":3964,"Ġdifficult":3965,"Ġmaterials":3966,"Ġpromote":3967,"Ġcircle":3968,"considered":3969,"Ġdistribution":3970,"substances":3971,"Ġcombination":3972,"Ġoccupied":3973,"systematic":3974,"division":3975,"satisfaction":3976,"Ġsyllogisms":3977,"Ġsubordinate":3978,"highest":3979,"immediately":3980,"Ġrecourse":3981,"Ġventure":3982,"Ġinseparably":3983,"Ġaxioms":3984,"Ġengaged":3985,"junctive":3986,"Ġontological":3987,"ĠÃ¦sthetic":3988,"Ġleaves":3989,"Ġled":3990,"Ġability":3991,"oyal":3992,"main":3993,"rupt":3994,"IM":3995,"dedu":3996,"fact":3997,"show":3998,"tal":3999,"ivalent":4000,"vey":4001,"ilst":4002,"common":4003,"ream":4004,"ened":4005,"attrib":4006,"ceasing":4007,"ĠIV":4008,"positive":4009,"mention":4010,"Ġ15":4011,"distinction":4012,"philosopher":4013,"require":4014,"orizon":4015,"unteers":4016,"fall":4017,"ling":4018,"Ġprot":4019,"imper":4020,"Ġlines":4021,"Ġget":4022,"Ġvan":4023,"Ġprep":4024,"ĠWh":4025,"Ġsubstant":4026,"Ġconfirm":4027,"Ġanticip":4028,"Ġ20":4029,"Ġprudence":4030,"Ġcontempl":4031,"Ġskill":4032,"Of":4033,"dec":4034,"duty":4035,"fundamental":4036,"give":4037,"rong":4038,"rule":4039,"yet":4040,"Ġical":4041,"inity":4042,"Ġobe":4043,"itas":4044,"Ġwide":4045,"Ġsac":4046,"Ġinsufficient":4047,"ingly":4048,"Ġhind":4049,"Ġprimitive":4050,"Ġascribed":4051,"Ġsuitable":4052,"urious":4053,"ĠIN":4054,"ulate":4055,"Ġunlimited":4056,"Ġcompl":4057,"Ġmeasure":4058,"Ġheart":4059,"Ġimposes":4060,"Ġperi":4061,"acity":4062,"Ġaddu":4063,"Ġchapt":4064,"ĠSEC":4065,"ressions":4066,"ĠInt":4067,"Ġcomplex":4068,"ĠIts":4069,"ĠWhether":4070,"Ġgoal":4071,"Ġgover":4072,"serted":4073,"Ġemploying":4074,"ĠHis":4075,"Ġprescribes":4076,"ĠDI":4077,"ĠDis":4078,"determinations":4079,"Ġincluding":4080,"Ġcharacteristic":4081,"Ġdeclar":4082,"Ġdiscovering":4083,"OOF":4084,"Ġmoder":4085,"Ġwanting":4086,"parts":4087,"Ġinvestigate":4088,"Ġexplained":4089,"Ġgenera":4090,"Ġfalla":4091,"Ġpathological":4092,"Ġaffirmative":4093,"Ġadditional":4094,"Ġdefinitions":4095,"Ġjustify":4096,"indeed":4097,"Ġobtained":4098,"examination":4099,"requires":4100,"Ġschol":4101,"Ġprofound":4102,"Ġantecedes":4103,"applied":4104,"properly":4105,"Ġpsychological":4106,"Ġreferred":4107,"Ġdeclared":4108,"Ġroot":4109,"Ġorganized":4110,"ĠKant":4111,"Ġcarefully":4112,"Ġcreation":4113,"total":4114,"comprehensible":4115,"Ġreciprocal":4116,"ASON":4117,"Ġdefective":4118,"lato":4119,"Ġpractice":4120,"apprehension":4121,"ĠPROJECT":4122,"Ġsigns":4123,"Ġgenuine":4124,"PROOF":4125,"direct":4126,"nce":4127,"restrict":4128,"itious":4129,"Ġated":4130,"begin":4131,"import":4132,"doubt":4133,"sing":4134,"ery":4135,"suffici":4136,"ACE":4137,"Ġil":4138,"vers":4139,"Ġations":4140,"transcendent":4141,"ixt":4142,"anteced":4143,"CT":4144,"PRE":4145,"iences":4146,"uel":4147,"Ġair":4148,"enomen":4149,"anthrop":4150,"entire":4151,"theology":4152,"chitect":4153,"among":4154,"except":4155,"who":4156,"unal":4157,"Ġclose":4158,"work":4159,"analytical":4160,"advantage":4161,"Ġomni":4162,"//":4163,"According":4164,"big":4165,"element":4166,"labour":4167,"reme":4168,"ick":4169,"orical":4170,"Ġfruit":4171,"Ġdur":4172,"ÄłD":4173,"person":4174,"Ġattr":4175,"posing":4176,"Ġsym":4177,"ants":4178,"Ġdesc":4179,"Ġcommun":4180,"ĠREM":4181,"abstract":4182,"://":4183,"And":4184,"ATION":4185,"RI":4186,"ging":4187,"mode":4188,"ox":4189,"opposition":4190,"Ġ8":4191,"Ġtre":4192,"Ġtill":4193,"really":4194,"Ġwar":4195,"Ġsound":4196,"alog":4197,"Ġinj":4198,"Ġinstruction":4199,"Ġefficient":4200,"lead":4201,"Ġreject":4202,"Ġwhilst":4203,"aries":4204,"Ġhyp":4205,"iments":4206,"Ġforbid":4207,"Ġsuff":4208,"Ġspaces":4209,"Ġtrouble":4210,"ĠBesides":4211,"Ġabandon":4212,"Ġpermitted":4213,"antages":4214,"Ġstart":4215,"Ġrelated":4216,"Ġevid":4217,"acing":4218,"ĠPhenomen":4219,"soever":4220,"Ġprejud":4221,"ĠĠĠĠĠĠĠĠĠĠĠĠĠĠĠĠĠĠĠ":4222,"Ġthence":4223,"Ġwhence":4224,"Ġgranted":4225,"ĠCON":4226,"Ġobvious":4227,"Ġconnects":4228,"Ġcommence":4229,"Ġremove":4230,"otherwise":4231,"Ġindependence":4232,"ĠEgo":4233,"existing":4234,"ĠDialectic":4235,"Ġinclude":4236,"cognize":4237,"Ġsensations":4238,"Ġrequirements":4239,"Ġdivine":4240,"Ġcontradictions":4241,"Ġsupply":4242,"Ġexpressed":4243,"intuitions":4244,"made":4245,"Ġconfidence":4246,"Ġconfused":4247,"ĠOnly":4248,"Ġacute":4249,"Ġattributed":4250,"Ġherself":4251,"Ġdifficulties":4252,"Ġdoubts":4253,"Ġcelebrated":4254,"Ġaffirmation":4255,"objectively":4256,"Ġsmaller":4257,"Ġteleological":4258,"Ġoperation":4259,"ARK":4260,"Ġcombined":4261,"ĠIdea":4262,"Ġoccupies":4263,"Ġraise":4264,"following":4265,"ĠJudgement":4266,"perfectly":4267,"ĠREASON":4268,"Ġdeserves":4269,"Everything":4270,"species":4271,"Ġgenus":4272,"changeable":4273,"Ġaccompl":4274,"conformity":4275,"Ġconversely":4276,"Ġsubordinated":4277,"Ġheteronomy":4278,"Ġreduce":4279,"abstraction":4280,"Ġsequence":4281,"ĠWithout":4282,"Ġadmir":4283,"ĠSynthetical":4284,"Ġdestination":4285,"Ġimpulses":4286,"Ġescape":4287,"Ġaggregate":4288,"Ġoneself":4289,"Ġminor":4290,"Ġschemata":4291,"Ġperiod":4292,"gener":4293,"Ġve":4294,"Ġtrib":4295,"correct":4296,"AM":4297,"Ġive":4298,"ibly":4299,"assum":4300,"similar":4301,"ugment":4302,"An":4303,"With":4304,"Ġage":4305,"itions":4306,"Äłen":4307,"pleasant":4308,"Ġspect":4309,"ialectical":4310,"ÃĦÅĤÃĦÅĤÃĦÅĤÃĦÅĤ":4311,"occup":4312,"maintain":4313,"aps":4314,"aenomen":4315,"bod":4316,"ger":4317,"Ġies":4318,"itio":4319,"atus":4320,"Ġcur":4321,"statement":4322,"ÄłM":4323,"econd":4324,"abs":4325,"acher":4326,"Ġadmissible":4327,"compar":4328,"iance":4329,"Ġtyp":4330,"Ġcultiv":4331,"Ġsection":4332,"Ġisol":4333,"omp":4334,"urality":4335,"Äłn":4336,"concl":4337,"Ġalter":4338,"Ġrid":4339,"supposition":4340,"Ġmortal":4341,"comb":4342,"Ġ10":4343,"relations":4344,"Ġsatisfactory":4345,"Ġsett":4346,"Ġlegitimate":4347,"Ġlying":4348,"Ġcounter":4349,"VE":4350,"both":4351,"each":4352,"face":4353,"gain":4354,"make":4355,"Ġtast":4356,"isable":4357,"isibility":4358,"Ġwrong":4359,"Ġsides":4360,"Ġslight":4361,"orm":4362,"Ġfive":4363,"sec":4364,"ouse":4365,"Ġrendered":4366,"Ġdict":4367,"state":4368,"utions":4369,"ected":4370,"Ġhy":4371,"Ġasserted":4372,"theological":4373,"Ġexposed":4374,"Ġlose":4375,"Ġloc":4376,"Ġsusp":4377,"quite":4378,"Äłan":4379,"Ġpropose":4380,"Ġobjection":4381,"Ġdeep":4382,"Ġalong":4383,"above":4384,"Ġunceasing":4385,"umber":4386,"true":4387,"Ġrank":4388,"Ġmeant":4389,"Ġimposed":4390,"Ġseat":4391,"Ġstated":4392,"Ġrelating":4393,"ĠPlato":4394,"Ġdisjunctive":4395,"Ġpremis":4396,"Ġprecisely":4397,"Ġchimer":4398,"Ġparties":4399,"ĠSince":4400,"ĠNe":4401,"ĠNevertheless":4402,"ĠObject":4403,"Ġservice":4404,"Ġpresenting":4405,"astic":4406,"Ġgoodness":4407,"Ġoutside":4408,"Ġpossessed":4409,"ounces":4410,"Ġimpart":4411,"ĠMat":4412,"ĠMetaphys":4413,"Ġcompare":4414,"Ġadvantages":4415,"Ġillusions":4416,"Ġrightly":4417,"Ġedifice":4418,"Ġextending":4419,"Ġconcerning":4420,"certainly":4421,"Ġmodality":4422,"Ġutmost":4423,"Ġequivalent":4424,"Ġsignifies":4425,"completeness":4426,"simple":4427,"Ġharmonize":4428,"Ġundoubted":4429,"Ġconjoined":4430,"Ġtreats":4431,"Ġdistribute":4432,"Ġdistributing":4433,"Ġcriteria":4434,"command":4435,"Ġstrictly":4436,"Ġexhibits":4437,"Ġexcluded":4438,"Ġblame":4439,"Ġpursue":4440,"Ġforegoing":4441,"Ġdelusion":4442,"Ġapproxim":4443,"summum":4444,"ĠSpeculative":4445,"consideration":4446,"ĠPrinciple":4447,"contains":4448,"contained":4449,"grounds":4450,"Ġadopted":4451,"thinking":4452,"predicates":4453,"belonging":4454,"succession":4455,"sensation":4456,"Ġannihilated":4457,"explanation":4458,"Ġsequel":4459,"ĠAccordingly":4460,"Ġconfine":4461,"Ġborrowed":4462,"Ġobstac":4463,"Ġpreserve":4464,"Ġstrength":4465,"hypothesis":4466,"ttp":4467,"Ġbehind":4468,"exercise":4469,"degree":4470,"Ġgovern":4471,"ixture":4472,"Ġduration":4473,"QU":4474,"ier":4475,"oot":4476,"¢Ä":4477,"Ġmon":4478,"set":4479,"ÄłE":4480,"prop":4481,"distrib":4482,"affirm":4483,"Ġast":4484,"orph":4485,"sole":4486,"intu":4487,"col":4488,"clear":4489,"iable":4490,"mod":4491,"sour":4492,"Ġness":4493,"iform":4494,"answ":4495,"progress":4496,"Ġpleasant":4497,"need":4498,"ARRAN":4499,"author":4500,"co":4501,"cks":4502,"fit":4503,"prom":4504,"ri":4505,"alt":4506,"see":4507,"ott":4508,"pright":4509,"uncondition":4510,"ĠON":4511,"avoured":4512,"aneous":4513,"ogeneity":4514,"inquir":4515,"Here":4516,"deduction":4517,"ee":4518,"Ġtell":4519,"Ġtaking":4520,"icion":4521,"Ġbre":4522,"utable":4523,"Ġlink":4524,"construction":4525,"ilis":4526,"Ġunion":4527,"clos":4528,"Ġarchitect":4529,"ope":4530,"method":4531,"Ġcogitating":4532,"Ġattempted":4533,"Ġapprehend":4534,"ashion":4535,"expected":4536,"Ġfulfil":4537,"Chapter":4538,"God":4539,"Let":4540,"Qu":4541,"SI":4542,"dialectical":4543,"might":4544,"nay":4545,"Ġtend":4546,"Ġthesis":4547,"reference":4548,"itate":4549,"Ġcle":4550,"Ġpenetr":4551,"Ġinward":4552,"Ġfict":4553,"Ġresol":4554,"Ġrecomm":4555,"Ġreplace":4556,"Ġconstraint":4557,"Ġdr":4558,"Ġdim":4559,"Ġdream":4560,"Ġbear":4561,"arbitr":4562,"Ġhid":4563,"Ġhard":4564,"Ġlaid":4565,"result":4566,"Äłst":4567,"ĠTRANSCENDENTAL":4568,"conceived":4569,"Ġdepr":4570,"Ġintended":4571,"usive":4572,"illusion":4573,"Ġunworthy":4574,"Ġthereto":4575,"ofold":4576,"Ġundert":4577,"Ġwills":4578,"Ġanywhere":4579,"Ġformat":4580,"Ġstop":4581,"ĠAuthor":4582,"unless":4583,"Ġsubjected":4584,"ĠPer":4585,"Ġdisclaim":4586,"Ġprefer":4587,"ternity":4588,"ĠSto":4589,"Ġwhatsoever":4590,"Ġnearer":4591,"Ġcompletion":4592,"Ġgrant":4593,"ĠCategor":4594,"ĠChapter":4595,"serve":4596,"Ġthoughts":4597,"Ġconsiders":4598,"Ġenables":4599,"ĠEBOOK":4600,"Ġpresum":4601,"Ġambig":4602,"manner":4603,"manuel":4604,"Ġoriginated":4605,"ĠMy":4606,"evident":4607,"ĠLogic":4608,"Ġcompared":4609,"Ġattaining":4610,"Ġbeforehand":4611,"empirically":4612,"ĠConception":4613,"Ġsets":4614,"Ġdistinguishing":4615,"Ġpersonal":4616,"Ġnumer":4617,"aneously":4618,"ailed":4619,"anything":4620,"Ġopinions":4621,"Ġexpectation":4622,"extension":4623,"Ġallowable":4624,"Ġpromises":4625,"Ġdependence":4626,"regarding":4627,"difference":4628,"Ġmaintained":4629,"Ġteach":4630,"Ġteaches":4631,"Ġbringing":4632,"Ġcorrectness":4633,"limits":4634,"Ġasked":4635,"Ġseeking":4636,"Ġrecognize":4637,"Ġrecognized":4638,"Ġspontaneous":4639,"ĠĠĠĠĠĠĠĠĠĠĠĠĠĠĠĠĠĠĠĠĠĠĠ":4640,"ĠIdeal":4641,"including":4642,"Ġroom":4643,"ĠJust":4644,"distinguished":4645,"mathematical":4646,"insic":4647,"presupposes":4648,"predicate":4649,"Ġannihilate":4650,"Ġhonour":4651,"Ġheterogeneous":4652,"Ġtranscend":4653,"Ġprobably":4654,"Ġanalogies":4655,"ĠImmanuel":4656,"validity":4657,"Ġmentioned":4658,"Ġreceiving":4659,"drawn":4660,"Ġremoved":4661,"Ġethics":4662,"Ġindirectly":4663,"against":4664,"ĠPURE":4665,"Ġcalcul":4666,"depends":4667,"Ġdoctrines":4668,"Ġadapted":4669,"Ġchapter":4670,"ĠJudgements":4671,"Ġtaste":4672,"Ġhyper":4673,"Ġsuspicion":4674,"ched":4675,"inc":4676,"Ġog":4677,"enlar":4678,"ivable":4679,"Äład":4680,"Äłpre":4681,"continu":4682,"AN":4683,"RIN":4684,"rist":4685,"Ġence":4686,"err":4687,"anticip":4688,"obtain":4689,"grad":4690,"ock":4691,"OM":4692,"af":4693,"ius":4694,"reciproc":4695,"erable":4696,"Äłsu":4697,"indis":4698,"els":4699,"PH":4700,"mo":4701,"Ġions":4702,"render":4703,"Ġist":4704,"entia":4705,"Äłim":4706,"Ġproving":4707,"orily":4708,"Ġjoin":4709,"Ġactive":4710,"Ġready":4711,"Ġcomprehensible":4712,"Ġaccompan":4713,"UC":4714,"iating":4715,"long":4716,"alth":4717,"Ġann":4718,"iring":4719,"ulae":4720,"Ġpropri":4721,"ĠTr":4722,"ilities":4723,"Ġembr":4724,"else":4725,"undred":4726,"Ġerrone":4727,"metaphysic":4728,"negative":4729,"Ġfortune":4730,"imperative":4731,"78":4732,"FACE":4733,"cop":4734,"coun":4735,"cosmological":4736,"electronic":4737,"fers":4738,"iology":4739,"lied":4740,"member":4741,"number":4742,"opposite":4743,"was":4744,"Ġtalent":4745,"Ġaugment":4746,"Ġtheological":4747,"isions":4748,"aticism":4749,"Ġcent":4750,"Ġinadequate":4751,"Ġfashion":4752,"anations":4753,"Ġeternity":4754,"Ġreve":4755,"Ġrepro":4756,"Ġreached":4757,"Ġdam":4758,"Ġdays":4759,"Ġdimin":4760,"Ġhorizon":4761,"Ġpra":4762,"imity":4763,"Ġlarge":4764,"Ġwelf":4765,"Ġforced":4766,"urus":4767,"istics":4768,"Ġdeath":4769,"Ġdepart":4770,"Ġalleg":4771,"Ġalmost":4772,"oreover":4773,"illed":4774,"Ġuncertain":4775,"Ġspite":4776,"esty":4777,"Ġdoll":4778,"ĠBoth":4779,"admissible":4780,"Ġshap":4781,"ĠFirst":4782,"ĠFreedom":4783,"Ġideality":4784,"Ġrelative":4785,"Ġchance":4786,"Ġsomewhat":4787,"agree":4788,"ĠOr":4789,"material":4790,"ĠCom":4791,"Ġemploys":4792,"Ġdiscursive":4793,"Ġindetermin":4794,"Ġindefinite":4795,"ĠHim":4796,"Ġextreme":4797,"Ġenounce":4798,"understood":4799,"Ġoutward":4800,"Ġassured":4801,"Ġproducing":4802,"Ġsynthetically":4803,"Ġincludes":4804,"Ġimply":4805,"Ġviewed":4806,"Ġcorrelate":4807,"Ġestimate":4808,"Ġpowerful":4809,"ĠLet":4810,"Ġseeks":4811,"Ġdecided":4812,"ĠUse":4813,"Ġclearness":4814,"Ġrights":4815,"cribing":4816,"Ġextends":4817,"Ġanswered":4818,"Ġexerc":4819,"Ġreadily":4820,"Ġcommanded":4821,"Ġvirtuous":4822,"ĠTHIS":4823,"Ġoverstep":4824,"Ġholding":4825,"Ġdoubtful":4826,"purely":4827,"Ġpasses":4828,"Ġpreceded":4829,"Ġprogression":4830,"neither":4831,"Ġpeculiarity":4832,"Ġdrawing":4833,"discovered":4834,"Ġanalytically":4835,"categorical":4836,"Ġteacher":4837,"independence":4838,"Ġparalogism":4839,"Ġmomenta":4840,"ĠExperience":4841,"Ġestablishment":4842,"causes":4843,"ĠĠĠĠĠĠĠĠĠĠĠĠĠĠĠĠĠĠĠĠĠ":4844,"ĠĠĠĠĠĠĠĠĠĠĠĠĠĠĠĠĠĠĠĠĠĠ":4845,"Ġdestru":4846,"ĠVII":4847,"Ġchecks":4848,"Ġdeclares":4849,"Ġorganon":4850,"constitute":4851,"constitutive":4852,"Ġdeserve":4853,"Ġdispute":4854,"Ġdisputes":4855,"Ġcreated":4856,"Ġsceptical":4857,"Ġfaith":4858,"myself":4859,"special":4860,"Ġgained":4861,"Ġdogmatic":4862,"Ġhighly":4863,"senses":4864,"Ġmagn":4865,"Ġcolour":4866,"ĠANY":4867,"Ġreduced":4868,"Ġunconditionally":4869,"critical":4870,"ĠHowever":4871,"higher":4872,"Supreme":4873,"Ġaccidental":4874,"Ġfirmly":4875,"Ġobscurity":4876,"nexion":4877,"Ġindifference":4878,"Ġindifferent":4879,"psychology":4880,"legislation":4881,"Ġdisappears":4882,"Ġavailable":4883,"Ġenjoyment":4884,"chety":4885,"definition":4886,"observation":4887,"Ġwonder":4888,"Ġbuild":4889,"Ġhistory":4890,"ĠNature":4891,"mentioned":4892,"important":4893,"PREFACE":4894,"Accordingly":4895,"ĠREMARK":4896,"Ġtreated":4897,"Ġwarning":4898,"ĠPhenomena":4899,"Ġtribunal":4900,"aenomenon":4901,"Ġslightest":4902,"Ġwelfare":4903,"affect":4904,"vari":4905,"Ġ-":4906,"Ġment":4907,"arante":4908,"Äłg":4909,"Äłper":4910,"cap":4911,"ostat":4912,"contem":4913,"demand":4914,"au":4915,"flu":4916,"Ġinc":4917,"search":4918,"Ġance":4919,"evol":4920,"AB":4921,"CI":4922,"TY":4923,"cid":4924,"iality":4925,"ken":4926,"uity":4927,"Ġous":4928,"eng":4929,"cell":4930,"armon":4931,"Ġanthrop":4932,"Äłtr":4933,"oreal":4934,"esteem":4935,"irtue":4936,"ILITY":4937,"ned":4938,"noumen":4939,"oad":4940,"small":4941,"Ġz":4942,"Ġers":4943,"Ġinner":4944,"term":4945,"ciation":4946,"construct":4947,"Ġating":4948,"individual":4949,"understand":4950,"Ġchangeable":4951,"arrass":4952,"Ġchanged":4953,"vereign":4954,"Ġusual":4955,"problematical":4956,"?\"":4957,"word":4958,"Ġinstruct":4959,"Ġfl":4960,"anc":4961,"Ġerect":4962,"Ġday":4963,"asis":4964,"imental":4965,"conduct":4966,"Ġration":4967,"Ġprincip":4968,"sophist":4969,"Ġattack":4970,"Ġ50":4971,"successive":4972,"pathological":4973,"Ġcontempor":4974,"feeling":4975,"\";":4976,"TRANSCENDENTAL":4977,"UL":4978,"barrass":4979,"cour":4980,"cases":4981,"homogeneous":4982,"opp":4983,"oice":4984,"pet":4985,"poreal":4986,"viz":4987,"way":4988,"inally":4989,"Ġwa":4990,"Ġwid":4991,"Ġwater":4992,"Ġcred":4993,"alf":4994,"Ġinhere":4995,"Ġinstit":4996,"Ġbase":4997,"Ġthy":4998,"Ġthreat":4999,"Ġmut":5000,"Ġmund":5001,"Ġfile":5002,"Ġfoot":5003,"Ġnull":5004,"sem":5005,"Ġred":5006,"Ġrepe":5007,"Ġconject":5008,"still":5009,"Ġhundred":5010,"Ġpride":5011,"Ġuseless":5012,"Ġupright":5013,"Ġexpose":5014,"Ġsuscept":5015,"Ġgif":5016,"ainted":5017,"Ġpropens":5018,"ĠTot":5019,"Ġintensive":5020,"abled":5021,"Ġunb":5022,"Ġunnecessary":5023,"Ġuniform":5024,"Ġrange":5025,"Ġexistences":5026,"Ġviol":5027,"prof":5028,"Ġhear":5029,"Ġimprov":5030,"supreme":5031,"ĠFOR":5032,"Ġquar":5033,"nowledge":5034,"ĠAl":5035,"ĠApp":5036,"ĠAnt":5037,"acks":5038,"unt":5039,"Ġyear":5040,"etween":5041,"Ġarchety":5042,"Ġsynthetic":5043,"ĠSelf":5044,"Ġsubmit":5045,"Ġplurality":5046,"Ġendowed":5047,"ortunity":5048,"proved":5049,"procedure":5050,"Ġremote":5051,"Ġsystems":5052,"Ġexamined":5053,"Ġenabled":5054,"Ġyouth":5055,"Ġentered":5056,"lective":5057,"cognized":5058,"Ġoriginally":5059,"Ġshowing":5060,"Ġquantum":5061,"ĠMe":5062,"Ġconsidering":5063,"Ġdivisible":5064,"Ġadvisable":5065,"Ġmatters":5066,"Ġconceal":5067,"luences":5068,"Ġremaining":5069,"Ġdecom":5070,"Ġdecision":5071,"Ġpresupposing":5072,"Ġconfusion":5073,"Ġclos":5074,"Ġaffinity":5075,"Ġplease":5076,"Ġconforms":5077,"Ġsetting":5078,"Ġarranged":5079,"Ġimperfect":5080,"Ġregressive":5081,"Ġelaps":5082,"Ġpersonality":5083,"Ġexert":5084,"Ġseemed":5085,"Ġindicating":5086,"doctrine":5087,"Ġconducted":5088,"Ġessence":5089,"Ġfallacy":5090,"Ġsuperior":5091,"happens":5092,"Ġsingular":5093,"Ġvolunteers":5094,"000":5095,"Ġtreatise":5096,"Ġbrings":5097,"limitation":5098,"Ġdistributed":5099,"apperception":5100,"Ġintuitive":5101,"pecial":5102,"Ġcontinued":5103,"intelligence":5104,"ĠUnity":5105,"ordinated":5106,"ĠExposition":5107,"Ġexhibited":5108,"questions":5109,"Ġdesignate":5110,"Ġobservations":5111,"Ġbecoming":5112,"synthetically":5113,"ING":5114,"Ġsurface":5115,"Ġsorts":5116,"Ġroad":5117,"Ġpostulates":5118,"ĠKnowledge":5119,"Ġoffice":5120,"Ġacquainted":5121,"cogitated":5122,"ĠÃĨ":5123,"Ġgeometrical":5124,"demonstration":5125,"Ġpeace":5126,"Ġcollection":5127,"Ġmechanical":5128,"www":5129,"Ġdirections":5130,"Ġprudent":5131,"Ġaccidents":5132,"Ġproducts":5133,"Ġanalogous":5134,"Ġassigned":5135,"ĠProof":5136,"ĠProble":5137,"Ġhumili":5138,"Ġobstin":5139,"supersensible":5140,"ertitude":5141,"Ġpunishment":5142,"Ġcapacity":5143,"ĠPhilos":5144,"ĠPhys":5145,"consequences":5146,"Ġancient":5147,"Ġancients":5148,"imagination":5149,"Ġdevelopment":5150,"Ġsublime":5151,"arguments":5152,"obligation":5153,"Ġmultitude":5154,"Ġprospect":5155,"ĠDivision":5156,"IRST":5157,"Ġtwofold":5158,"Ġheaven":5159,"ĠEpicurus":5160,"Ġappeal":5161,"Ġgradually":5162,"ĠĠĠĠĠĠĠĠĠĠĠĠĠ":5163,"Ġvanity":5164,"Ġsacr":5165,"Ġcompliance":5166,"ĠIntuition":5167,"ĠDiscipline":5168,"sufficiency":5169,"entirely":5170,"Ġhypostat":5171,"Ġadmiration":5172,"body":5173,"econdly":5174,"Ġisolated":5175,"Ġsettled":5176,"Ġdollars":5177,"Ġelapsed":5178,"80":5179,"fig":5180,"omorph":5181,"Äłu":5182,"add":5183,"deser":5184,"apodeict":5185,"68":5186,"AG":5187,"Be":5188,"CL":5189,"oast":5190,"po":5191,"ulg":5192,"plex":5193,"abor":5194,"new":5195,"LI":5196,"ael":5197,"Ġaf":5198,"ativ":5199,"ichael":5200,"Ġure":5201,"Äłsub":5202,"educ":5203,"echn":5204,"commun":5205,"circ":5206,"limin":5207,"ores":5208,"icated":5209,"arm":5210,"istinction":5211,"ÄłT":5212,"try":5213,"admit":5214,"ĠST":5215,"solu":5216,"formal":5217,"syllogism":5218,"Ġcogitable":5219,"apply":5220,"ITED":5221,"AMAG":5222,"Being":5223,"OL":5224,"inal":5225,"alid":5226,"espect":5227,"Ġmov":5228,"Ġfix":5229,"Ġreconci":5230,"ury":5231,"istence":5232,"ifies":5233,"ĠBe":5234,"Ġhes":5235,"etch":5236,"ression":5237,"aggreg":5238,"Ġposited":5239,"Ġamount":5240,"Ġproductive":5241,"lected":5242,"determinate":5243,"Ġselfish":5244,"account":5245,"works":5246,"desire":5247,"Ġrestricted":5248,"Ġstrugg":5249,"antecedent":5250,"Ġomnipot":5251,"fluous":5252,",[":5253,";_":5254,"Book":5255,"Our":5256,"based":5257,"basis":5258,"eavoured":5259,"gives":5260,"junction":5261,"sus":5262,"uct":5263,"virtue":5264,"wish":5265,"Ġtechn":5266,"Ġsite":5267,"icial":5268,"Ġinconsistent":5269,"Ġbott":5270,"ories":5271,"Ġmid":5272,"Ġfiction":5273,"Ġflatter":5274,"Ġrevol":5275,"Ġdue":5276,"Ġbea":5277,"omogeneity":5278,"otle":5279,"Ġhouse":5280,"Ġprint":5281,"osen":5282,"Ġonline":5283,"owers":5284,"Ġsupposing":5285,"verse":5286,"Äłch":5287,"perhaps":5288,"embr":5289,"Ġdeal":5290,"Ġunchangeable":5291,"âĢĶâĢľ":5292,"ĠĠĠĠĠĠĠĠĠĠĠ":5293,"ĠĠĠĠĠĠĠĠĠĠĠĠĠĠĠ":5294,"Ġ(Â§":5295,"Ġtherewith":5296,"Ġrad":5297,"Ġrash":5298,"Ġroyal":5299,"Ġsovereign":5300,"ideal":5301,"Ġvis":5302,"Ġwilling":5303,"adistinction":5304,"Ġformation":5305,"Ġnoble":5306,"Ġshar":5307,"Ġshare":5308,"ements":5309,"Ġadmission":5310,"ĠPossib":5311,"Ġworlds":5312,"fered":5313,"Ġchosen":5314,"speculation":5315,"ĠĠĠĠĠĠĠĠĠĠĠĠĠĠĠĠĠĠĠĠĠĠĠĠĠĠĠĠĠĠĠĠ":5316,"Ġmach":5317,"Ġfarther":5318,"Ġcompleted":5319,"Ġbelow":5320,"Ġcontact":5321,"ĠGree":5322,"ĠWARRAN":5323,"Ġgrow":5324,"Ġgrand":5325,"Ġcontrast":5326,"arest":5327,"Ġdesp":5328,"ĠHart":5329,"Ġfees":5330,"Ġenumer":5331,"Ġagent":5332,"Ġgrounded":5333,"ĠEX":5334,"Ġmaximum":5335,"Ġpossessing":5336,"aving":5337,"Ġsimplicity":5338,"Ġattended":5339,"anges":5340,"Ġimpressions":5341,"Ġfeels":5342,"thereby":5343,"Ġmodel":5344,"Ġinfall":5345,"Ġexplanations":5346,"ĠMan":5347,"Ġwherein":5348,"Ġproceeded":5349,"regulative":5350,"Ġcomput":5351,"Ġcompens":5352,"Ġseeing":5353,"Ġfreely":5354,"Ġ12":5355,"Ġsupplied":5356,"Ġphysico":5357,"Ġdirects":5358,"Ġarrange":5359,"Ġarriving":5360,"OND":5361,"Ġoccurs":5362,"perceptions":5363,"Ġanswers":5364,"Ġimaginary":5365,"Ġparticularly":5366,"Ġguarante":5367,"Ġindicated":5368,"contradictions":5369,"Ġmethods":5370,"Ġoverlook":5371,"Ġbelieves":5372,"Ġequip":5373,"Ġtheoretically":5374,"Ġposted":5375,"Ġboundaries":5376,"Ġexplaining":5377,"Ġmisunderstanding":5378,"Ġapplying":5379,"Ġlooking":5380,"Ġlooked":5381,"Ġmaintains":5382,"Ġadditions":5383,"Ġfalsely":5384,"philosophical":5385,"brought":5386,"Ġdispositions":5387,"Ġobtaining":5388,"Ġtransition":5389,"remains":5390,"Ġrecognizes":5391,"Ġexclude":5392,"Ġ30":5393,"applicable":5394,"Ġpursuit":5395,"Ġpursues":5396,"produce":5397,"produced":5398,"Ġadvancement":5399,"confidence":5400,"universality":5401,"Ġpostulated":5402,"perfection":5403,"Ġpositively":5404,"Ġwitness":5405,"possesses":5406,"Ġfault":5407,"Ġaccepted":5408,"Ġcircumstance":5409,"Ġdogmatism":5410,"Ġhappened":5411,"Ġdatur":5412,"Ġkeeping":5413,"Ġirre":5414,"pathy":5415,"enetrability":5416,"Ġlabours":5417,"Ġconflicting":5418,"effects":5419,"Ġfanaticism":5420,"Ġreciprocally":5421,"points":5422,"While":5423,"Ġascending":5424,"motive":5425,"Ġelevated":5426,"ĠSystem":5427,"Ġobscure":5428,"Ġaffords":5429,"Ġdangerous":5430,"Consequently":5431,"Ġmarked":5432,"Ġethical":5433,"independently":5434,"Ġsublimity":5435,"Ġusually":5436,"Ġincrease":5437,"Ġexecution":5438,"Ġpersuasion":5439,"ĠChrist":5440,"ĠEmpirical":5441,"difficulties":5442,"dogmat":5443,"ustomed":5444,"Ġaccurately":5445,"OGY":5446,"Ġtalents":5447,"Ġconvinced":5448,"Ġfrequent":5449,"IMITED":5450,"Ġfallacious":5451,"Ġscholastic":5452,"Ġevidently":5453,"Ġcommencement":5454,"Ġspectator":5455,"Ġpremisses":5456,"ĠNew":5457,"Ġundoubtedly":5458,"Ġbreak":5459,"closed":5460,"Ġhidden":5461,"Ġerroneous":5462,"Ġreproach":5463,"Ġshape":5464,"Ġindeterminate":5465,"Ġcontemporaneously":5466,"ĠTotality":5467,"Ġquarter":5468,"Ġbottom":5469,"OD":5470,"ihil":5471,"Ġiv":5472,"Ġten":5473,"rept":5474,"anim":5475,"let":5476,"lex":5477,"utter":5478,"qual":5479,"aining":5480,"emonstr":5481,"accident":5482,"destr":5483,"pursu":5484,"veyed":5485,"furn":5486,"Ġpo":5487,"Ġpress":5488,"ÄłF":5489,"Äłar":5490,"Ġates":5491,"Ġru":5492,"pract":5493,"ieve":5494,"accomp":5495,"AC":5496,"ORE":5497,"SIS":5498,"ault":5499,"don":5500,"mist":5501,"mechan":5502,"rog":5503,"rust":5504,"erci":5505,"Ġcour":5506,"throw":5507,"resist":5508,"ÄłI":5509,"Ġally":5510,"Ġality":5511,"ament":5512,"Ġvice":5513,"exper":5514,"arrow":5515,"argument":5516,"bound":5517,"ient":5518,"mong":5519,"yright":5520,"inom":5521,"insepar":5522,"rent":5523,"Ġmixed":5524,"ters":5525,"ulation":5526,"olf":5527,"Ġsoph":5528,"pons":5529,"mean":5530,"ALEC":5531,"ĠTHESIS":5532,"Ġconven":5533,"olem":5534,"ESIS":5535,"THESIS":5536,"Ġauthorized":5537,"aper":5538,"pgl":5539,"sed":5540,"want":5541,"atory":5542,"Ġnamed":5543,"Ġascertain":5544,"irth":5545,"ÄłO":5546,"Ġaltern":5547,"tains":5548,"Ġrun":5549,"Ġqua":5550,"Ġphilosoph":5551,"disposition":5552,"ableness":5553,"Ġpassing":5554,"upil":5555,"Ġsupported":5556,"Ġearly":5557,"TICAL":5558,"psychological":5559,"Ġaccurate":5560,"ologia":5561,"beginning":5562,"No":5563,"Understanding":5564,"UND":5565,"Whether":5566,"],":5567,"apons":5568,"critique":5569,"hood":5570,"hope":5571,"pperception":5572,"public":5573,"powers":5574,"rance":5575,"rather":5576,"uly":5577,"onically":5578,"itation":5579,"itative":5580,"itles":5581,"Ġofficial":5582,"isen":5583,"ata":5584,"Ġwww":5585,"Ġpaper":5586,"icability":5587,"Ġincomplete":5588,"Ġincomp":5589,"Ġbook":5590,"Ġboast":5591,"Ġmarks":5592,"Ġtouch":5593,"ancing":5594,"Ġnext":5595,"Ġeternal":5596,"Ġego":5597,"seen":5598,"Ġism":5599,"Ġconnexion":5600,"Ġdate":5601,"stead":5602,"oted":5603,"Ġannex":5604,"Ġexempt":5605,"Ġexceptions":5606,"Ġexcell":5607,"Ġlic":5608,"Ġlur":5609,"Ġliving":5610,"Ġlater":5611,"Ġnotice":5612,"ĠĠĠĠĠĠ":5613,"Ġsun":5614,"Ġsuit":5615,"thics":5616,"ogicians":5617,"ÄłN":5618,"Äłat":5619,"Äłab":5620,"Äłsp":5621,"ulates":5622,"Ġdetr":5623,"acting":5624,"usively":5625,"about":5626,"Ġunf":5627,"taining":5628,"Ġours":5629,"Ġspo":5630,"notions":5631,"Ġvac":5632,"Ġtried":5633,"aded":5634,"Ġformulae":5635,"suppose":5636,"Ġsees":5637,"Ġcognizing":5638,"Ġmankind":5639,"unavoidable":5640,"Ġsubjecting":5641,"ĠPRIN":5642,"Ġeverywhere":5643,"ĠĠĠĠĠĠĠĠĠĠĠĠĠĠĠĠĠ":5644,"ĠSome":5645,"Ġphaenomenon":5646,"enses":5647,"ĠNor":5648,"Ġsubstit":5649,"ĠInformation":5650,"Ġpresently":5651,"Ġcontempt":5652,"forms":5653,"formed":5654,"Ġlimiting":5655,"Ġrequiring":5656,"Ġowner":5657,"within":5658,"others":5659,"inev":5660,"Ġindefinitum":5661,"âĢĿâĢĶ":5662,"Ġextinction":5663,"Ġenounces":5664,"Ġformerly":5665,"Ġgroundless":5666,"ĠEither":5667,"Ġeffected":5668,"Ġassent":5669,"Ġassure":5670,"Ġrealization":5671,"Ġjustly":5672,"Ġentertain":5673,"Ġentitle":5674,"avid":5675,"many":5676,"physico":5677,"Ġoriginating":5678,"ĠWeb":5679,"fulness":5680,"Ġinvalid":5681,"Ġinfluences":5682,"Ġcogitates":5683,"ĠMoreover":5684,"yss":5685,"rase":5686,"phenomenal":5687,"Ġdivide":5688,"Ġdivisibility":5689,"Ġcompetent":5690,"Ġ19":5691,"Ġpredicated":5692,"Ġconformed":5693,"Ġconformably":5694,"TITHESIS":5695,"Ġarrived":5696,"Ġregressus":5697,"Ġelabor":5698,"Ġinfinitely":5699,"Ġneeds":5700,"Ġresulting":5701,"Ġmodern":5702,"Ġantinom":5703,"Ġindication":5704,"HAT":5705,"Ġelementary":5706,"Ġreaders":5707,"become":5708,"Ġsolic":5709,"Ġsolid":5710,"Ġsolve":5711,"Ġspecific":5712,"Ġholder":5713,"Ġcoinc":5714,"Ġprovince":5715,"Ġinstinct":5716,"Ġharm":5717,"Ġelsewhere":5718,"Ġdenom":5719,"extent":5720,"ocr":5721,"Ġgenerated":5722,"Ġmaintaining":5723,"Ġpaths":5724,"discern":5725,"Ġadds":5726,"Ġconjoin":5727,"category":5728,"Ġjudged":5729,"Ġjudging":5730,"Ġtreating":5731,"Ġtreatment":5732,"Ġoperating":5733,"Ġintrinsic":5734,"Ġcorrectly":5735,"Ġpretended":5736,"Ġamongst":5737,"Ġintuite":5738,"Ġcontinuity":5739,"Ġcomparative":5740,"required":5741,"Ġmomentum":5742,"justice":5743,"Ġcombat":5744,"Ġexcludes":5745,"Ġexclusively":5746,"Ġspontaneously":5747,"Ġkey":5748,"inclinations":5749,"appears":5750,"appearance":5751,"Ġapodeictically":5752,"consistency":5753,"employed":5754,"Ġavoided":5755,"Ġinevitable":5756,"Ġseparated":5757,"Ġacquired":5758,"Ġopportunity":5759,"presupposed":5760,"ĠStill":5761,"Ġdogmatist":5762,"satisfactory":5763,"analysis":5764,"Ġtaught":5765,"ĠANAL":5766,"Ġ90":5767,"Ġexperiences":5768,"Ġimplied":5769,"criticism":5770,"greater":5771,"Ġdefend":5772,"Ġassociation":5773,"attainable":5774,"Ġfourth":5775,"Ġenlargement":5776,"Ġwriting":5777,"Ġreceives":5778,"Ġconfined":5779,"Ġdiscussions":5780,"motion":5781,"rests":5782,"posteriori":5783,"maxims":5784,"indicate":5785,"Ġimpulse":5786,"Ġreckoned":5787,"Ġsubsumption":5788,"Ġauthorize":5789,"Ġspiritual":5790,"Ġaccompany":5791,"assertions":5792,"ikes":5793,"Ġmoon":5794,"Ġmoving":5795,"Ġmulti":5796,"ĠDivine":5797,"Ġmediately":5798,"atient":5799,"concerned":5800,"signification":5801,"Ġprimary":5802,"Ġderivative":5803,"Ġcosts":5804,"Ġconstantly":5805,"ĠMorality":5806,"preceding":5807,"ĠNothing":5808,"deduced":5809,"philosophers":5810,"Ġprepare":5811,"Ġsubstantial":5812,"Ġconfirmation":5813,"ĠSECTION":5814,"ĠDIALEC":5815,"Ġmoderate":5816,"elements":5817,"Ġinjurious":5818,"Ġtype":5819,"Ġlocated":5820,"ĠMathemat":5821,"solely":5822,"source":5823,"Ġlinks":5824,"Ġreplacement":5825,"ĠCategories":5826,"Ġpresumption":5827,"Ġwonderful":5828,"ength":5829,"Ġflow":5830,"Ġrationis":5831,"Ġdecomposition":5832,"ĠÃĨsthetic":5833,"ĠPhilosophy":5834,"Ġheavenly":5835,"Ġsacrifice":5836,"liminary":5837,"soluble":5838,"ĠGreek":5839,"Ġequipment":5840,"ĠChristian":5841,"Ġsophism":5842,"pglaf":5843,"Per":5844,"Ġct":5845,"utic":5846,"Äłal":5847,"Äłth":5848,"emper":5849,"sual":5850,"excl":5851,"class":5852,"ÃĦÅĤf":5853,"ÃĦÅĤs":5854,"sym":5855,"design":5856,"comprehend":5857,"destroy":5858,"Ġted":5859,"Ġain":5860,"ony":5861,"Ġou":5862,"organ":5863,"cil":5864,"Äłhe":5865,"dev":5866,"remark":5867,"UCTION":5868,"Leibnitz":5869,"Sp":5870,"St":5871,"Un":5872,"ym":5873,"Ġos":5874,"rection":5875,"Ġpat":5876,"istrib":5877,"Äłpro":5878,"Ġative":5879,"igination":5880,"Ġves":5881,"Ġgoing":5882,"haust":5883,"invol":5884,"ROD":5885,"explain":5886,"ÄłÄłÄłÄłÄłÄłÄłÄłÄłÄłÄłÄłÄłÄłÄłÄł":5887,"PLES":5888,"ATIONS":5889,"contempl":5890,"meaning":5891,"41":5892,"EAS":5893,"Metaphys":5894,"SEC":5895,"harmon":5896,"treat":5897,"Ġ***":5898,"infin":5899,"enevol":5900,"annihil":5901,"Äłbe":5902,"Äłsh":5903,"ifferent":5904,"defect":5905,"definite":5906,"get":5907,"adox":5908,"Ġstead":5909,"pont":5910,"evil":5911,"discus":5912,"ĠVI":5913,"ORAL":5914,"convin":5915,"RODUCTION":5916,"ry":5917,"soul":5918,"Ġot":5919,"reement":5920,"Ġfat":5921,"Ġfixed":5922,"ancy":5923,"Ġell":5924,"essential":5925,"urean":5926,"Äłit":5927,"tray":5928,"exposition":5929,"Ġparticip":5930,"previous":5931,"Ġmyst":5932,"Ġserved":5933,"mell":5934,"Ġconsiderable":5935,"ĠConcl":5936,"Ġchanging":5937,"production":5938,"Ġfair":5939,"Ġsufficiency":5940,"Ġsteps":5941,"ICT":5942,"dogmatical":5943,"secure":5944,"CIPLES":5945,"!\"":5946,"ION":5947,"Pure":5948,"Please":5949,"PART":5950,"Such":5951,"Secondly":5952,"TRODUCTION":5953,"ade":5954,"aseless":5955,"came":5956,"further":5957,"iability":5958,"logic":5959,"life":5960,"makes":5961,"pute":5962,"rules":5963,"uality":5964,"yllogism":5965,"Ã¦":5966,"Ġtitles":5967,"heres":5968,"Ġost":5969,"Ġomit":5970,"Ġoppose":5971,"receive":5972,"itates":5973,"Ġoffer":5974,"Ġsil":5975,"Ġportion":5976,"Ġpupil":5977,"Ġpatient":5978,"Ġinex":5979,"Ġinability":5980,"Ġinternally":5981,"Ġinadmissible":5982,"Ġinsoluble":5983,"especially":5984,"Ġband":5985,"Ġbind":5986,"Ġbirth":5987,"Ġtopic":5988,"anci":5989,"Ġnarrow":5990,"Ġelectr":5991,"seem":5992,"Ġreaction":5993,"Ġbears":5994,"Ġbetray":5995,"Ġbecame":5996,"stone":5997,"utility":5998,"Ġhttp":5999,"Ġhalf":6000,"Ġhomogeneity":6001,"Ġprime":6002,"theoretic":6003,"impossibility":6004,"oses":6005,"Ġexternally":6006,"Ġexposing":6007,"Ġlot":6008,"Ġlab":6009,"Ġlicense":6010,"Ġlength":6011,"Ġweal":6012,"termed":6013,"Ġgave":6014,"three":6015,"ura":6016,"ĠIs":6017,"istotle":6018,"ÄłH":6019,"ÄłW":6020,"Äłi":6021,"ifying":6022,"permanent":6023,"Ġproposes":6024,"ĠTake":6025,"ender":6026,"Ġdece":6027,"uses":6028,"Ġunfortun":6029,"Ġtherefrom":6030,"trademark":6031,"Ġspurious":6032,"ecessity":6033,"hering":6034,"Ġvoice":6035,"Ġtrust":6036,"Ġtrack":6037,"Ġtrying":6038,"geometr":6039,"Ġheight":6040,"Ġimpose":6041,"Ġabide":6042,"adly":6043,"admitted":6044,"Ġperplex":6045,"ĠFIRST":6046,"Ġstatus":6047,"whose":6048,"ĠAb":6049,"Ġaccustomed":6050,"ulture":6051,"ultaneous":6052,"universe":6053,"ĠPart":6054,"Ġdissimilar":6055,"Ġknowing":6056,"Ġpreliminary":6057,"Ġary":6058,"Ġarisen":6059,"Ġchild":6060,"Ġrepresenting":6061,"finally":6062,"Ġdiffer":6063,"ortions":6064,"composition":6065,"Ġlimitative":6066,"Ġconnecting":6067,"prove":6068,"Ġdistance":6069,"icious":6070,"Ġrationalis":6071,"ĠHuman":6072,"Ġfell":6073,"Ġenclosed":6074,"lessness":6075,"Ġprescribed":6076,"alytical":6077,"Ġthinker":6078,"Ġthinkers":6079,"Ġassist":6080,"Ġassistance":6081,"Ġrealized":6082,"ounced":6083,"ĠDIS":6084,"ĠDAMAG":6085,"ĠDavid":6086,"Ġgreatly":6087,"Ġimped":6088,"Ġviews":6089,"Ġconstituting":6090,"thereof":6091,"Ġinvisible":6092,"Ġshowed":6093,"Ġintelligent":6094,"Ġintelligences":6095,"ĠMichael":6096,"ĠMORAL":6097,"Ġstrange":6098,"Ġcharacteristics":6099,"Ġcompass":6100,"Ġadvancing":6101,"Ġdeducing":6102,"Ġreside":6103,"Ġattains":6104,"Ġphysiology":6105,"Ġcontentment":6106,"Ġdirecting":6107,"Ġconformable":6108,"ENCE":6109,"Ġsettle":6110,"Ġestablishes":6111,"Ġlegal":6112,"Ġdistinguishes":6113,"Ġnumbers":6114,"Ġmodific":6115,"Ġreadable":6116,"Ġsolved":6117,"Ġdemonstrations":6118,"Ġ25":6119,"Ġproviding":6120,"Ġpassed":6121,"Ġrendering":6122,"simply":6123,"Ġawaken":6124,"bles":6125,"Ġlegislating":6126,"Ġagrees":6127,"examples":6128,"Ġinferring":6129,"Ġmediating":6130,"Ġintuiting":6131,"Ġstrictest":6132,"Ġcomparing":6133,"belief":6134,"ĠExistence":6135,"Ġobservance":6136,"Ġantecedently":6137,"Ġabstracted":6138,"Ġpursued":6139,"ĠAristotle":6140,"property":6141,"Ġeye":6142,"Ġrestriction":6143,"Ġrestrictions":6144,"Ġdeliber":6145,"Ġintroduction":6146,"Ġintroducing":6147,"Ġdeclare":6148,"considerations":6149,"schema":6150,"Ġfurnished":6151,"Ġdeserving":6152,"metaphysical":6153,"Ġoffers":6154,"specif":6155,"presupposition":6156,"Ġfavourable":6157,"Ġfigures":6158,"interests":6159,"original":6160,"belongs":6161,"freely":6162,"Ġirresist":6163,"Ġframe":6164,"Ġframed":6165,"Ġcountry":6166,"likewise":6167,"Ġtranscends":6168,"Ġadmixture":6169,"observed":6170,"corresponds":6171,"However":6172,"Ġprobability":6173,"Ġclasses":6174,"Ġcomprehends":6175,"Ġfancy":6176,"powerful":6177,"Ġsketch":6178,"Ġopponents":6179,"Whatever":6180,"Ġparagraphs":6181,"Ġenlarge":6182,"Ġwritten":6183,"Ġindubit":6184,"Ġascend":6185,"Ġcontribute":6186,"Ġcontributes":6187,"Ġinseparable":6188,"Ġbenefit":6189,"distinguishable":6190,"ĠDeity":6191,"Ġ2002":6192,"Ġqualities":6193,"Ġqualitative":6194,"Ġnecessitated":6195,"Ġpaying":6196,"Ġsubsumed":6197,"expression":6198,"Ġdeveloped":6199,"iking":6200,"Ġrenounce":6201,"pretensions":6202,"Ġexecuted":6203,"Ġdisplaying":6204,"ĠDoctrine":6205,"established":6206,"instead":6207,"Ġtransgression":6208,"Ġfrequently":6209,"shown":6210,"Ġobey":6211,"Ġadduced":6212,"ĠSECOND":6213,"Ġclosely":6214,"Ġattraction":6215,"Ġsympathy":6216,"leads":6217,"Ġforbids":6218,"Ġsuffer":6219,"Ġcultivation":6220,"Ġridic":6221,"Ġapproximate":6222,"Ġobstacle":6223,"ription":6224,"Ġarchitectonic":6225,"Ġdreams":6226,"ĠStoics":6227,"Ġpropriety":6228,"Ġembrace":6229,"Ġalleged":6230,"Ġdestruction":6231,"Ġbuilding":6232,"Ġconjecture":6233,"Ġgifts":6234,"Ġpropensity":6235,"Ġimprovement":6236,"Ġyears":6237,"Ġcloser":6238,"Ġhumiliation":6239,"figure":6240,"apodeictic":6241,"ativum":6242,"oresaid":6243,"Ġmovements":6244,"Ġtechnical":6245,"Ġradical":6246,"utterly":6247,"Ġelectronically":6248,"ĠDAMAGES":6249,"Ġmodifications":6250,"15":6251,"Gr":6252,"Ġnihil":6253,"jected":6254,"Äłas":6255,"oft":6256,"adm":6257,"prev":6258,"assign":6259,"accur":6260,"Ġmission":6261,"corrupt":6262,"THE":6263,"support":6264,"accompan":6265,"..":6266,"Ar":6267,"Tr":6268,"UD":6269,"ax":6270,"hon":6271,"hab":6272,"ipp":6273,"Ġach":6274,"alle":6275,"ices":6276,"Ġanim":6277,"que":6278,"endeavour":6279,"exc":6280,"arrant":6281,"becom":6282,"process":6283,"CEP":6284,"advance":6285,"De":6286,"bal":6287,"bol":6288,"cosm":6289,"eed":6290,"king":6291,"spont":6292,"incre":6293,"introdu":6294,"ndeed":6295,"Ġish":6296,"Ġlest":6297,"deutic":6298,"umb":6299,"transc":6300,"posit":6301,"exhib":6302,"Ġyield":6303,"iece":6304,"agger":6305,"prob":6306,"Ġentity":6307,"ocin":6308,"EMENT":6309,"absurd":6310,"ETH":6311,"GRE":6312,"He":6313,"METH":6314,"Not":6315,"access":6316,"dated":6317,"ii":6318,"ians":6319,"merit":6320,"peculiar":6321,"uit":6322,"ĠQu":6323,"heter":6324,"reckon":6325,"erity":6326,"icate":6327,"sect":6328,"ivil":6329,"ciated":6330,"Äłimp":6331,"Ġcast":6332,"Ġsoever":6333,"Ġably":6334,"exception":6335,"forth":6336,"spe":6337,"Ġgrat":6338,"Ġcontrover":6339,"Ġconceivable":6340,"TIQU":6341,"aneity":6342,"*****":6343,"guard":6344,"Produ":6345,"declar":6346,"proportion":6347,"answer":6348,"PHY":6349,"Ph":6350,"did":6351,"effort":6352,"met":6353,"moment":6354,"sight":6355,"ton":6356,"text":6357,"uary":6358,"uge":6359,"Ġtext":6360,"Ġound":6361,"refer":6362,"ening":6363,"ero":6364,"orn":6365,"Ġmine":6366,"Ġfil":6367,"Ġease":6368,"section":6369,"Ġrestr":6370,"oss":6371,"Ġweb":6372,"thorough":6373,"uries":6374,"cient":6375,"ogant":6376,"ÄłG":6377,"ush":6378,"estim":6379,"Ġembarrass":6380,"Ġtrace":6381,"arying":6382,"Ġchief":6383,"ĠGr":6384,"ÃĦÅĤin":6385,"lucid":6386,"Ġconsistency":6387,"Ġworthiness":6388,"Ġequality":6389,"extensive":6390,"ocation":6391,"desc":6392,"remain":6393,"Ġprobable":6394,"Ġescap":6395,"supply":6396,"atiocin":6397,"OGIC":6398,"establish":6399,"Ġconvincing":6400,"icked":6401,"Ġfruitful":6402,"RIB":6403,"RITIQU":6404,"Ġaccompanied":6405,"ODOL":6406,"METHODOL":6407,"16":6408,"CTICAL":6409,"IES":6410,"OS":6411,"So":6412,"Since":6413,"You":6414,"autonomy":6415,"bits":6416,"bonum":6417,"cision":6418,"course":6419,"day":6420,"done":6421,"dialectic":6422,"gulative":6423,"http":6424,"liberty":6425,"mixed":6426,"na":6427,"sur":6428,"sch":6429,"said":6430,"ĉĉ":6431,"Ġax":6432,"onations":6433,"infinitum":6434,"Ġtheories":6435,"encies":6436,"Ġwished":6437,"Ġcat":6438,"Ġsize":6439,"Ġpolem":6440,"ale":6441,"aled":6442,"already":6443,"Ġinn":6444,"Ġinsist":6445,"Ġincomprehensible":6446,"Ġinconsistency":6447,"Ġbon":6448,"Ġburd":6449,"Ġthou":6450,"ctory":6451,"Ġfate":6452,"Ġect":6453,"Ġelective":6454,"Ġretain":6455,"Ġreview":6456,"Ġdark":6457,"Ġbegan":6458,"oments":6459,"arise":6460,"Ġprag":6461,"Ġexagger":6462,"Ġlu":6463,"Ġlate":6464,"ptions":6465,"Ġsust":6466,"Ġsupposes":6467,"ĠIll":6468,"ÄłB":6469,"Äłse":6470,"ifference":6471,"perceive":6472,"uler":6473,"empiricism":6474,"ĠThen":6475,"conceive":6476,"conjunction":6477,"Ġarena":6478,"chain":6479,"Ġdeceived":6480,"active":6481,"actual":6482,"using":6483,"illion":6484,"away":6485,"ames":6486,"Ġunit":6487,"Ġunexpected":6488,"Ġcompr":6489,"Ġcomposed":6490,"Ġround":6491,"Ġrace":6492,"Ġratio":6493,"Ġruler":6494,"Ġemail":6495,"Ġvit":6496,"Ġvict":6497,"Ġvag":6498,"Ġdeterminative":6499,"Ġdoing":6500,"Ġconditional":6501,"Ġconditionally":6502,"Ġhealth":6503,"Ġabyss":6504,"Ġperce":6505,"allow":6506,"Ġsynon":6507,"indu":6508,"Ġuser":6509,"antly":6510,"ĠFundamental":6511,"Ġseven":6512,"Ġsevere":6513,"Ġste":6514,"presentation":6515,"whatever":6516,"ĠAfter":6517,"ĠASC":6518,"ĠApperception":6519,"ĠAGRE":6520,"unable":6521,"unknown":6522,"unciation":6523,"poned":6524,"ponent":6525,"ĠPRA":6526,"Ġdispens":6527,"Ġdisgu":6528,"ets":6529,"etary":6530,"Ġleaving":6531,"herence":6532,"Ġaround":6533,"Ġarose":6534,"Ġchar":6535,"Ġphrase":6536,"elt":6537,"ressed":6538,"oping":6539,"opinion":6540,"agreement":6541,"Ġsubter":6542,"Ġnear":6543,"Ġmast":6544,"ĠIntrodu":6545,"Ġplacing":6546,"Ġendeavoured":6547,"ĠGer":6548,"ĠGood":6549,"ĠWill":6550,"ĠWhere":6551,"ignor":6552,"composite":6553,"ritical":6554,"ĠCRITIQU":6555,"serves":6556,"Ġrequest":6557,"Ġdescribe":6558,"Ġdistant":6559,"Ġdistress":6560,"arium":6561,"Ġcalls":6562,"Ġcalling":6563,"Ġencour":6564,"ĠEnd":6565,"ĠRational":6566,"Ġprescribe":6567,"Ġsensibly":6568,"Ġrealize":6569,"Ġcritic":6570,"Ġattach":6571,"Ġattacks":6572,"ĠDes":6573,"Ġsensuously":6574,"Ġcorporeal":6575,"Ġquanta":6576,"ĠMis":6577,"ĠRegulative":6578,"appe":6579,"Ġstrike":6580,"Ġstrives":6581,"Ġanalysing":6582,"Ġrefuse":6583,"Ġrefers":6584,"Ġdiverse":6585,"ĠLogical":6586,"ĠLIMITED":6587,"ĠLOGIC":6588,"Ġcompels":6589,"Ġadvances":6590,"Ġcontradicts":6591,"Ġresistance":6592,"Ġconceiving":6593,"Ġconcluding":6594,"Ġremained":6595,"Ġ178":6596,"Ġdecides":6597,"Ġlogically":6598,"maj":6599,"Ġdiscoverable":6600,"knows":6601,"Ġsatisfies":6602,"TIES":6603,"Ġacknowledge":6604,"practically":6605,"Ġedition":6606,"Ġeditions":6607,"Ġobserving":6608,"Ġespecial":6609,"Ġseemingly":6610,"Ġmodest":6611,"Ġaccords":6612,"ĠĠĠĠĠĠĠĠĠĠĠĠĠĠĠĠĠĠĠĠĠĠĠĠĠĠ":6613,"ĠĠĠĠĠĠĠĠĠĠĠĠĠĠĠĠĠĠĠĠĠĠĠĠĠĠĠĠĠĠĠ":6614,"Ġattempting":6615,"Ġneglect":6616,"subjectively":6617,"aims":6618,"Ġbelieved":6619,"Ġspecially":6620,"Ġideals":6621,"ĠPrint":6622,"Ġcontinually":6623,"Ġtook":6624,"Ġessay":6625,"Ġinstances":6626,"Ġexpectations":6627,"Ġpassive":6628,"Ġdenies":6629,"ocke":6630,"Ġaffects":6631,"Ġallows":6632,"Ġsuperfluous":6633,"Ġcopying":6634,"Ġyourself":6635,"giving":6636,"accordingly":6637,"shall":6638,"Ġjustifies":6639,"Ġinquiring":6640,"ĠAnalytical":6641,"Ġconvince":6642,"Ġthoroughness":6643,"Ġpretend":6644,"Ġobtains":6645,"Ġinvolve":6646,"Ġinvolving":6647,"purposes":6648,"pensably":6649,"impenetrability":6650,"justified":6651,"attention":6652,"Ġrecognise":6653,"Ġabstracto":6654,"compelled":6655,"Ġoccupation":6656,"Ġdonate":6657,"Ġsurpr":6658,"separate":6659,"Ġdelusive":6660,"Ġconstructing":6661,"productive":6662,"Ġapproach":6663,"consists":6664,"Ġmanifestations":6665,"Ġdecline":6666,"Ġletter":6667,"Ġorganization":6668,"Ġadequately":6669,"constitution":6670,"Ġcreator":6671,"Ġcreating":6672,"Ġcreatures":6673,"Therefore":6674,"insight":6675,"grounded":6676,"Ġacquire":6677,"Ġacquaint":6678,"guidance":6679,"Ġproblematically":6680,"Ġfigur":6681,"moreover":6682,"Ġdefinitely":6683,"Ġfri":6684,"realization":6685,"Ġcounsel":6686,"occasion":6687,"greatest":6688,"Ġsecurely":6689,"Ġfilling":6690,"Ġfilled":6691,"Ġdefence":6692,"Ġdefici":6693,"Ġmeets":6694,"Ġurged":6695,"Suppose":6696,"Ġfancies":6697,"Ġfailed":6698,"Ġultimately":6699,"ators":6700,"attained":6701,"ĠImpossibility":6702,"Ġdetected":6703,"Ġdetailed":6704,"Ġwritings":6705,"Ġinduce":6706,"Ġascent":6707,"Ġsentiment":6708,"Ġsentiments":6709,"Ġbeneficial":6710,"Ġsucceeded":6711,"Ġmistakes":6712,"Ġmistaken":6713,"Ġpunct":6714,"Ġperforms":6715,"Ġ2001":6716,"Ġpayments":6717,"Ġstrengthen":6718,"Ġfitness":6719,"consequence":6720,"Ġestimated":6721,"Ġestimating":6722,"Ġmeritorious":6723,"operation":6724,"reflection":6725,"fortune":6726,"Ġstruct":6727,"Ġfulfilled":6728,"Ġdevoted":6729,"Ġdisplayed":6730,"Ġcomplying":6731,"Ġpromotion":6732,"Ġpromoting":6733,"difficulty":6734,"Ġprimarily":6735,"Ġderivation":6736,"Ġspecified":6737,"Ġhistorical":6738,"transition":6739,"Ġheavy":6740,"ĠNOT":6741,"concepts":6742,"Ġtalk":6743,"precedes":6744,"Ġsubsists":6745,"Ġesteemed":6746,"Ġweakness":6747,"Ġimitated":6748,"attribute":6749,"Ġanticipate":6750,"Ġcontemplation":6751,"Ġobeying":6752,"Ġwidely":6753,"Ġhinder":6754,"Ġhindrance":6755,"Ġfallacies":6756,"Ġaccomplish":6757,"Ġaccomplished":6758,"generally":6759,"Analytic":6760,"Without":6761,"occupied":6762,"statements":6763,"Ġalteration":6764,"Ġdeeply":6765,"ĠObjects":6766,"Ġserviceable":6767,"Ġimpartial":6768,"ĠMetaphysic":6769,"Ġobstacles":6770,"Ġgovernment":6771,"¢Ä¢Ä":6772,"Ġaston":6773,"authority":6774,"unconditional":6775,"unconditionally":6776,"inquiry":6777,"inquiries":6778,"Ġtendency":6779,"Ġfictions":6780,"Ġfictitious":6781,"Ġdimensions":6782,"Ġdeprive":6783,"Ġundertaking":6784,"Ġambiguity":6785,"indispensable":6786,"Ġpraise":6787,"ausible":6788,"ABILITY":6789,"Ġprincipal":6790,"Ġwidest":6791,"Ġmundus":6792,"Ġrepeated":6793,"Ġuprightness":6794,"Ġsusceptible":6795,"ĠAlthough":6796,"ĠAntinomy":6797,"ĠMethod":6798,"Ġexertions":6799,"Before":6800,"Ġaforesaid":6801,"aggregate":6802,"embracing":6803,"ĠĠĠĠĠĠĠĠĠĠĠĠĠĠĠĠĠĠĠĠĠĠĠĠĠĠĠĠĠĠĠĠĠĠĠĠĠĠĠĠĠĠĠĠĠĠĠĠĠĠ":6804,"ĠWARRANTY":6805,"Ġcomputer":6806,"mechanism":6807,"rogative":6808,"experiences":6809,"inseparably":6810,"Ġincompetent":6811,"Ġexcellent":6812,"ĠPRINCIPLES":6813,"Ġantinomies":6814,"Ġdenomin":6815,"Ġmultiplicity":6816,"ĠDIALECTIC":6817,"Ġsophisms":6818,"Metaphysic":6819,"infinity":6820,"enevolence":6821,"Ġfatal":6822,"Ã¦deutic":6823,"Ġdeceit":6824,"Ġirresistible":6825,"METHODOLOGY":6826,"Ġpolemic":6827,"ĠASCII":6828,"ĠPRACTICAL":6829,"ĠCRITIQUE":6830,"vation":6831,"Ġay":6832,"revol":6833,"analog":6834,"iboly":6835,"ÄłL":6836,"Äłac":6837,"Äłcom":6838,"Äłmis":6839,"del":6840,"ÃĦÅĤre":6841,"ĠEND":6842,"contest":6843,"confirm":6844,"Ide":6845,"TRIB":6846,"bar":6847,"mag":6848,"Ġll":6849,"Ġrom":6850,"itiz":6851,"enjoy":6852,"Ġition":6853,"Ġud":6854,"ÄłR":6855,"Äłis":6856,"det":6857,"piric":6858,"agon":6859,"duc":6860,"Ġposit":6861,"ÃĦÅĤc":6862,"avag":6863,"Ġip":6864,"TIVE":6865,"occur":6866,"Princi":6867,"anthropomorph":6868,"22":6869,"50":6870,"TRA":6871,"creat":6872,"eous":6873,"rown":6874,"test":6875,"your":6876,"yield":6877,"Ġig":6878,"Ġible":6879,"Ġeduc":6880,"recogn":6881,"Ġced":6882,"ibilis":6883,"ogr":6884,"minis":6885,"Ġved":6886,"iversal":6887,"ilege":6888,"keep":6889,"grat":6890,"extend":6891,"irdly":6892,"substant":6893,"remo":6894,"Em":6895,"FL":6896,"OSE":6897,"PRO":6898,"bed":6899,"bring":6900,"fici":6901,"last":6902,"nis":6903,"spr":6904,"slet":6905,"Ġaut":6906,"intr":6907,"atir":6908,"Ġci":6909,"Ġmal":6910,"Ġep":6911,"oud":6912,"ibus":6913,"ĠIND":6914,"illa":6915,"amp":6916,"prud":6917,"artes":6918,"too":6919,"soon":6920,"tellig":6921,"close":6922,"Ġard":6923,"Ġended":6924,"Ġ13":6925,"Ġceasing":6926,"bling":6927,"THER":6928,"profess":6929,"prevent":6930,"allel":6931,"ogram":6932,"71":6933,"APHY":6934,"ET":6935,"Respect":6936,"SIC":6937,"VIS":6938,"dut":6939,"ey":6940,"fund":6941,"favour":6942,"load":6943,"net":6944,"oe":6945,"oose":6946,"popular":6947,"tent":6948,"van":6949,"Ġied":6950,"Ġoun":6951,"itus":6952,"itory":6953,"itted":6954,"isk":6955,"encing":6956,"Ġpol":6957,"Ġine":6958,"ctible":6959,"Ġise":6960,"Ġredistrib":6961,"osing":6962,"Ġlar":6963,"version":6964,"quire":6965,"ogmat":6966,"resh":6967,"Äłob":6968,"iful":6969,"ulous":6970,"ulsion":6971,"concre":6972,"dependent":6973,"Ġric":6974,"phiboly":6975,"Ġseld":6976,"precept":6977,"matic":6978,"Ġpresentation":6979,"roken":6980,"Ġsecurity":6981,"mail":6982,"Ġpleases":6983,"Ġimagin":6984,"RECT":6985,"legitimate":6986,"Ġ45":6987,"volition":6988,"oinc":6989,"hypothetical":6990,"rupted":6991,"Ġprepared":6992,"ÃĦÅĤÃĦÅĤÃĦÅĤÃĦÅĤÃĦÅĤÃĦÅĤÃĦÅĤÃĦÅĤ":6993,"error":6994,"?âĢĶ":6995,"At":6996,"Both":6997,"General":6998,"Nevertheless":6999,"Some":7000,"Small":7001,"See":7002,"_âĢĶ":7003,"acious":7004,"bation":7005,"between":7006,"cr":7007,"certitude":7008,"dle":7009,"ees":7010,"ego":7011,"fil":7012,"field":7013,"founded":7014,"fuge":7015,"had":7016,"joined":7017,"lain":7018,"lable":7019,"little":7020,"lines":7021,"ltimate":7022,"making":7023,"ng":7024,"ries":7025,"sort":7026,"uent":7027,"uum":7028,"void":7029,"varying":7030,"ware":7031,"Ãĥ":7032,"Ġx":7033,"Ġute":7034,"Ġastr":7035,"inently":7036,"insufficient":7037,"Ġod":7038,"Ġtheore":7039,"receptivity":7040,"isive":7041,"enough":7042,"enable":7043,"erms":7044,"Ġwarn":7045,"Ġwicked":7046,"Ġcens":7047,"Ġction":7048,"Ġcertitude":7049,"Ġsl":7050,"Ġsw":7051,"Ġsaw":7052,"Ġsave":7053,"Ġsalt":7054,"Ġpubl":7055,"Ġparent":7056,"altogether":7057,"Ġinsp":7058,"Ġincor":7059,"Ġbenevolence":7060,"Ġmar":7061,"Ġmass":7062,"Ġtol":7063,"Ġfelt":7064,"anilla":7065,"Ġissu":7066,"Ġrefin":7067,"Ġreply":7068,"Ġrevel":7069,"Ġreferences":7070,"Ġrelease":7071,"Ġreserve":7072,"Ġdas":7073,"Ġdatum":7074,"entity":7075,"asions":7076,"Ġaspect":7077,"Ġanxi":7078,"Ġlow":7079,"Ġlime":7080,"Ġlays":7081,"Ġlogicians":7082,"Ġliability":7083,"Ġweaken":7084,"Ġweapons":7085,"irable":7086,"Ġgot":7087,"Ġwithdraw":7088,"third":7089,"ĠID":7090,"ĠIF":7091,"ĠIM":7092,"ĠIndeed":7093,"istered":7094,"Ġorigination":7095,"Äłthe":7096,"Äłem":7097,"Äłfor":7098,"Äłacc":7099,"permitted":7100,"permanence":7101,"ulated":7102,"pping":7103,"Ġprohib":7104,"Ġprolong":7105,"changes":7106,"Ġdead":7107,"actually":7108,"actorily":7109,"hens":7110,"amples":7111,"Ġunite":7112,"Ġunits":7113,"Ġunavoid":7114,"Ġunsuccess":7115,"Ġuncertainty":7116,"Ġunpleasant":7117,"Ġunattainable":7118,"dependence":7119,"ansition":7120,"triangle":7121,"Ġspecul":7122,"Ġrig":7123,"Ġrare":7124,"Ġratiocin":7125,"Ġundertake":7126,"Ġvision":7127,"Ġvisible":7128,"Ġdeterminability":7129,"Ġtruly":7130,"priate":7131,"primitive":7132,"ĠBE":7133,"ĠBRE":7134,"Ġheat":7135,"ading":7136,"Ġperpet":7137,"suasion":7138,"Ġregular":7139,"Ġregistered":7140,"antinomy":7141,"Ġselect":7142,"Ġcognitive":7143,"Ġstake":7144,"Ġstage":7145,"Ġquoad":7146,"Ġreluct":7147,"presents":7148,"Ġconsult":7149,"ĠAgain":7150,"ĠAmong":7151,"acities":7152,"Ġappell":7153,"Ġsubjection":7154,"ĠPsych":7155,"Ġdissatisfaction":7156,"),âĢĿ":7157,"Ġlevel":7158,"Ġprepar":7159,"Ġprecise":7160,"Ġprecision":7161,"Ġprerogative":7162,"teaches":7163,"Ġarms":7164,"Ġpartial":7165,"ĠSe":7166,"ĠScience":7167,"precisely":7168,"agogic":7169,"ĠNeither":7170,"Ġsubdiv":7171,"Ġsubdivision":7172,"ĠInstead":7173,"ĠWolf":7174,"Ġgroping":7175,"Ġcontrol":7176,"Ġcontradistinction":7177,"ĠCan":7178,"ĠCogn":7179,"formula":7180,"Ġcommerci":7181,"Ġowns":7182,"fects":7183,"ishments":7184,"derived":7185,"Ġfeet":7186,"Ġcategorically":7187,"Ġvalu":7188,"ĠEach":7189,"ĠRel":7190,"ĠRoyal":7191,"Ġyoung":7192,"Ġfinding":7193,"elling":7194,"objections":7195,"Ġprescribing":7196,"Ġexpense":7197,"Ġexpenses":7198,"reasons":7199,"Ġrealities":7200,"Ġrealizing":7201,"aved":7202,"avity":7203,"physics":7204,"Ġsimpl":7205,"Ġsimultaneous":7206,"ĠDetermin":7207,"ĠDonations":7208,"Ġsecuring":7209,"anging":7210,"Ġimpression":7211,"Ġthroughout":7212,"Ġviewing":7213,"Ġoriginates":7214,"therein":7215,"Ġinvent":7216,"Ġhereafter":7217,"Ġinfring":7218,"ĠMon":7219,"ĠMET":7220,"Ġstrikes":7221,"Ġapagogic":7222,"Ġanalyse":7223,"evidence":7224,"undetermined":7225,"ĠLaw":7226,"Ġcompares":7227,"Ġrespon":7228,"Ġconceit":7229,"Ġconcede":7230,"Ġdeciding":7231,"Ġdecisive":7232,"tenance":7233,"ĠUSE":7234,"ĠUltimate":7235,"Ġsupplies":7236,"Ġnowhere":7237,"Ġtotally":7238,"Ġmathematicians":7239,"Ġmathematician":7240,"Ġclue":7241,"relatively":7242,"Ġsatisfying":7243,"Ġsuccessful":7244,"Ġdefines":7245,"Ġarrives":7246,"Ġestablishing":7247,"Ġderives":7248,"Ġlegality":7249,"Ġconsequent":7250,"Ġseeming":7251,"misunderstanding":7252,"Ġmodi":7253,"Ġmodification":7254,"Ġfinality":7255,"Ġcontingently":7256,"party":7257,"particip":7258,"Ġcorrespondence":7259,"Ġdemonstrating":7260,"Ġsignify":7261,"Ġsouls":7262,"Ġpostponed":7263,"granted":7264,"ĠSubject":7265,"completed":7266,"Ġconducts":7267,"Ġexplains":7268,"Ġmisconception":7269,"Ġmisunderstood":7270,"Ġhopes":7271,"Ġgeneration":7272,"Ġoblige":7273,"Ġremarked":7274,"Ġprogressus":7275,"ĠĠĠĠĠĠĠĠĠĠĠĠĠĠĠĠĠĠĠĠĠĠĠĠĠĠĠĠĠĠĠĠĠĠĠĠĠĠĠĠĠĠ":7276,"Ġdepending":7277,"Ġfallen":7278,"Ġaffirmations":7279,"discursive":7280,"Ġaddress":7281,"Ġharmonious":7282,"desires":7283,"giver":7284,"Ġfalsehood":7285,"happy":7286,"Ġdemanding":7287,"Ġdemanded":7288,"Ġnegatively":7289,"Ġjustification":7290,"Ġteaching":7291,"Ġjudges":7292,"Ġthoroughgoing":7293,"Ġpretension":7294,"Ġabsent":7295,"Ġparadox":7296,"Ġchooses":7297,"whereas":7298,"Ġstrictness":7299,"Ġleading":7300,"impressions":7301,"Ġtransitory":7302,"Ġdistinguishable":7303,"Ġprofit":7304,"Ġrequisites":7305,"Ġ35":7306,"Ġdesignation":7307,"Ġobservable":7308,"Ġsuppositions":7309,"Ġhelps":7310,"compared":7311,"Ġpursuing":7312,"Ġoccupy":7313,"properties":7314,"appearances":7315,"Ġrestricting":7316,"Ġrestrictive":7317,"ifices":7318,"Ġintroduces":7319,"Ġintroduced":7320,"produces":7321,"Ġappropri":7322,"III":7323,"Ġmanifests":7324,"Ġexactness":7325,"Ġchem":7326,"Ġlasting":7327,"Ġlastly":7328,"quantities":7329,"Ġarbitrarily":7330,"Ġsooner":7331,"constitutes":7332,"Ġfurnishes":7333,"ipse":7334,"rence":7335,"Ġoffender":7336,"Ġdispense":7337,"Ġfacil":7338,"Ġaccepting":7339,"Ġputting":7340,"presuppose":7341,"Ġsimilarity":7342,"picion":7343,"satisfied":7344,"interested":7345,"Ġtaut":7346,"demonstrated":7347,"Ġirrational":7348,"Ġdominion":7349,"provided":7350,"conceivable":7351,"Ġdownload":7352,"Ġconflicts":7353,"ouncement":7354,"Ġomnis":7355,"discoverable":7356,"Ġaccession":7357,"Ġfills":7358,"Ġarrangements":7359,"Ġlosing":7360,"investigations":7361,"Practical":7362,"Ġprevented":7363,"claims":7364,"Why":7365,"Ġdetach":7366,"Ġhumbles":7367,"Ġenlarged":7368,"proceeds":7369,"proceeding":7370,"Ġdiscussing":7371,"Ġdiscussed":7372,"motives":7373,"postulates":7374,"theoretically":7375,"Ġdiscerned":7376,"Ġcontributions":7377,"Ġsentence":7378,"Ġbenefic":7379,"Ġelevation":7380,"indicates":7381,"Ġcapacities":7382,"Ġperforming":7383,"Ġantithetic":7384,"attempts":7385,"Ġearths":7386,"Ġgladly":7387,"Ġnecessitation":7388,"Ġremoving":7389,"Ġcrime":7390,"Ġcrude":7391,"Ġestimation":7392,"legislative":7393,"feelings":7394,"Ġprofessed":7395,"Ġ60":7396,"assertion":7397,"Ġincreased":7398,"Ġexcite":7399,"obliged":7400,"Ġpromotive":7401,"problems":7402,"IRD":7403,"Ġspecification":7404,"Ġspecifically":7405,"passing":7406,"ĠEpicurean":7407,"ĠMoral":7408,"Ġsafely":7409,"conviction":7410,"Ġgradual":7411,"ĠNatural":7412,"requirements":7413,"Ġprotected":7414,"Ġconfirms":7415,"Ġsacred":7416,"Ġadduce":7417,"ĠDIVIS":7418,"Ġdeclaring":7419,"Ġdeclaration":7420,"Ġdeclarations":7421,"Ġmoderation":7422,"Ġfruitless":7423,"Ġdescending":7424,"Ġforbidden":7425,"Ġprejudice":7426,"Ġprejudicial":7427,"Ġobviously":7428,"Ġcurrent":7429,"combination":7430,"combined":7431,"Ġunceasingly":7432,"Ġchimera":7433,"ĠObjective":7434,"methods":7435,"Ġpenetration":7436,"Ġpenetrate":7437,"Ġrecommend":7438,"arbitrary":7439,"ĠStoic":7440,"Ġnumerous":7441,"Ġhyperphysical":7442,"ANTITHESIS":7443,"obtained":7444,"reciprocal":7445,"Ġaccompanies":7446,"counter":7447,"Ġcenturies":7448,"Ġreveals":7449,"Ġdamages":7450,"Ġdiminish":7451,"Ġdiminished":7452,"Ġdepartment":7453,"Ġextremely":7454,"Ġexercises":7455,"Ġexercised":7456,"Ġteachers":7457,"ĠVIII":7458,"affected":7459,"demanded":7460,"noumena":7461,"noumenon":7462,"Ġzero":7463,"sophistical":7464,"Ġwaver":7465,"Ġcredit":7466,"Ġmutually":7467,"semble":7468,"Ġunbounded":7469,"Ġarchetyp":7470,"Ġarchetype":7471,"added":7472,"ulgence":7473,"Ġreconciled":7474,"Ġstruggle":7475,"Ġomnipotent":7476,"suspicion":7477,"Ġrevolution":7478,"Ġbeauty":7479,"Ġprinted":7480,"Ġrashly":7481,"ĠPossibility":7482,"Ġmachine":7483,"Ġinfallibly":7484,"Ġoverlooked":7485,"emonstrable":7486,"ACH":7487,"OREM":7488,"donate":7489,"Ġannexed":7490,"Ġ199":7491,"Ġsolicit":7492,"States":7493,"ymous":7494,"hausted":7495,"harmony":7496,"discussion":7497,"convinced":7498,"Ġbinding":7499,"Ġunfortunately":7500,"Ġchildren":7501,"ĠMORALS":7502,"becomes":7503,"Ġcontroversy":7504,"Ġaxis":7505,"Ġcatalog":7506,"Ġburden":7507,"Ġdispensed":7508,"Ġsubterfuge":7509,"Ġacquaintance":7510,"telligence":7511,"APHYSIC":7512,"duties":7513,"concreto":7514,"Ġseldom":7515,"Ġsaltus":7516,"Ġunavoidably":7517,"Ġunsuccessful":7518,"ĠBREACH":7519,"ĠMETAPHYSIC":7520,"ĠDIVISION":7521,"BL":7522,"NAL":7523,"bene":7524,"pun":7525,"uc":7526,"Ġics":7527,"Ġpot":7528,"ouch":7529,"Ġanc":7530,"ibr":7531,"Äłpl":7532,"artic":7533,"izable":7534,"ÃĦÅĤm":7535,"ĠHA":7536,"avail":7537,"knowled":7538,"Ġstanding":7539,"circum":7540,"PEND":7541,"ban":7542,"coinc":7543,"dict":7544,"fl":7545,"numer":7546,"pat":7547,"ta":7548,"Ġight":7549,"Ġically":7550,"Ġty":7551,"athemat":7552,"Ġward":7553,"Ġpet":7554,"anqu":7555,"ogistic":7556,"Äłent":7557,"Äłqu":7558,"Äłstr":7559,"Äłdes":7560,"Äłconf":7561,"iled":7562,"Ġsoci":7563,"allen":7564,"fort":7565,"ponder":7566,"ictions":7567,"intention":7568,"Ġacted":7569,"overt":7570,"medi":7571,"appoint":7572,"Ġio":7573,"doctr":7574,"Ġmiss":7575,"Ġcept":7576,"Äłdec":7577,"HT":7578,"NI":7579,"Sy":7580,"UM":7581,"authoriz":7582,"cultiv":7583,"fr":7584,"fal":7585,"ration":7586,"sk":7587,"sent":7588,"ub":7589,"Ġious":7590,"reconci":7591,"Ġcrib":7592,"Ġort":7593,"Äłwe":7594,"Äłcomp":7595,"Ġexperienced":7596,"force":7597,"strum":7598,"ĠUND":7599,"distinct":7600,"requis":7601,"IND":7602,"xioms":7603,"Ġology":7604,"exerc":7605,"signific":7606,"Philos":7607,"13":7608,"17":7609,"18":7610,"Al":7611,"Ca":7612,"EG":7613,"ITION":7614,"Mathemat":7615,"NITY":7616,"VI":7617,"bst":7618,"bour":7619,"bered":7620,"divers":7621,"eal":7622,"fill":7623,"lest":7624,"mem":7625,"mast":7626,"ngl":7627,"tow":7628,"tempt":7629,"uating":7630,"writ":7631,"Ġial":7632,"ones":7633,"itim":7634,"isy":7635,"oric":7636,"Ġflu":7637,"edistrib":7638,"Ġered":7639,"sett":7640,"Ġities":7641,"streng":7642,"llogistic":7643,"iver":7644,"uris":7645,"Äłle":7646,"Äłam":7647,"Äłind":7648,"ander":7649,"perform":7650,"chief":7651,"abandon":7652,"Ġsensual":7653,"priv":7654,"adow":7655,"indifferent":7656,"Ġship":7657,"Ġartic":7658,"Ġending":7659,"Ġcontest":7660,"ÃĦÅĤd":7661,"ÃĦÅĤp":7662,"undity":7663,"Ġattainable":7664,"miss":7665,"obsc":7666,"pses":7667,"happen":7668,"impul":7669,"Ġult":7670,"conflict":7671,"Ġ40":7672,"Ġangle":7673,"Ġappeared":7674,"comparison":7675,"SITION":7676,"Ġconvenience":7677,"UDING":7678,"Ideal":7679,"TRIBUT":7680,"AD":7681,"Again":7682,"BS":7683,"BILITY":7684,"Happ":7685,"NT":7686,"NOM":7687,"OF":7688,"OBS":7689,"VATIONS":7690,"aordin":7691,"bet":7692,"danger":7693,"fut":7694,"function":7695,"fixed":7696,"horizon":7697,"ipt":7698,"iant":7699,"lie":7700,"lated":7701,"pel":7702,"parent":7703,"rain":7704,"run":7705,"smell":7706,"wit":7707,"Ġently":7708,"hetical":7709,"Ġaught":7710,"infer":7711,"Ġose":7712,"iss":7713,"Ġces":7714,"Ġcivil":7715,"Ġpt":7716,"Ġpair":7717,"Ġbes":7718,"Ġble":7719,"Ġthrown":7720,"orne":7721,"Ġmer":7722,"Ġmoun":7723,"cely":7724,"Ġited":7725,"Ġdrop":7726,"imb":7727,"Ġory":7728,"ÄłU":7729,"Äłer":7730,"Äłor":7731,"ÄłIn":7732,"plain":7733,"Ġrob":7734,"ĠBOOK":7735,"ades":7736,"orial":7737,"pirit":7738,"antom":7739,"ĠFUND":7740,"ourth":7741,"Ġadvers":7742,"orts":7743,"rade":7744,"TINOM":7745,"rowd":7746,"Ġraising":7747,"critic":7748,"manifest":7749,"Ġsaf":7750,"Ġimitation":7751,"Ġanthropomorph":7752,"habit":7753,"CEPTION":7754,"ĠUNDER":7755,"toward":7756,"'t":7757,")(":7758,"):":7759,"--":7760,".âĢĶ":7761,"280":7762,"40":7763,"Act":7764,"Author":7765,"Besides":7766,"Critique":7767,"Foundation":7768,"Finally":7769,"GHT":7770,"Hume":7771,"IV":7772,"Is":7773,"Necessity":7774,"Plain":7775,"Time":7776,"VEN":7777,"YTIC":7778,"agement":7779,"aught":7780,"bra":7781,"business":7782,"ethics":7783,"fold":7784,"fits":7785,"gue":7786,"holy":7787,"iatus":7788,"lp":7789,"lication":7790,"license":7791,"lier":7792,"losing":7793,"mutable":7794,"pone":7795,"pite":7796,"pared":7797,"pdated":7798,"rs":7799,"sation":7800,"sciousness":7801,"scribe":7802,"tered":7803,"takes":7804,"taken":7805,"vention":7806,"xious":7807,"Ġution":7808,"Ġtone":7809,"Ġtemper":7810,"held":7811,"help":7812,"once":7813,"onical":7814,"ining":7815,"inner":7816,"incapable":7817,"inferences":7818,"inconsistent":7819,"incomprehensible":7820,"Ġoc":7821,"Ġomitted":7822,"itute":7823,"ithetic":7824,"isition":7825,"ateness":7826,"eral":7827,"erably":7828,"Ġwings":7829,"Ġwoe":7830,"Ġcut":7831,"Ġcard":7832,"Ġcustom":7833,"Ġculture":7834,"Ġsal":7835,"Ġsan":7836,"Ġsem":7837,"Ġsine":7838,"Ġsedu":7839,"Ġsmo":7840,"Ġsoft":7841,"Ġsaved":7842,"Ġpays":7843,"Ġpage":7844,"Ġpages":7845,"Ġportions":7846,"Ġpiece":7847,"alogy":7848,"almost":7849,"ica":7850,"Ġincap":7851,"Ġinsufficiency":7852,"Ġinhering":7853,"Ġincontest":7854,"Ġball":7855,"Ġbooks":7856,"Ġbaseless":7857,"Ġmil":7858,"Ġmixture":7859,"Ġmoments":7860,"Ġfed":7861,"Ġfere":7862,"Ġfire":7863,"Ġflat":7864,"anwhile":7865,"anuary":7866,"Ġec":7867,"Ġecon":7868,"Ġelucid":7869,"Ġrever":7870,"Ġreception":7871,"Ġrevere":7872,"Ġrestraint":7873,"Ġresolution":7874,"Ġreverse":7875,"Ġdi":7876,"Ġdread":7877,"Ġdwell":7878,"Ġduring":7879,"Ġdoubted":7880,"Ġbeg":7881,"entitled":7882,"otion":7883,"arum":7884,"arles":7885,"arched":7886,"arcely":7887,"asus":7888,"utiful":7889,"Ġhit":7890,"Ġhollow":7891,"iven":7892,"Ġlat":7893,"Ġlive":7894,"Ġlof":7895,"Ġlives":7896,"Ġlooks":7897,"Ġlively":7898,"Ġloose":7899,"Ġlimb":7900,"Ġnote":7901,"ĠĠĠĠĠ":7902,"Ġwealth":7903,"ceptive":7904,"terior":7905,"terms":7906,"Ġwithdrawn":7907,"uristic":7908,"ciences":7909,"verted":7910,"quality":7911,"Äłj":7912,"Äłres":7913,"Äłel":7914,"Äłint":7915,"Äłund":7916,"Äłgr":7917,"ecided":7918,"perity":7919,"ulating":7920,"ĠTHAT":7921,"ĠTerms":7922,"changed":7923,"ilt":7924,"ilty":7925,"Ġdeed":7926,"Ġdeceive":7927,"Ġalge":7928,"Ġalike":7929,"Ġintend":7930,"pleteness":7931,"acted":7932,"usality":7933,"usual":7934,"Ġhast":7935,"Ġhabits":7936,"illusions":7937,"illiant":7938,"aments":7939,"Ġunlaw":7940,"Ġunites":7941,"Ġuniting":7942,"Ġunconscious":7943,"Ġuninter":7944,"Ġunansw":7945,"Ġunobserved":7946,"Ġunmixed":7947,"Ġunvarying":7948,"ummum":7949,"umbling":7950,"Ġ(_":7951,"Ġthereon":7952,"Ġlawgiver":7953,"Ġspare":7954,"Ġcompos":7955,"Ġcomponent":7956,"notwithstanding":7957,"ofess":7958,"often":7959,"Ġrises":7960,"Ġrising":7961,"Ġrisk":7962,"estors":7963,"Ġmel":7964,"Ġundermin":7965,"Ġtroub":7966,"stands":7967,"ĠBel":7968,"ĠBUT":7969,"Ġheuristic":7970,"Ġimpract":7971,"ads":7972,"Ġpersist":7973,"posited":7974,"Ġregulate":7975,"Ġshadow":7976,"ĠFUL":7977,"ĠFinally":7978,"Ġstability":7979,"Ġstopp":7980,"Ġquit":7981,"Ġquid":7982,"ordination":7983,"Ġconsent":7984,"ĠAct":7985,"acle":7986,"united":7987,"Ġappet":7988,"caution":7989,"Ġadhere":7990,"Ġye":7991,"ĠPG":7992,"ĠPers":7993,"ĠPost":7994,"Ġdisregard":7995,"strained":7996,"Ġleap":7997,"teaching":7998,"ĠThought":7999,"Ġargu":8000,"Ġcharact":8001,"Ġparte":8002,"Ġpartiality":8003,"ĠĠĠĠĠĠĠĠĠĠĠĠĠĠĠĠĠĠĠĠĠĠĠĠĠĠĠĠĠĠĠĠĠĠĠĠĠĠĠ":8004,"ĠSc":8005,"ĠSen":8006,"ĠSee":8007,"elve":8008,"preted":8009,"precede":8010,"opyright":8011,"pposites":8012,"ĠOp":8013,"Ġsubmitted":8014,"Ġsubrept":8015,"possibly":8016,"Ġserious":8017,"Ġserving":8018,"Ġdiffers":8019,"Ġdiffered":8020,"ĠInternal":8021,"Ġplane":8022,"Ġplausible":8023,"Ġnothingness":8024,"ĠGos":8025,"reator":8026,"Ġgrate":8027,"Ġgross":8028,"coming":8029,"ĠCa":8030,"ĠCertain":8031,"ĠCosm":8032,"ĠCritical":8033,"Ġowing":8034,"proving":8035,"Ġdescribed":8036,"Ġdesirable":8037,"Ġemployees":8038,"Ġfirstly":8039,"Ġremed":8040,"Ġenabl":8041,"Ġbelonged":8042,"Ġago":8043,"Ġages":8044,"overty":8045,"ĠEngl":8046,"ĠEVEN":8047,"ĠRespect":8048,"ĠRedistrib":8049,"having":8050,"Ġoutset":8051,"Ġpossessions":8052,"earance":8053,"Ġamid":8054,"Ġamphiboly":8055,"Ġapplicability":8056,"Ġents":8057,"ouncing":8058,"Ġmatured":8059,"Ġattaching":8060,"ĠDO":8061,"ĠDate":8062,"ĠDuty":8063,"ĠDifference":8064,"ĠDogmat":8065,"assume":8066,"angles":8067,"Ġimpelled":8068,"thereto":8069,"Ġinviol":8070,"Ġhereby":8071,"disposed":8072,"dispute":8073,"Ġintelligibilis":8074,"Ġlikely":8075,"Ġhands":8076,"Ġresting":8077,"Ġrefuted":8078,"Ġrefutation":8079,"Ġdivisions":8080,"event":8081,"Ġproofread":8082,"ĠLIC":8083,"ĠLocke":8084,"Ġcompel":8085,"Ġcontradictorily":8086,"contradistinction":8087,"Ġassumptions":8088,"ERVATIONS":8089,"Ġconcludes":8090,"Ġtruths":8091,"Ġ100":8092,"Ġconsisting":8093,"Ġcontented":8094,"Intelligence":8095,"Ġconfound":8096,"Ġconfirmed":8097,"Ġconfounded":8098,"represented":8099,"Ġmathematically":8100,"Ġdiscovers":8101,"Ġmotions":8102,"Ġaffair":8103,"subordinated":8104,"Ġconceptus":8105,"relates":8106,"lements":8107,"Ġsatisfactorily":8108,"Ġindul":8109,"Ġindivid":8110,"Ġindemonstrable":8111,"ENSE":8112,"Ġstandpoint":8113,"Ġarrogant":8114,"ignific":8115,"Ġlegally":8116,"Ġimages":8117,"Ġesse":8118,"Ġneeded":8119,"Ġneedless":8120,"Ġguess":8121,"Ġguides":8122,"Ġguided":8123,"Ġguiding":8124,"Ġantiqu":8125,"ĠĠĠĠĠĠĠĠĠĠĠĠĠĠĠĠĠĠĠĠĠĠĠĠĠ":8126,"ĠĠĠĠĠĠĠĠĠĠĠĠĠĠĠĠĠĠĠĠĠĠĠĠĠĠĠĠĠĠ":8127,"Ġscarcely":8128,"Ġnegativum":8129,"partly":8130,"subjected":8131,"Ġinvestigated":8132,"Ġinvestigating":8133,"Ġasserts":8134,"Ġassertor":8135,"Ġasserting":8136,"Ġassertorical":8137,"oval":8138,"ĠTHIRD":8139,"TERNAL":8140,"morally":8141,"Ġattributing":8142,"Ġcoal":8143,"ĠSuppose":8144,"completion":8145,"Ġhero":8146,"Ġprevents":8147,"Ġdistinctions":8148,"Ġmisled":8149,"Ġmisconceptions":8150,"Ġpassages":8151,"Ġdeductions":8152,"Ġmaterialism":8153,"Ġceases":8154,"Ġaffection":8155,"Ġvariance":8156,"Ġfalling":8157,"ĠTHEOREM":8158,"Ġfals":8159,"ontological":8160,"Ġadding":8161,"Ġagreed":8162,"Ġunden":8163,"ĠYet":8164,"Ġcircular":8165,"Ġspecious":8166,"Ġintellect":8167,"Ġbrain":8168,"Ġbranc":8169,"Ġbrilliant":8170,"everyone":8171,"morals":8172,"Ġvolunt":8173,"Ġadvantageous":8174,"prescribes":8175,"indefinitum":8176,"Ġparallel":8177,"whereby":8178,"Äłsur":8179,"Ġauthors":8180,"community":8181,"Ġcontinues":8182,"Ġcontinuum":8183,"Ġantecede":8184,"Ġcomparatively":8185,"ĠUnless":8186,"ĠUniversal":8187,"believe":8188,"justify":8189,"Ġtransfer":8190,"Ġtransformed":8191,"ĠExcept":8192,"ruption":8193,"Ġinscr":8194,"Ġprofits":8195,"Ġcombine":8196,"Ġexclusion":8197,"Ġdogmatically":8198,"Ġdesigns":8199,"Ġtranscendentally":8200,"Ġevils":8201,"INTRODUCTION":8202,"Ġcomprehension":8203,"Ġblamed":8204,"Ġbliss":8205,"Ġ568":8206,"ighbour":8207,"Ġsurvey":8208,"ĠArgum":8209,"Ġrestricts":8210,"ificent":8211,"Ġappropriate":8212,"ĠVanilla":8213,"confess":8214,"Ġearlier":8215,"employing":8216,"ĠJanuary":8217,"THING":8218,"containing":8219,"Ġseparation":8220,"Ġtests":8221,"Ġcareful":8222,"Ġdesert":8223,"Ġconcrete":8224,"insically":8225,"divisibility":8226,"possession":8227,"Ġacquisition":8228,"Ġhypothetically":8229,"faculties":8230,"Ġputs":8231,"Ġadopting":8232,"thinks":8233,"ĠpropÃ¦deutic":8234,"analyse":8235,"conformable":8236,"conformably":8237,"Ġhappening":8238,"Ġdestroyed":8239,"Ġreaching":8240,"kinds":8241,"demonstrative":8242,"Ġconvert":8243,"Ġconversion":8244,"Ġsubtlety":8245,"judge":8246,"sensations":8247,"province":8248,"characteristic":8249,"characteristics":8250,"Ġcollected":8251,"Ġannihilates":8252,"Ġlaying":8253,"ĠANTINOM":8254,"contentment":8255,"enetrable":8256,"Ġimplanted":8257,"Ġindispensably":8258,"Ġdefault":8259,"Ġadmire":8260,"lightened":8261,"Supposing":8262,"Ġmajesty":8263,"Ġplainly":8264,"Ġfanci":8265,"subsisting":8266,"continue":8267,"continuous":8268,"Ġopened":8269,"Ġassigns":8270,"Ġabsurdity":8271,"Ġplanets":8272,"particularly":8273,"Ġinduction":8274,"Ġinduced":8275,"Ġreceipt":8276,"Ġdiscernment":8277,"Ġborrowing":8278,"Ġelevating":8279,"Ġsucceeding":8280,"Ġmistake":8281,"Ġperformed":8282,"Ġapparently":8283,"Only":8284,"afterwards":8285,"Ġnecessitate":8286,"Ġremoves":8287,"Ġsubsume":8288,"Ġfitted":8289,"Ġfitting":8290,"Ġcry":8291,"Ġaggregation":8292,"Ġproportioned":8293,"Ġreflecting":8294,"proofs":8295,"Ġpopularity":8296,"Ġrenunciation":8297,"Ġrepay":8298,"Ġsignal":8299,"Ġreturns":8300,"Ġanimals":8301,"Ġexcused":8302,"Ġentering":8303,"pretation":8304,"Ġcalm":8305,"Ġprosperity":8306,"Ġextravag":8307,"Ġextraordin":8308,"Ġpersuaded":8309,"Ġpersuade":8310,"ĠCharles":8311,"ĠEmpty":8312,"Ġschematism":8313,"defined":8314,"Ġordains":8315,"Ġordinary":8316,"influenced":8317,"Ġtwelve":8318,"Ġwondered":8319,"Ġbuilt":8320,"Ġsuggested":8321,"transgress":8322,"ĠMorals":8323,"Ġhonesty":8324,"Ġhonestly":8325,"scepticism":8326,"Ġdoctrinal":8327,"Ġsubsisting":8328,"Ġsubsistence":8329,"Ġillustration":8330,"Ġillustrate":8331,"Ġsecretly":8332,"Ġconfession":8333,"deduce":8334,"commonest":8335,"Ġprotect":8336,"ĠWho":8337,"ĠWhatever":8338,"Ġanticipation":8339,"Ġcontemplated":8340,"Ġcomplaint":8341,"ĠInterest":8342,"Ġpathologically":8343,"restriction":8344,"restricted":8345,"sufficiently":8346,"anthropology":8347,"Ġcommunicated":8348,"Ġabandons":8349,"ĠCONFL":8350,"Ġsupplying":8351,"Ġperiods":8352,"Ġperiodic":8353,"AMENTAL":8354,"assumed":8355,"assumption":8356,"maintained":8357,"absence":8358,"Ġdictate":8359,"Ġdictates":8360,"Ġchimeras":8361,"Ġchimerical":8362,"ĠMetaphysical":8363,"commanded":8364,"Ġmonth":8365,"intuite":8366,"clearness":8367,"coexistence":8368,"Ġarchitectonical":8369,"Ġfulfilment":8370,"Ġclearer":8371,"Ġresolve":8372,"Ġresolved":8373,"Ġrecommended":8374,"Ġdry":8375,"Ġhardly":8376,"Ġundertaken":8377,"Ġformats":8378,"Ġdisclaimer":8379,"Ġdisclaimers":8380,"Ġgranting":8381,"Ġambiguous":8382,"Ġnumerical":8383,"ĠIdealism":8384,"Ġcalculate":8385,"Ġcalculated":8386,"Ġhypertext":8387,"anticipation":8388,"reciprocally":8389,"Ġproprietary":8390,"ĠTransition":8391,"Ġembraces":8392,"copyright":8393,"Ġreveal":8394,"Ġpraised":8395,"ĠCompleteness":8396,"Ġparalogisms":8397,"Ġdestructive":8398,"Ġmagnanim":8399,"Ġmagnificent":8400,"Ġwarnings":8401,"various":8402,"Ġanthropology":8403,"smallest":8404,"words":8405,"Ġcredential":8406,"Ġinherent":8407,"Ġinstitute":8408,"Ġinstituted":8409,"Ġthreaten":8410,"Ġmutual":8411,"Ġfooting":8412,"Ġsusceptibility":8413,"Ġunbroken":8414,"Ġhearing":8415,"ĠApplication":8416,"ĠAppearance":8417,"Ġimperfection":8418,"ĠProblem":8419,"ĠProblems":8420,"Ġobstinate":8421,"Ġobstinately":8422,"Ġhypostatizing":8423,"CLUDING":8424,"circle":8425,"ĠSTART":8426,"syllogisms":8427,"Ġhesitate":8428,"Ġselfishness":8429,"Ġomnipotence":8430,"Ġmiddle":8431,"Ġbeautiful":8432,"Ġroyalty":8433,"Ġroyalties":8434,"Ġvisit":8435,"Ġsharp":8436,"ĠPossible":8437,"Ġgrowth":8438,"Ġenumeration":8439,"Ġinfallible":8440,"Ġcompensate":8441,"Ġguaranteed":8442,"Ġpoison":8443,"Ġcourage":8444,"Ġlurks":8445,"Ġsuitably":8446,"Ġunfair":8447,"Ġvacant":8448,"inevitable":8449,"Ġinvalidity":8450,"Ġelaboration":8451,"Ġcoincide":8452,"Ġharmless":8453,"ocrisy":8454,"Ġconjoining":8455,"Ġcombatants":8456,"ĠANALYTIC":8457,"ĠMathematical":8458,"ĠMathematics":8459,"Ġpattern":8460,"annihilated":8461,"Ġparticipation":8462,"ĠConclusions":8463,"Ġfairly":8464,"Ġostensive":8465,"Ġlaborious":8466,"ĠDISTRIBUT":8467,"Ġimpediments":8468,"Ġdeliberate":8469,"specification":8470,"Ġindubitable":8471,"Ġridiculous":8472,"assigned":8473,"accurate":8474,"accompanied":8475,"Archive":8476,"spontaneity":8477,"Nothing":8478,"heteronomy":8479,"reckoned":8480,"speaking":8481,"Produced":8482,"declaring":8483,"efforts":8484,"referred":8485,"Ġfiles":8486,"Ġrestrain":8487,"ĠGround":8488,"Ġboni":8489,"Ġpragmatical":8490,"Ġexaggerated":8491,"ĠIllusory":8492,"Ġvictory":8493,"Ġvague":8494,"Ġsynonymous":8495,"Ġstepping":8496,"ĠAGREE":8497,"Ġmaster":8498,"ĠIntroductory":8499,"ignorance":8500,"appeared":8501,"Ġsurprising":8502,"Ġfigurative":8503,"Ġstructure":8504,"Ġastonishment":8505,"Ġdenominate":8506,"Ġdeceitful":8507,"ducive":8508,"Principle":8509,"Empirical":8510,"spring":8511,"sletter":8512,"intrinsic":8513,"atirae":8514,"prudence":8515,"Ġissue":8516,"Ġanxiety":8517,"ĠIDEAS":8518,"Ġprohibition":8519,"Ġappellation":8520,"ĠPsychology":8521,"ĠRelation":8522,"ĠRoyalty":8523,"ĠMonad":8524,"Ġomniscient":8525,"Ġcatalogue":8526,"Ġancestors":8527,"ĠHAVE":8528,"Happiness":8529,"OBSERVATIONS":8530,"better":8531,"future":8532,"ĠFUNDAMENTAL":8533,"Ġsafety":8534,"Ġfederal":8535,"Ġreverence":8536,"Ġalgebra":8537,"Ġunlawful":8538,"Ġcompositum":8539,"ĠBelief":8540,"ĠFULL":8541,"Ġcharacters":8542,"Ġenabling":8543,"ĠDogmatism":8544,"ĠLICENSE":8545,"Ġbranches":8546,"Ġinscrutable":8547,"ĠANTINOMY":8548,"Ġextraordinary":8549,"ĠCONFLICT":8550,"Ġmagnanimous":8551,"cur":8552,"eg":8553,"Ġice":8554,"Ġize":8555,"Ġives":8556,"Ġak":8557,"Ġau":8558,"Ġore":8559,"Ġpon":8560,"Ġite":8561,"Ġving":8562,"Ġks":8563,"Ġlear":8564,"Ġtern":8565,"princip":8566,"ĠUT":8567,"Ġia":8568,"Äłinv":8569,"cret":8570,"Concl":8571,"568":8572,"Ch":8573,"IX":8574,"OP":8575,"nic":8576,"xt":8577,"Ġib":8578,"Ġire":8579,"Ġict":8580,"onom":8581,"Ġther":8582,"esis":8583,"Ġbar":8584,"Ġists":8585,"thetic":8586,"Äłover":8587,"Äłrel":8588,"Ġproc":8589,"hentic":8590,"cast":8591,"Ġress":8592,"Äłco":8593,"ilarly":8594,"architect":8595,"veloped":8596,"20":8597,"622":8598,"Cont":8599,"bre":8600,"carr":8601,"fail":8602,"ho":8603,"hum":8604,"lab":8605,"oh":8606,"vi":8607,"Â¢":8608,"Ġized":8609,"het":8610,"ann":8611,"asc":8612,"Ġue":8613,"Ġust":8614,"impl":8615,"Ġles":8616,"ithmet":8617,"Äły":8618,"Äłant":8619,"Äłext":8620,"Äłpres":8621,"Äłcomm":8622,"Äłappro":8623,"emin":8624,"chimer":8625,"endi":8626,"hensibility":8627,"illustr":8628,"depr":8629,"prot":8630,"pros":8631,"suggest":8632,"ĠAL":8633,"ungl":8634,"prohib":8635,"ÃĦÅĤb":8636,"ÃĦÅĤde":8637,"sensual":8638,"Ġcorrupt":8639,"ocal":8640,"Äłinf":8641,"hapsod":8642,"Äłref":8643,"attack":8644,"iberum":8645,"inevit":8646,"hensions":8647,"19":8648,"55":8649,"75":8650,"AIM":8651,"DENTAL":8652,"DED":8653,"Epic":8654,"IVE":8655,"LE":8656,"Mor":8657,"Sto":8658,"URE":8659,"az":8660,"cal":8661,"cert":8662,"dest":8663,"eas":8664,"elev":8665,"fa":8666,"fam":8667,"kal":8668,"lo":8669,"mer":8670,"penetr":8671,"sid":8672,"touch":8673,"uously":8674,"wis":8675,"wart":8676,"warrant":8677,"Ġ#":8678,"Ġ$":8679,"ĠÄ":8680,"Ġtain":8681,"Ġae":8682,"ino":8683,"instruct":8684,"enumer":8685,"alter":8686,"Ġination":8687,"estr":8688,"Ġthrow":8689,"Ġere":8690,"llous":8691,"Ġual":8692,"ivae":8693,"osity":8694,"Ġances":8695,"Ġland":8696,"ider":8697,"thy":8698,"threat":8699,"Äłir":8700,"Äłus":8701,"Äłapp":8702,"embarrass":8703,"conject":8704,"confin":8705,"conven":8706,"ilia":8707,"Ġcoming":8708,"Ġrap":8709,"estic":8710,"prim":8711,"mental":8712,"specul":8713,"bell":8714,"service":8715,"propri":8716,"ÃĦÅĤt":8717,"ÃĦÅĤex":8718,"Ġinterested":8719,"controvert":8720,"Ġresist":8721,"ERAL":8722,"ERCHA":8723,"Ġ16":8724,"contempt":8725,"product":8726,"myst":8727,"Ġological":8728,"opernic":8729,"PLEAS":8730,"iliary":8731,"Ġ80":8732,"seek":8733,"SIBILITY":8734,"ancendent":8735,"schol":8736,"circumst":8737,"PENDIX":8738,"banks":8739,"62215":8740,"10":8741,"45":8742,"Among":8743,"First":8744,"Fourth":8745,"GENCE":8746,"NES":8747,"POSE":8748,"SS":8749,"WARRAN":8750,"Wolf":8751,"custom":8752,"dden":8753,"ew":8754,"fast":8755,"firm":8756,"fault":8757,"gust":8758,"hort":8759,"high":8760,"hip":8761,"join":8762,"mother":8763,"nify":8764,"pus":8765,"sure":8766,"sipp":8767,"tes":8768,"Ġ'":8769,"Ġ+":8770,"Ġting":8771,"heit":8772,"Ġace":8773,"Ġadequ":8774,"rew":8775,"atch":8776,"erke":8777,"Ġwarrant":8778,"Ġcame":8779,"Ġindiscern":8780,"Ġbow":8781,"Ġborne":8782,"Ġfund":8783,"anch":8784,"animal":8785,"leology":8786,"Ġret":8787,"omat":8788,"omni":8789,"otyp":8790,"aralogism":8791,"asm":8792,"ascertain":8793,"imid":8794,"image":8795,"Ġld":8796,"urbed":8797,"ĠIX":8798,"Äłunder":8799,"sibilities":8800,"constant":8801,"abilis":8802,"iest":8803,"trace":8804,"off":8805,"ousand":8806,"adem":8807,"adapt":8808,"Ġsyllogistic":8809,"phold":8810,"ometer":8811,"acent":8812,"teen":8813,"spread":8814,"sissipp":8815,"prefer":8816,"aging":8817,"Ġthank":8818,"meant":8819,"ĠCHA":8820,"ÃĦÅĤh":8821,"ÃĦÅĤcon":8822,"weight":8823,"Ġhappily":8824,"lessed":8825,"ĠED":8826,"ĠER":8827,"uteness":8828,"Ġapper":8829,"undoubted":8830,"contrib":8831,"structive":8832,"ENTI":8833,"arrangement":8834,"ALITY":8835,"obvious":8836,"grant":8837,"Ġ22":8838,"iae":8839,"indefinite":8840,"commerci":8841,"belie":8842,"aska":8843,"iumph":8844,"invent":8845,"Ġagreeable":8846,"Ġagreeableness":8847,"Ġpositions":8848,"ĠÃ¢Ä¢Ä":8849,"superfluous":8850,"consequentia":8851,"junct":8852,"SEQU":8853,"Ġidle":8854,"CTRIN":8855,"colour":8856,"Ġinstructed":8857,"CLAIM":8858,"reptitious":8859,"guarded":8860,"false":8861,"ERCHANT":8862,"!)":8863,"\".":8864,"*]":8865,".:":8866,".;":8867,"11":8868,"178":8869,"39":8870,"57":8871,"79":8872,"After":8873,"Books":8874,"EBook":8875,"Further":8876,"FIRST":8877,"FORE":8878,"IED":8879,"IRECT":8880,"Literary":8881,"License":8882,"Language":8883,"LIMITED":8884,"Most":8885,"Moreover":8886,"PPENDIX":8887,"Right":8888,"Rational":8889,"Remark":8890,"RICT":8891,"RPOSE":8892,"Title":8893,"Very":8894,"aple":8895,"apart":8896,"aired":8897,"acies":8898,"bly":8899,"ches":8900,"culture":8901,"cartes":8902,"dash":8903,"dignity":8904,"ease":8905,"eBook":8906,"eBooks":8907,"failed":8908,"iological":8909,"ipses":8910,"iosity":8911,"land":8912,"mas":8913,"mise":8914,"mber":8915,"mdash":8916,"oke":8917,"opposed":8918,"pire":8919,"putation":8920,"ror":8921,"rought":8922,"ried":8923,"sakes":8924,"taking":8925,"txt":8926,"uation":8927,"uated":8928,"vity":8929,"vive":8930,"vain":8931,"verest":8932,"wishes":8933,"xiliary":8934,"yle":8935,"zip":8936,"Ġvel":8937,"Ġtant":8938,"Ġtear":8939,"Ġtempt":8940,"Ġapt":8941,"iny":8942,"inference":8943,"information":8944,"instruction":8945,"ineness":8946,"Ġome":8947,"Ġopposing":8948,"Ġopposites":8949,"Ġtheolog":8950,"rendered":8951,"recognized":8952,"reverse":8953,"reproductive":8954,"itatis":8955,"iteness":8956,"Ġoffered":8957,"atible":8958,"atically":8959,"atae":8960,"erion":8961,"erce":8962,"ervice":8963,"Ġwont":8964,"Ġwander":8965,"Ġcand":8966,"Ġcold":8967,"Ġcurs":8968,"Ġcush":8969,"Ġcitiz":8970,"Ġsis":8971,"Ġsag":8972,"Ġsending":8973,"Ġsorrow":8974,"Ġsmell":8975,"Ġpoverty":8976,"along":8977,"alogical":8978,"icited":8979,"Ġincompre":8980,"Ġincorrect":8981,"Ġinjustice":8982,"Ġinsecure":8983,"Ġinstrum":8984,"Ġinaccurate":8985,"Ġincontrovert":8986,"esthetic":8987,"Ġbro":8988,"Ġbinary":8989,"Ġthir":8990,"Ġthread":8991,"Ġthwart":8992,"orous":8993,"Ġming":8994,"Ġmove":8995,"Ġmock":8996,"Ġmillion":8997,"cease":8998,"cember":8999,"Ġfing":9000,"Ġfam":9001,"Ġfant":9002,"Ġfaint":9003,"Ġfavoured":9004,"Ġfresh":9005,"analogy":9006,"edifice":9007,"editions":9008,"edient":9009,"Ġnom":9010,"Ġnought":9011,"Ġnames":9012,"Ġnaught":9013,"Ġecl":9014,"Ġeleg":9015,"Ġearn":9016,"Ġepo":9017,"outh":9018,"Ġised":9019,"Ġished":9020,"Ġistic":9021,"ley":9022,"leave":9023,"Ġrecognition":9024,"Ġrepress":9025,"Ġreaches":9026,"Ġremind":9027,"Ġresearch":9028,"Ġresemble":9029,"Ġdouble":9030,"Ġbeha":9031,"stition":9032,"sthetical":9033,"entions":9034,"Ġwhit":9035,"otes":9036,"utor":9037,"utum":9038,"utious":9039,"Ġhour":9040,"Ġhint":9041,"Ġhiatus":9042,"Ġprince":9043,"Ġasks":9044,"Ġascribing":9045,"thew":9046,"theory":9047,"theologia":9048,"ivocal":9049,"imony":9050,"imilarly":9051,"Ġexhausted":9052,"Ġong":9053,"Ġliqu":9054,"Ġlangu":9055,"Ġlament":9056,"Ġlikes":9057,"Ġliking":9058,"Ġwear":9059,"Ġforget":9060,"idge":9061,"idently":9062,"Ġsuppos":9063,"Ġsuits":9064,"Ġsudden":9065,"irus":9066,"Ġgene":9067,"urance":9068,"quid":9069,"ivered":9070,"resistance":9071,"isturbed":9072,"Äłto":9073,"Äłev":9074,"ÄłCon":9075,"emarks":9076,"embered":9077,"emnify":9078,"Ġproject":9079,"Ġreasoners":9080,"ĠTRAN":9081,"Ġobjected":9082,"connexion":9083,"vellous":9084,"choice":9085,"endeavoured":9086,"iliar":9087,"Ġdear":9088,"Ġdeist":9089,"Ġdeposit":9090,"Ġdeceptive":9091,"Ġaltered":9092,"Ġalkal":9093,"Ġintentions":9094,"pleases":9095,"acts":9096,"actly":9097,"therwise":9098,"usio":9099,"illusory":9100,"aware":9101,"aming":9102,"amount":9103,"plan":9104,"Ġunsol":9105,"Ġunquestion":9106,"Ġunconnected":9107,"Ġunimportant":9108,"Ġunanim":9109,"Ġunsatisfactory":9110,"âĢĶ(":9111,"olunteers":9112,"ighed":9113,"igious":9114,"ĠĠĠĠĠĠĠĠĠĠ":9115,"Ġthereupon":9116,"Ġlawless":9117,"tries":9118,"tricable":9119,"Ġspent":9120,"Ġspheres":9121,"Ġsprun":9122,"Ġcomfort":9123,"ested":9124,"Ġpossibilities":9125,"Ġempiric":9126,"Ġembell":9127,"Ġsoar":9128,"ideality":9129,"Ġvulg":9130,"Ġvicious":9131,"Ġvocation":9132,"Ġvirus":9133,"Ġtrave":9134,"Ġtraining":9135,"Ġtrades":9136,"Ġtriumph":9137,"Ġwilled":9138,"odes":9139,"odality":9140,"ĠTheology":9141,"ĠTheoretical":9142,"ĠBec":9143,"ĠBonum":9144,"ĠBetween":9145,"Ġhearer":9146,"Ġimposing":9147,"Ġimmedi":9148,"Ġimmutable":9149,"Ġabut":9150,"Ġabode":9151,"ounds":9152,"Ġpertaining":9153,"allowed":9154,"Ġnovel":9155,"Ġnobody":9156,"supposes":9157,"Ġregulating":9158,"Ġusage":9159,"antity":9160,"phaenomenon":9161,"Ġshalt":9162,"ĠFac":9163,"ĠFRO":9164,"ĠFIT":9165,"ĠFOU":9166,"Ġsearched":9167,"Ġcognizes":9168,"Ġstay":9169,"Ġstaff":9170,"Ġstream":9171,"Ġstumbling":9172,"Ġstyle":9173,"Ġquick":9174,"Ġreligious":9175,"presenting":9176,"why":9177,"whom":9178,"Ġconscience":9179,"nowhere":9180,"ĠAd":9181,"ĠAutonomy":9182,"ĠAug":9183,"ĠAxioms":9184,"ĠAesthetic":9185,"acquire":9186,"Ġjuris":9187,"Ġaccus":9188,"union":9189,"unattainable":9190,"Ġappend":9191,"forces":9192,"ĠForm":9193,"ĠPre":9194,"ĠPref":9195,"ĠPART":9196,"ĠParalogism":9197,"Ġdisk":9198,"Ġdiss":9199,"Ġdispar":9200,"Ġdisposed":9201,"Ġdispleasure":9202,"Ġdissect":9203,"Ġdissection":9204,"Ġdisinterested":9205,"Ġdisappoint":9206,"Ġdisgust":9207,"etc":9208,"etic":9209,"etition":9210,"eties":9211,"etext":9212,"Ġlect":9213,"teleological":9214,"ĠThose":9215,"ĠThrough":9216,"Ġarm":9217,"Ġargue":9218,"Ġcharm":9219,"Ġchallen":9220,"Ġpartially":9221,"Ġsomeone":9222,"Ġmoralists":9223,"ĠĠĠĠĠĠĠĠĠĠĠĠĠĠĠĠĠĠĠĠĠĠĠĠĠĠĠĠĠĠĠĠĠĠĠ":9224,"ternational":9225,"ĠSh":9226,"ĠSoul":9227,"ĠSUC":9228,"ĠSpecial":9229,"ĠSecondly":9230,"ĠSummum":9231,"ĠSatirae":9232,"ĠService":9233,"ĠSouth":9234,"Ġphantom":9235,"eless":9236,"solve":9237,"ensed":9238,"Ġwhoever":9239,"opinions":9240,"ĠNecessity":9241,"ĠNEG":9242,"ĠOTHER":9243,"intensive":9244,"intended":9245,"Ġsubmission":9246,"Ġsubspecies":9247,"Ġsubordination":9248,"imitation":9249,"Ġfreed":9250,"Ġnearest":9251,"Ġneighbour":9252,"ĠInte":9253,"ĠInfinite":9254,"ĠInasmuch":9255,"Ġplans":9256,"Ġcausa":9257,"orted":9258,"Ġcontents":9259,"ĠGre":9260,"ĠGIVE":9261,"reating":9262,"ĠWis":9263,"ĠWest":9264,"ĠWhence":9265,"ĠWHAT":9266,"Ġgrown":9267,"Ġgravity":9268,"comes":9269,"They":9270,"ĠCl":9271,"ĠCause":9272,"ĠCopyright":9273,"ĠCreator":9274,"ĠCopernic":9275,"formulae":9276,"Ġposed":9277,"Ġpositing":9278,"Ġobl":9279,"projected":9280,"Ġfounds":9281,"Ġcommitted":9282,"Ġremoval":9283,"Ġdiscret":9284,"Ġsystematically":9285,"ĠHist":9286,"ĠHypothe":9287,"Ġactuality":9288,"weapons":9289,"Ġextinct":9290,"Ġenv":9291,"Ġenig":9292,"Ġenounced":9293,"Ġenclose":9294,"Ġenjoined":9295,"Ġagents":9296,"stitution":9297,"ĠEv":9298,"ĠEIN":9299,"ĠEBook":9300,"ĠEthics":9301,"ĠElements":9302,"ĠRemark":9303,"ĠRemarks":9304,"Ġeffecting":9305,"Ġeffective":9306,"Ġtert":9307,"Ġthinkable":9308,"Ġoutline":9309,"Ġoutlines":9310,"Ġsensibilis":9311,"reasoning":9312,"early":9313,"Ġassures":9314,"Ġassuring":9315,"Ġassurance":9316,"Ġenters":9317,"Ġentium":9318,"Ġentrust":9319,"physiology":9320,"ĠDr":9321,"Ġgreatness":9322,"Ġbasing":9323,"Ġfacta":9324,"Ġfacto":9325,"Ġfacts":9326,"Ġsecures":9327,"angled":9328,"ribe":9329,"Ġinclined":9330,"Ġimpot":9331,"Ġimputation":9332,"Ġimpenetrability":9333,"Ġshallow":9334,"Ġoriginator":9335,"Thou":9336,"Those":9337,"Thirdly":9338,"Ġcorrection":9339,"Ġcorruption":9340,"Ġinvention":9341,"discipline":9342,"Ġinflex":9343,"Ġexplore":9344,"Ġpowerless":9345,"Ġintelligibility":9346,"ĠMay":9347,"ĠMany":9348,"ĠMotion":9349,"ĠMERCHANT":9350,"experienced":9351,"ĠReality":9352,"ĠReplace":9353,"ĠRepresentation":9354,"ĠRefund":9355,"Ġwherefore":9356,"Ġcharacterized":9357,"Ġcharacterizes":9358,"raid":9359,"raise":9360,"raising":9361,"Ġrested":9362,"Ġanalyst":9363,"Ġrefuses":9364,"Ġsummon":9365,"ĠLat":9366,"Ġcompounded":9367,"Ġadvice":9368,"Ġresides":9369,"Ġconceives":9370,"Ġconclusive":9371,"Ġ17":9372,"Ġ18":9373,"Ġsincere":9374,"Ġdecre":9375,"ĠUnder":9376,"ĠUpon":9377,"Ġmetal":9378,"Ġillum":9379,"learned":9380,"Ġsupplement":9381,"Ġconsistently":9382,"Information":9383,"Instead":9384,"International":9385,"Ġaimed":9386,"represents":9387,"representing":9388,"subtle":9389,"substratum":9390,"Ġ[*]":9391,"related":9392,"religion":9393,"ĠConsciousness":9394,"ĠOne":9395,"ĠOnt":9396,"redit":9397,"Ġindulgence":9398,"Ġindestr":9399,"Ġindemnify":9400,"Ġdegr":9401,"naturally":9402,"natura":9403,"Ġplea":9404,"Ġpleasing":9405,"ENERAL":9406,"Ġsuccessfully":9407,"Ġdefining":9408,"Ġworthlessness":9409,"TICE":9410,"Ġacuteness":9411,"Ġarranging":9412,"Ġupwards":9413,"Ġelimin":9414,"Ġoccasions":9415,"Ġobserver":9416,"Ġobserves":9417,"Ġobservers":9418,"monition":9419,"Ġlegitim":9420,"Ġconsequentia":9421,"Ġneedful":9422,"Ġguilty":9423,"Ġresulted":9424,"Ġmodus":9425,"Ġmodified":9426,"Ġmodesty":9427,"ĠĠĠĠĠĠĠĠĠĠĠĠĠĠĠĠĠĠĠĠĠĠĠĠĠĠĠĠ":9428,"Ġscatt":9429,"Ġcopied":9430,"Ġcopula":9431,"Ġnegations":9432,"arrive":9433,"subjects":9434,"Ġnewsletter":9435,"Ġmaintenance":9436,"Ġreading":9437,"Ġbodily":9438,"Ġmethodology":9439,"obedience":9440,"Ġeasier":9441,"ovember":9442,"Ġovercome":9443,"Ġdogmas":9444,"Ġnonsense":9445,"synthetic":9446,"Ġdemonstrates":9447,"Ġanswering":9448,"Ġcoherence":9449,"Ġposterity":9450,"Ġpostpone":9451,"Ġexcepted":9452,"Ġmemory":9453,"Ġcontinual":9454,"Ġinquires":9455,"Ġidentify":9456,"Ġprovision":9457,"Ġprovides":9458,"Ġprovisions":9459,"Ġinstant":9460,"Ġexpects":9461,"Ġmislead":9462,"Ġmiserable":9463,"Ġhoping":9464,"Ġhoped":9465,"Ġhopeless":9466,"Ġdenote":9467,"Ġappreciation":9468,"extended":9469,"ocent":9470,"Ġceaseless":9471,"Ġgenerality":9472,"Ġgenerations":9473,"Ġobliges":9474,"Ġremarkably":9475,"Ġaffecting":9476,"Ġaffections":9477,"Ġprogressing":9478,"Ġvariable":9479,"Ġsuperstition":9480,"simony":9481,"Ġaids":9482,"blance":9483,"differences":9484,"Ġdraws":9485,"Ġaffirms":9486,"connects":9487,"Ġharmonizes":9488,"sometimes":9489,"Ġundisturbed":9490,"Ġyourselves":9491,"ĠYes":9492,"Ġbrief":9493,"Äłinter":9494,"Ġvolume":9495,"Ġjudicial":9496,"Ġfutility":9497,"Ġdistinctive":9498,"Ġoperate":9499,"Ġintrinsically":9500,"ĠAny":9501,"presence":9502,"Ġcorrective":9503,"limitations":9504,"Ġpretence":9505,"Ġabsor":9506,"Ġlieu":9507,"legal":9508,"Ġintuites":9509,"Ġleaden":9510,"Ġcontinuance":9511,"impression":9512,"intelligent":9513,"intelligibility":9514,"ĠUniverse":9515,"Ġdynamically":9516,"justification":9517,"Ġsupports":9518,"Ġsupporting":9519,"Ġtransfers":9520,"ordinate":9521,"ĠExt":9522,"Ġexhibition":9523,"Ġinsignific":9524,"Ġrecognises":9525,"Ġrecognised":9526,"Ġcombines":9527,"Ġdesignated":9528,"Ġkept":9529,"Ġabstracting":9530,"compare":9531,"Ġoccupying":9532,"Ġdonation":9533,"Ġdonors":9534,"Ġsurr":9535,"Ġsurpass":9536,"Ġsurrender":9537,"Ġsurveyed":9538,"Ġsurreptitious":9539,"Ġsurvive":9540,"Ġdelight":9541,"Ġapprove":9542,"confusion":9543,"confirmed":9544,"Ġreferring":9545,"created":9546,"Ġcircumference":9547,"Ġearlies":9548,"considering":9549,"considerable":9550,"quantitas":9551,"Ġorganism":9552,"ĠJuly":9553,"Ġsignifications":9554,"placed":9555,"distinguishing":9556,"ĠKey":9557,"ĠKIND":9558,"people":9559,"Ġfurnishing":9560,"ĠREAD":9561,"Ġseparately":9562,"Ġtested":9563,"Ġtestimony":9564,"worthiness":9565,"divided":9566,"Ġdisputing":9567,"Ġdisputation":9568,"Ġcreate":9569,"Ġcreations":9570,"Ġcarries":9571,"Ġcarried":9572,"Ġcarrying":9573,"Ġaccepts":9574,"Ġacceptation":9575,"Ġspeaks":9576,"value":9577,"Ġgains":9578,"Ġgaining":9579,"Ġsimilarly":9580,"Ġcosmology":9581,"ĠState":9582,"ĠStaple":9583,"originally":9584,"originates":9585,"conformability":9586,"Ġinterfere":9587,"Ġintermediate":9588,"Ġintervention":9589,"Ġinterpreted":9590,"demonstrate":9591,"Ġwisely":9592,"Ġconversation":9593,"judged":9594,"Ġarts":9595,"providing":9596,"realitas":9597,"Ġcollective":9598,"ĠANTITHESIS":9599,"concealed":9600,"antecede":9601,"explained":9602,"Release":9603,"mortal":9604,"Ġheterogeneity":9605,"Ġ95":9606,"Ġ99":9607,"Ġtranscending":9608,"Ġtranscription":9609,"Ġtranscribe":9610,"criterion":9611,"greatness":9612,"discovering":9613,"Ġindisp":9614,"Ġcomprehending":9615,"Ġreciprocity":9616,"Ġprivativum":9617,"Ġprivilege":9618,"Ġequals":9619,"continually":9620,"denial":9621,"Ġsophistries":9622,"Ġfailing":9623,"Ġanalogon":9624,"Ġbackwards":9625,"ĠImper":9626,"Ġdetect":9627,"Ġdetail":9628,"airbanks":9629,"Ġpracticability":9630,"Ġhumility":9631,"Ġhumble":9632,"Ġprocessing":9633,"Ġinduces":9634,"Ġventures":9635,"Ġventured":9636,"EDIES":9637,"Ġturns":9638,"posted":9639,"postulate":9640,"Ġdiscerning":9641,"Ġcontributing":9642,"Ġelevates":9643,"Ġweighty":9644,"Ġstudies":9645,"Ġantecedentia":9646,"nexus":9647,"looked":9648,"Ġmistrust":9649,"accordant":9650,"negation":9651,"contingency":9652,"Ġpunished":9653,"Ġpunishments":9654,"indicating":9655,"Ġdestined":9656,"Ġdestitute":9657,"Ġcapability":9658,"Ġpreserved":9659,"ĠDefect":9660,"ĠDependence":9661,"ĠDecember":9662,"Ġ2000":9663,"Ġ2004":9664,"attempted":9665,"Ġglance":9666,"Ġglass":9667,"Ġglorious":9668,"Ġintentionally":9669,"Ġqualification":9670,"Ġnecessitates":9671,"Ġmarket":9672,"START":9673,"expresses":9674,"expressed":9675,"expressions":9676,"Ġcrown":9677,"legislating":9678,"Ġproportionate":9679,"ĠPUNI":9680,"ĠPURPOSE":9681,"Ġprofession":9682,"Ġprofesses":9683,"steps":9684,"Ġguards":9685,"Ġguarding":9686,"operations":9687,"porated":9688,"Ġ64":9689,"Ġincreasing":9690,"Ġexcites":9691,"Ġshortest":9692,"ĠÃ¦sthetical":9693,"bidden":9694,"Ġoccurred":9695,"Ġoccurrence":9696,"Ġblindly":9697,"Ġboldly":9698,"Ġprosyllogism":9699,"Ġextricate":9700,"Ġdevi":9701,"Ġdevote":9702,"ĠChange":9703,"ĠDoes":9704,"Ġstronger":9705,"Ġgenuineness":9706,"PLIED":9707,"concilable":9708,"concerns":9709,"concerning":9710,"EMNITY":9711,"observations":9712,"signifies":9713,"Ġprimacy":9714,"Ġordered":9715,"approach":9716,"approbation":9717,"passages":9718,"intermediate":9719,"Ġtaxes":9720,"additional":9721,"ĠNOTICE":9722,"equal":9723,"equality":9724,"finds":9725,"ĠEverything":9726,"Ġillustrating":9727,"Experience":9728,"Ġlisten":9729,"ĠĠĠĠĠĠĠĠĠĠĠĠĠĠ":9730,"Ġheads":9731,"Ġconfessed":9732,"deductible":9733,"attributes":9734,"attributed":9735,"Ġ1500":9736,"falls":9737,"fallacies":9738,"Ġprototyp":9739,"imperatives":9740,"ĠWhy":9741,"Ġsubstantia":9742,"Ġanticipations":9743,"Ġcontemplates":9744,"decided":9745,"ĠINTRODUCTION":9746,"ĠINCLUDING":9747,"Ġmeasured":9748,"Ġmeasurement":9749,"Ġchapters":9750,"ĠDisc":9751,"Ġroots":9752,"directly":9753,"restricting":9754,"importance":9755,"doubtful":9756,"single":9757,"transcendentally":9758,"PRESS":9759,"Ġattract":9760,"Ġdescent":9761,"Ġdescend":9762,"Ġdescription":9763,"Ġcommunication":9764,"ĠREMEDIES":9765,"Ġtreasure":9766,"Ġrejecting":9767,"Ġrejected":9768,"Ġhypocrisy":9769,"Ġevidences":9770,"ĠPhenomenal":9771,"Ġprejudices":9772,"ĠCONTRA":9773,"ĠCONCEPTION":9774,"ĠCONSEQU":9775,"Ġcommenced":9776,"Ġadmirable":9777,"assuming":9778,"pleasantness":9779,"occupy":9780,"bodies":9781,"Ġcurved":9782,"Ġtypes":9783,"Ġcultivate":9784,"Ġisolate":9785,"conclusion":9786,"conclusions":9787,"Ġcounterpo":9788,"Ġlocations":9789,"Ġpremiss":9790,"ĠNeg":9791,"ĠMatthew":9792,"ĠMetaphysics":9793,"Ġapproximation":9794,"affirmative":9795,"intuited":9796,"intuitus":9797,"clearly":9798,"modes":9799,"sources":9800,"progression":9801,"prominently":9802,"Ġapprehended":9803,"Ġclearest":9804,"Ġdriven":9805,"Ġdimension":9806,"arbitrarily":9807,"arbitrium":9808,"resulting":9809,"ĠEBOOKS":9810,"Ġhonourable":9811,"enlargement":9812,"enlarged":9813,"continuation":9814,"anticipate":9815,"gradually":9816,"moving":9817,"Ġannouncement":9818,"Ġcentre":9819,"Ġdamage":9820,"Ġdamaged":9821,"agreeableness":9822,"ĠOrigin":9823,"Ġindefinitely":9824,"ĠHimself":9825,"ĠANYTHING":9826,"variety":9827,"demands":9828,"Ġincite":9829,"searchable":9830,"ABLE":9831,"CIDENTAL":9832,"Ġzeal":9833,"problematically":9834,"Ġerecting":9835,"Ġerected":9836,"conducted":9837,"Ġattacking":9838,"Ġmundo":9839,"Ġrepeat":9840,"Ġgift":9841,"Ġuniformity":9842,"Ġviolence":9843,"Ġviolates":9844,"ĠAntithetic":9845,"Ġsubmits":9846,"Ġconcealed":9847,"Ġsuperiority":9848,"Ġhumiliating":9849,"ĠPhysical":9850,"ĠPhysico":9851,"ĠIntuitions":9852,"deserving":9853,"LIGENCE":9854,"Ġafraid":9855,"communicated":9856,"ĠSTRICT":9857,"ĠBefore":9858,"ĠBeyond":9859,"uctible":9860,"Ġmidst":9861,"Ġflattering":9862,"idealism":9863,"Ġsharing":9864,"ĠWARRANTIES":9865,"Ġdespise":9866,"Ġenumerate":9867,"ĠEXPRESS":9868,"Ġcomputers":9869,"Ġcompensation":9870,"Ġguarantee":9871,"Ġwitnesses":9872,"Ġirreconcilable":9873,"dogmatism":9874,"qualities":9875,"accidental":9876,"accidentally":9877,"furnish":9878,"furnishes":9879,"Ġpresses":9880,"Ġruin":9881,"practised":9882,"mistake":9883,"bounds":9884,"boundaries":9885,"Ġconvenient":9886,"wanting":9887,"Ġphilosophize":9888,"Ġpaperwork":9889,"Ġtouching":9890,"Ġtouchstone":9891,"Ġlicensed":9892,"Ġlurking":9893,"Ġdetriment":9894,"Ġdetrimental":9895,"Ġspoil":9896,"Ġspoken":9897,"Ġvacuum":9898,"ĠSometimes":9899,"ĠNorth":9900,"Ġsubstituted":9901,"Ġentertained":9902,"Ġcoincides":9903,"ĠANALOGY":9904,"Ġaccompanying":9905,"excluding":9906,"classification":9907,"Ġtedious":9908,"deviate":9909,"Space":9910,"Speculative":9911,"Ġvessel":9912,"involves":9913,"involved":9914,"annihilation":9915,"defective":9916,"Ġsteadily":9917,"Ġsteadfast":9918,"Ġellipse":9919,"Ġparticipating":9920,"previously":9921,"Ġoffering":9922,"Ġsilence":9923,"Ġinextricable":9924,"seems":9925,"geometry":9926,"geometrical":9927,"Ġperplexity":9928,"ĠAbb":9929,"ĠParticular":9930,"Ġdissimilarity":9931,"ĠDISCLAIM":9932,"Ġawakening":9933,"Ġawakened":9934,"Ġdeliberation":9935,"Ġindubitably":9936,"Ġembraced":9937,"Granted":9938,"supported":9939,"ipped":9940,"Ġachieve":9941,"endeavours":9942,"Defects":9943,"cosmical":9944,"increasing":9945,"introduced":9946,"transcend":9947,"exhibited":9948,"probability":9949,"meritorious":9950,"peculiarity":9951,"uitous":9952,"Ġcasts":9953,"proportioned":9954,"sighted":9955,"thoroughly":9956,"estimation":9957,"descending":9958,"Ġescaping":9959,"Ġescaped":9960,"OSSIBILITY":9961,"Ġinnocent":9962,"Ġdarkness":9963,"Ġcomprises":9964,"Ġvital":9965,"Ġperceives":9966,"Ġperceiving":9967,"Ġdisguise":9968,"Ġdisguised":9969,"Ġcharges":9970,"Ġnearly":9971,"ĠGerman":9972,"ĠDespite":9973,"ĠDescartes":9974,"ĠMississipp":9975,"Ġ1787":9976,"Ġfriend":9977,"Ġfriends":9978,"Ġcounsels":9979,"Ġdeficient":9980,"confirms":9981,"magnitude":9982,"Ġromance":9983,"Ġipso":9984,"anthropomorphism":9985,"yielding":9986,"removed":9987,"PROJECT":9988,"Ġauthentic":9989,"ĠINDIRECT":9990,"professing":9991,"Ġriches":9992,"Ġastronom":9993,"Ġtheorem":9994,"Ġwarns":9995,"Ġcensure":9996,"Ġinspire":9997,"Ġincorporated":9998,"Ġrefined":9999,"Ġrevelation":10000,"Ġlowest":10001,"ĠIMPLIED":10002,"Ġspeculations":10003,"Ġrigorous":10004,"Ġrarely":10005,"Ġperpetually":10006,"Ġreluctant":10007,"Ġpreparation":10008,"Ġcommercial":10009,"Ġinfringement":10010,"Ġappropriated":10011,"Ġchemical":10012,"Ġfacilitate":10013,"Ġtautology":10014,"Ġdownloading":10015,"Ġbeneficent":10016,"Ġrecommendation":10017,"Ġpetty":10018,"Ġsociety":10019,"Synthetical":10020,"significance":10021,"Although":10022,"Mathematics":10023,"VIDED":10024,"members":10025,"written":10026,"Against":10027,"dangerous":10028,"smelling":10029,"Ġbeside":10030,"Ġmerits":10031,"Ġanthropomorphic":10032,"towards":10033,"Ġtemperament":10034,"Ġsemblance":10035,"Ġincontestably":10036,"Ġeconom":10037,"Ġlofty":10038,"Ġuninterrupted":10039,"Ġunanswerable":10040,"ofessor":10041,"Ġtroubling":10042,"Ġimpracticable":10043,"Ġstopped":10044,"ĠPerson":10045,"ĠSensuous":10046,"ĠOpinion":10047,"ĠGospel":10048,"Ġgratefully":10049,"Ġremedy":10050,"ĠEnglish":10051,"Ġamidst":10052,"ĠDOCTRIN":10053,"Ġinviolable":10054,"Ġaffairs":10055,"Ġindulge":10056,"Ġantiquity":10057,"Ġassertorically":10058,"Ġcoalition":10059,"Ġundeniable":10060,"Ġvoluntary":10061,"ĠArguments":10062,"Ġfancied":10063,"Ġextravagant":10064,"Ġcomplaints":10065,"ĠMonadists":10066,"Ġauxiliary":10067,"principium":10068,"viour":10069,"inevitably":10070,"Ġrapid":10071,"Fourthly":10072,"NESS":10073,"WARRANTIES":10074,"omaton":10075,"ĠCHAPTER":10076,"ENTIAL":10077,"commercium":10078,"Ġtantamount":10079,"Ġcursory":10080,"Ġcushion":10081,"Ġfingers":10082,"Ġelegance":10083,"Ġearnest":10084,"Ġepoch":10085,"Ġbehaviour":10086,"Ġgenealogical":10087,"ĠTRANSITION":10088,"Ġunanimously":10089,"Ġsprung":10090,"Ġvulgar":10091,"Ġtravel":10092,"ĠFROM":10093,"ĠFITNESS":10094,"ĠAugust":10095,"ĠPreface":10096,"ĠSUCH":10097,"ĠNEGLIGENCE":10098,"ĠMERCHANTABILITY":10099,"ĠReplacement":10100,"Ġindestructible":10101,"Ġlegitimacy":10102,"Ġscattered":10103,"Ġinsignificant":10104,"Ġearliest":10105,"ĠStapleton":10106,"ĠPUNITIVE":10107,"Ġprototype":10108,"ĠCONTRACT":10109,"ĠCONCEPTIONS":10110,"ĠCONSEQUENTIAL":10111,"Ġcounterpoise":10112,"ĠDISCLAIMER":10113,"ĠMississippi":10114,"ĠDOCTRINE":10115,"aut":10116,"gn":10117,"mark":10118,"Ã¢Ä¢Ä":10119,"Ġility":10120,"Ġides":10121,"Ġcing":10122,"Ġments":10123,"Ġfer":10124,"Ġnt":10125,"ompl":10126,"Ġger":10127,"ĠIR":10128,"ÄłV":10129,"Äłon":10130,"Äłter":10131,"Äłur":10132,"Äłag":10133,"Äłcons":10134,"Äłcor":10135,"erect":10136,"Ġification":10137,"care":10138,"ĠPH":10139,"Ġowed":10140,"ÃĦÅĤP":10141,"ÃĦÅĤl":10142,"Ġences":10143,"overn":10144,"sensib":10145,"redistrib":10146,"Äłmod":10147,"imagin":10148,"12":10149,"LAR":10150,"MENT":10151,"ok":10152,"ros":10153,"vous":10154,"vered":10155,"ĠQU":10156,"Ġtic":10157,"Ġame":10158,"erc":10159,"Ġption":10160,"Ġning":10161,"seurs":10162,"Ġree":10163,"asur":10164,"Ġures":10165,"Ġured":10166,"ĠIS":10167,"Äłut":10168,"Äłcogn":10169,"Ġven":10170,"phil":10171,"ĠAS":10172,"tell":10173,"ievous":10174,"ĠRI":10175,"fulfil":10176,"luct":10177,"strugg":10178,"Ġuted":10179,"apper":10180,"Äłsc":10181,"Äłfr":10182,"Äłaff":10183,"apprehend":10184,"Äłprop":10185,"SION":10186,"contempor":10187,"OSO":10188,"Che":10189,"Im":10190,"NO":10191,"UB":10192,"ah":10193,"astr":10194,"gen":10195,"gest":10196,"Ġication":10197,"Ġided":10198,"Ġively":10199,"Ġizing":10200,"Ġtical":10201,"Ġoy":10202,"isc":10203,"enn":10204,"erum":10205,"Ġpp":10206,"Ġined":10207,"esca":10208,"Ġising":10209,"Ġishes":10210,"Ġrect":10211,"Ġduc":10212,"stac":10213,"Äłk":10214,"Äłver":10215,"Äłif":10216,"Äłul":10217,"Äłact":10218,"Äłsol":10219,"Äłha":10220,"Äłass":10221,"Äłreg":10222,"Äłarr":10223,"Äłbr":10224,"Äłatt":10225,"Äłgu":10226,"ÄłEx":10227,"Ġalle":10228,"amorph":10229,"Ġstone":10230,"Ġevol":10231,"Ġency":10232,"overably":10233,"ĠLI":10234,"blind":10235,"commend":10236,"icipations":10237,"ICAL":10238,"Äłdel":10239,"Ġversion":10240,"omnipot":10241,"AT":10242,"Com":10243,"USION":10244,"aud":10245,"adequ":10246,"bat":10247,"bungl":10248,"cher":10249,"cob":10250,"citiz":10251,"dur":10252,"dam":10253,"dile":10254,"dimin":10255,"fanci":10256,"govern":10257,"hn":10258,"hic":10259,"hist":10260,"hyp":10261,"iog":10262,"loc":10263,"moun":10264,"mock":10265,"night":10266,"null":10267,"pict":10268,"rhapsod":10269,"sa":10270,"spl":10271,"tre":10272,"temper":10273,"ugg":10274,"voc":10275,"wond":10276,"zer":10277,"zism":10278,"Ġnd":10279,"Ġener":10280,"ĠÄłÄł":10281,"Ġutes":10282,"Ġ00":10283,"Ġ*****":10284,"Ġase":10285,"Ġathe":10286,"Ġake":10287,"inj":10288,"incomp":10289,"Ġopt":10290,"reve":10291,"redu":10292,"ister":10293,"isol":10294,"isyllogism":10295,"isseurs":10296,"enesis":10297,"attr":10298,"erv":10299,"Ġcert":10300,"Ġpus":10301,"ican":10302,"icros":10303,"Ġiness":10304,"Ġban":10305,"orment":10306,"Ġfect":10307,"Ġnis":10308,"sever":10309,"oure":10310,"Ġises":10311,"Ġcond":10312,"ste":10313,"arond":10314,"lled":10315,"iveness":10316,"imm":10317,"osoph":10318,"Ġfort":10319,"urp":10320,"ÄłK":10321,"Äłnot":10322,"Äłme":10323,"Äłpar":10324,"ÄłTh":10325,"Äłdisc":10326,"ÄłRe":10327,"ÄłÃĥ":10328,"ulog":10329,"empl":10330,"empiric":10331,"consol":10332,"condem":10333,"ampl":10334,"def":10335,"depre":10336,"depart":10337,"olens":10338,"tranqu":10339,"Ġexistent":10340,"Ġtries":10341,"ctions":10342,"pron":10343,"Ġhed":10344,"succeed":10345,"Ġusion":10346,"antagon":10347,"exec":10348,"exto":10349,"acknowled":10350,"unfortun":10351,"Ġyp":10352,"prepar":10353,"preponder":10354,"pregn":10355,"Ġplays":10356,"measur":10357,"compl":10358,"servation":10359,"Ġcommend":10360,"ÃĦÅĤD":10361,"ÃĦÅĤpr":10362,"weak":10363,"Ġene":10364,"session":10365,"Ġentities":10366,"eciproc":10367,"necessit":10368,"ysms":10369,"ginia":10370,"ĠUS":10371,"accompl":10372,"Introdu":10373,"Ġian":10374,"Ġily":10375,"subsum":10376,"Ġrighteous":10377,"Ġinfluenced":10378,"ontal":10379,"short":10380,"presum":10381,"Äłcrit":10382,"Äłcoun":10383,"Äłrep":10384,"Äłreal":10385,"ruin":10386,"comput":10387,"ometry":10388,"Äłden":10389,"iana":10390,"Subst":10391,"superior":10392,"Ġcapit":10393,"culation":10394,"STEM":10395,"cheson":10396,"ILOSO":10397,"Quod":10398,"capit":10399,"figur":10400,"symbol":10401,"school":10402,"Ġlucid":10403,"indubit":10404,"ibrium":10405,"forceability":10406,"NOW":10407,"25":10408,"AF":10409,"ARA":10410,"Arist":10411,"BC":10412,"Certain":10413,"Crit":10414,"Categor":10415,"DEM":10416,"DAMAG":10417,"EI":10418,"GRA":10419,"Ju":10420,"Logical":10421,"LEMENT":10422,"Me":10423,"MAL":10424,"NER":10425,"ORO":10426,"Ple":10427,"Possib":10428,"Part":10429,"Reven":10430,"STHE":10431,"Thing":10432,"US":10433,"Unt":10434,"bi":10435,"bes":10436,"bus":10437,"back":10438,"bnew":10439,"cence":10440,"civil":10441,"doll":10442,"drop":10443,"ein":10444,"ebr":10445,"fan":10446,"fict":10447,"fruit":10448,"gy":10449,"hind":10450,"hop":10451,"hio":10452,"mund":10453,"mov":10454,"oqu":10455,"oca":10456,"pob":10457,"ral":10458,"ront":10459,"sies":10460,"sound":10461,"tw":10462,"upright":10463,"uphold":10464,"vict":10465,"welf":10466,"Ġ&":10467,"Ġq":10468,"ĠÂ":10469,"Ġject":10470,"Ġile":10471,"Ġived":10472,"Ġicism":10473,"Ġaver":10474,"Ġaequ":10475,"inated":10476,"inward":10477,"reject":10478,"reption":10479,"repe":10480,"resem":10481,"reluct":10482,"recommend":10483,"itating":10484,"encour":10485,"aten":10486,"ature":10487,"erving":10488,"Ġck":10489,"Ġses":10490,"Ġpens":10491,"alar":10492,"altern":10493,"alleg":10494,"iced":10495,"Ġinstructive":10496,"Ġbit":10497,"Ġber":10498,"Ġmus":10499,"Ġmill":10500,"Ġnet":10501,"secret":10502,"Ġishing":10503,"Ġconqu":10504,"Ġdiction":10505,"start":10506,"starr":10507,"omnit":10508,"otot":10509,"arol":10510,"ectyp":10511,"Ġhole":10512,"Ġude":10513,"theore":10514,"improv":10515,"Ġane":10516,"Ġlib":10517,"ithful":10518,"ibib":10519,"Ġsuited":10520,"ldarond":10521,"urb":10522,"vert":10523,"qui":10524,"Äłce":10525,"Äłend":10526,"Äłph":10527,"Äłout":10528,"Äłwh":10529,"Äłso":10530,"Äłform":10531,"Äłcontr":10532,"Äłpart":10533,"Äłsim":10534,"Äłsupp":10535,"aindrop":10536,"ift":10537,"persist":10538,"perpet":10539,"perplex":10540,"conjunct":10541,"Ġared":10542,"veil":10543,"endour":10544,"endels":10545,"Ġals":10546,"Ġinte":10547,"amps":10548,"abol":10549,"abilities":10550,"detr":10551,"selfish":10552,"Ġcaution":10553,"ansas":10554,"minor":10555,"iestle":10556,"offer":10557,"Ġring":10558,"Ġement":10559,"prag":10560,"useful":10561,"suppos":10562,"exert":10563,"excell":10564,"ĠAR":10565,"acid":10566,"accept":10567,"ultimate":10568,"unceasing":10569,"uniform":10570,"Ġying":10571,"ĠPO":10572,"ĠPER":10573,"strong":10574,"oyed":10575,"beho":10576,"ortun":10577,"commen":10578,"Theoretical":10579,"Ġcommencing":10580,"icium":10581,"ÃĦÅĤA":10582,"ishable":10583,"Ġrespective":10584,"web":10585,"paradox":10586,"aven":10587,"display":10588,"canon":10589,"contrast":10590,"Ġium":10591,"Ġacknowled":10592,"arrogant":10593,"Ġings":10594,"obstac":10595,"overe":10596,"Ġuting":10597,"Ġception":10598,"Ġawa":10599,"correction":10600,"philosoph":10601,"Äłche":10602,"Äłcirc":10603,"causal":10604,"Ġ55":10605,"Äłprom":10606,"Äłpost":10607,"Äłdiv":10608,"Ġconverted":10609,"ĠAND":10610,"retched":10611,"Protot":10612,"Ġately":10613,"Ġpractised":10614,"Äłextr":10615,"JECTIVE":10616,"Ġ75":10617,"Ġguarded":10618,"iliates":10619,"versed":10620,"collect":10621,"Ġpleasantness":10622,"ULAR":10623,"oppon":10624,"Ġmovable":10625,"major":10626,"detect":10627,"TRADEM":10628,"skill":10629,"Ġference":10630,"LARY":10631,"cobweb":10632,"splendour":10633,"condemn":10634,"\"),":10635,"($":10636,")-":10637,")?":10638,"*(":10639,".]":10640,".),":10641,"02":10642,"04":10643,"14":10644,"21":10645,"23":10646,"24":10647,"26":10648,"27":10649,"28":10650,"29":10651,"30":10652,"31":10653,"32":10654,"33":10655,"34":10656,"35":10657,"36":10658,"37":10659,"38":10660,"42":10661,"43":10662,"44":10663,"46":10664,"47":10665,"48":10666,"49":10667,"4280":10668,"51":10669,"52":10670,"53":10671,"54":10672,"56":10673,"58":10674,"59":10675,"60":10676,"61":10677,"62":10678,"63":10679,"64":10680,"65":10681,"66":10682,"67":10683,"69":10684,"70":10685,"72":10686,"73":10687,"74":10688,"76":10689,"77":10690,"81":10691,"87":10692,"96":10693,";[":10694,"AY":10695,"AIN":10696,"Apperception":10697,"APPENDIX":10698,"Between":10699,"Cosmological":10700,"Critical":10701,"Creating":10702,"DIC":10703,"Dialectic":10704,"Different":10705,"DURE":10706,"End":10707,"FUND":10708,"GEMENT":10709,"GENERAL":10710,"His":10711,"Human":10712,"Have":10713,"ITH":10714,"Last":10715,"Love":10716,"Logic":10717,"Locke":10718,"LAF":10719,"LLARY":10720,"Michael":10721,"Non":10722,"Or":10723,"Plato":10724,"RTH":10725,"Two":10726,"Upon":10727,"UAL":10728,"Updated":10729,"VII":10730,"Volunteers":10731,"WNER":10732,"Yes":10733,"YSTEM":10734,"].":10735,"_[":10736,"aos":10737,"augment":10738,"ball":10739,"besides":10740,"bservation":10741,"cs":10742,"cible":10743,"crowd":10744,"casus":10745,"coverably":10746,"data":10747,"eper":10748,"efficient":10749,"eveloped":10750,"eometry":10751,"full":10752,"fix":10753,"flection":10754,"faces":10755,"filled":10756,"fancy":10757,"gone":10758,"gained":10759,"hart":10760,"hold":10761,"hitherto":10762,"holiness":10763,"homogeneity":10764,"iary":10765,"iently":10766,"jacent":10767,"kingdom":10768,"lose":10769,"link":10770,"llect":10771,"laid":10772,"lcome":10773,"lio":10774,"lix":10775,"lurality":10776,"liability":10777,"mn":10778,"mal":10779,"mill":10780,"munity":10781,"macy":10782,"moments":10783,"nicious":10784,"ober":10785,"oved":10786,"port":10787,"past":10788,"putes":10789,"piece":10790,"rd":10791,"rum":10792,"rible":10793,"rances":10794,"rash":10795,"sin":10796,"sought":10797,"sake":10798,"sided":10799,"scribed":10800,"sciences":10801,"tact":10802,"table":10803,"task":10804,"tlest":10805,"useless":10806,"vocation":10807,"wished":10808,"water":10809,"wrong":10810,"wants":10811,"xury":10812,"yers":10813,"ypon":10814,"ĠX":10815,"Ġension":10816,"Ġensive":10817,"Ġiving":10818,"Ġibility":10819,"Ġiding":10820,"Ġts":10821,"Ġtib":10822,"Ġtem":10823,"Ġtrem":10824,"Ġtends":10825,"Ġtutor":10826,"Ġtorment":10827,"heart":10828,"Ġawe":10829,"Ġays":10830,"Ġaken":10831,"Ġaversion":10832,"ina":10833,"inent":10834,"inning":10835,"inability":10836,"internally":10837,"inery":10838,"inheres":10839,"inconceivable":10840,"Ġomission":10841,"Ġthee":10842,"Ġtheist":10843,"reach":10844,"received":10845,"rehension":10846,"recognize":10847,"repute":10848,"reputation":10849,"itial":10850,"itudes":10851,"ititious":10852,"enforceability":10853,"ats":10854,"atical":10855,"atur":10856,"aturn":10857,"eron":10858,"eration":10859,"erate":10860,"erring":10861,"Ġwal":10862,"Ġwent":10863,"Ġwound":10864,"Ġwarr":10865,"Ġwild":10866,"Ġwrest":10867,"Ġwatch":10868,"Ġwrought":10869,"Ġwretched":10870,"Ġcou":10871,"Ġcun":10872,"Ġcath":10873,"Ġcount":10874,"Ġcub":10875,"Ġcrowd":10876,"Ġcasus":10877,"Ġcodes":10878,"Ġsi":10879,"Ġsit":10880,"Ġsend":10881,"Ġsink":10882,"Ġsap":10883,"Ġsites":10884,"Ġsadly":10885,"Ġpu":10886,"Ġpal":10887,"Ġpill":10888,"Ġpose":10889,"Ġpause":10890,"Ġpoly":10891,"Ġpomp":10892,"Ġpush":10893,"icing":10894,"Ġinan":10895,"Ġinform":10896,"Ġinane":10897,"Ġinexpl":10898,"Ġincompar":10899,"Ġinestim":10900,"Ġinconceivable":10901,"Ġinhabit":10902,"Ġinequality":10903,"Ġinsensib":10904,"esult":10905,"Ġbare":10906,"Ġblessed":10907,"Ġthine":10908,"Ġthresh":10909,"Ġthousand":10910,"orter":10911,"orably":10912,"orned":10913,"origination":10914,"Ġmit":10915,"Ġmir":10916,"Ġmover":10917,"Ġtold":10918,"celebrated":10919,"ctober":10920,"Ġfain":10921,"Ġfif":10922,"Ġfame":10923,"Ġfight":10924,"Ġfra":10925,"Ġfatum":10926,"Ġflight":10927,"Ġfier":10928,"analytic":10929,"animity":10930,"Ġnes":10931,"Ġnations":10932,"Ġeb":10933,"Ġeff":10934,"Ġelect":10935,"Ġeulog":10936,"severest":10937,"oup":10938,"lying":10939,"left":10940,"Ġreat":10941,"Ġrely":10942,"Ġreign":10943,"Ġreward":10944,"Ġrecall":10945,"Ġreap":10946,"Ġrenew":10947,"Ġreproduction":10948,"Ġretrace":10949,"Ġrecapit":10950,"Ġrerum":10951,"Ġcone":10952,"Ġconced":10953,"Ġcondem":10954,"Ġconvey":10955,"Ġconveyed":10956,"Ġconducive":10957,"Ġdil":10958,"Ġdie":10959,"Ġdress":10960,"Ġdial":10961,"Ġdates":10962,"Ġdull":10963,"Ġdumb":10964,"Ġdrew":10965,"Ġbead":10966,"Ġbeque":10967,"Ġbefits":10968,"stain":10969,"states":10970,"stability":10971,"status":10972,"stones":10973,"omas":10974,"omain":10975,"omaly":10976,"entities":10977,"Ġwhol":10978,"aring":10979,"arities":10980,"asp":10981,"ascribed":10982,"asibility":10983,"utmost":10984,"utcheson":10985,"ections":10986,"Ġhide":10987,"Ġhost":10988,"Ġhover":10989,"Ġprize":10990,"Ġprae":10991,"Ġproud":10992,"Ġprogram":10993,"Ġash":10994,"Ġaspir":10995,"Ġually":10996,"thening":10997,"ival":10998,"ivial":10999,"ivisible":11000,"ivoca":11001,"impose":11002,"imposes":11003,"immortality":11004,"immaterial":11005,"ossession":11006,"Ġangu":11007,"Ġanxious":11008,"Ġanterior":11009,"Ġanomaly":11010,"Ġexceed":11011,"Ġexchange":11012,"Ġexcess":11013,"Ġexhort":11014,"Ġexempl":11015,"Ġlend":11016,"Ġlust":11017,"Ġloth":11018,"Ġlack":11019,"Ġliable":11020,"Ġlau":11021,"Ġlibr":11022,"Ġliberum":11023,"Ġnotifies":11024,"ptuously":11025,"jective":11026,"Ġweari":11027,"Ġweighed":11028,"Ġwelcome":11029,"Ġforge":11030,"Ġforbe":11031,"Ġforcing":11032,"Ġforfe":11033,"Ġforsakes":11034,"idity":11035,"idens":11036,"idger":11037,"idnight":11038,"ibles":11039,"Ġsupre":11040,"Ġsuspect":11041,"Ġsunt":11042,"ceptical":11043,"ceptible":11044,"teronomy":11045,"ureans":11046,"iration":11047,"irginia":11048,"Ġgout":11049,"Ġgaps":11050,"Ġgbnew":11051,"Ġwithstand":11052,"urred":11053,"urning":11054,"ciate":11055,"versely":11056,"ĠId":11057,"querable":11058,"ogue":11059,"resides":11060,"istences":11061,"Ġorn":11062,"Ġorator":11063,"Ġorbits":11064,"Äłic":11065,"Äłall":11066,"Äłpos":11067,"Äłca":11068,"Äłop":11069,"Äłsy":11070,"Äłav":11071,"Äłman":11072,"Äłcont":11073,"Äłdist":11074,"Äłfe":11075,"Äładv":11076,"Äłsuper":11077,"Äłtrans":11078,"Äłgener":11079,"Ġcanst":11080,"ecum":11081,"ecutive":11082,"ecundity":11083,"ifling":11084,"andi":11085,"ando":11086,"andal":11087,"anded":11088,"andom":11089,"permit":11090,"perceived":11091,"permission":11092,"persuasion":11093,"sels":11094,"ulzer":11095,"Ġallot":11096,"Ġallure":11097,"Ġallied":11098,"emy":11099,"romise":11100,"Ġprolix":11101,"Ġreasonably":11102,"ĠTION":11103,"conveyed":11104,"converted":11105,"conducive":11106,"conversely":11107,"conquerable":11108,"ateful":11109,"charge":11110,"chasm":11111,"chievous":11112,"charities":11113,"ilation":11114,"ilanthrop":11115,"ilibrium":11116,"Ġdeter":11117,"Ġdefe":11118,"Ġdearest":11119,"Ġdelet":11120,"Ġdepict":11121,"Ġdeeper":11122,"Ġalarm":11123,"ored":11124,"Ġintact":11125,"Ġintimate":11126,"Ġintimid":11127,"activity":11128,"usable":11129,"usiveness":11130,"Ġhaph":11131,"illain":11132,"amination":11133,"abile":11134,"abiding":11135,"abyss":11136,"plies":11137,"plays":11138,"planation":11139,"places":11140,"placing":11141,"pliance":11142,"plausible":11143,"Ġunt":11144,"Ġunw":11145,"Ġunre":11146,"Ġuntr":11147,"Ġunsh":11148,"Ġunjust":11149,"Ġunreal":11150,"Ġunnecessarily":11151,"Ġunqual":11152,"Ġunbelief":11153,"Ġunexception":11154,"Ġunsatisfied":11155,"Ġunsett":11156,"Ġunchanged":11157,"Ġunusual":11158,"Ġuninfluenced":11159,"Ġunrestricted":11160,"Ġunalter":11161,"Ġunguarded":11162,"Ġunbidden":11163,"Ġunyielding":11164,"Ġunlink":11165,"Ġunerring":11166,"Ġunconquerable":11167,"ditions":11168,"ditional":11169,"deceived":11170,"deistic":11171,"olence":11172,"ollection":11173,"igence":11174,"igour":11175,"Ġcael":11176,"Ġcautious":11177,"Ġ(\"":11178,"Ġ(*":11179,"trod":11180,"tried":11181,"track":11182,"Ġspur":11183,"Ġspher":11184,"Ġsport":11185,"Ġcomets":11186,"Ġrit":11187,"Ġrot":11188,"Ġrich":11189,"Ġrose":11190,"Ġrude":11191,"Ġraces":11192,"Ġriver":11193,"Ġrhet":11194,"Ġraindrop":11195,"esting":11196,"Ġempire":11197,"Ġworse":11198,"Ġexistential":11199,"herself":11200,"Ġva":11201,"Ġvast":11202,"Ġvigour":11203,"Ġtrial":11204,"Ġtraces":11205,"Ġtriang":11206,"Ġtranqu":11207,"Ġtrivial":11208,"Ġtrifling":11209,"Ġwillingly":11210,"foreign":11211,"foreseen":11212,"ĠBerke":11213,"usement":11214,"aked":11215,"Ġimmaterial":11216,"Ġimproved":11217,"Ġimmortal":11218,"Ġimpregn":11219,"Ġabsol":11220,"Ġabund":11221,"Ġperish":11222,"Ġperman":11223,"Ġpertains":11224,"Ġpernicious":11225,"orially":11226,"Ġformarum":11227,"Ġnative":11228,"Ġnatura":11229,"Ġnobl":11230,"supposed":11231,"supposing":11232,"suitable":11233,"ameter":11234,"posits":11235,"positio":11236,"Ġkat":11237,"Ġknew":11238,"indifference":11239,"indulgence":11240,"Ġregions":11241,"Ġregret":11242,"Ġregulated":11243,"Ġusurp":11244,"externally":11245,"exhausted":11246,"exterior":11247,"exactly":11248,"phrase":11249,"Ġshame":11250,"Ġshake":11251,"Ġshine":11252,"Ġshaken":11253,"Ġshield":11254,"Ġshared":11255,"Ġshorter":11256,"ĠFunction":11257,"ĠFull":11258,"ĠFAC":11259,"ĠFairbanks":11260,"ĠFebr":11261,"Ġsea":11262,"Ġseyn":11263,"outside":11264,"outset":11265,"Ġcognise":11266,"Ġcogniz":11267,"Ġcognitio":11268,"Ġcognisable":11269,"Ġstat":11270,"Ġstory":11271,"Ġstars":11272,"Ġstored":11273,"udo":11274,"Ġquib":11275,"Ġideally":11276,"Ġreliable":11277,"Ġevade":11278,"wholly":11279,"anced":11280,"ĠAK":11281,"ĠAre":11282,"ĠAff":11283,"ĠACT":11284,"ĠAldarond":11285,"oury":11286,"ource":11287,"Ġjugg":11288,"Ġjesting":11289,"Ġaccum":11290,"Ġaccru":11291,"Ġaccused":11292,"Ġaccredit":11293,"Ġmanhood":11294,"ultaneity":11295,"unite":11296,"unted":11297,"units":11298,"uncertain":11299,"unnecessary":11300,"unlimited":11301,"uncertainty":11302,"uniting":11303,"until":11304,"unchangeable":11305,"untrue":11306,"unciated":11307,"unsearchable":11308,"Ġunderstandings":11309,"Ġadjust":11310,"Ġadjacent":11311,"Ġadjective":11312,"sequence":11313,"forward":11314,"Ġys":11315,"Ġyaw":11316,"Ġyoke":11317,"ĠPublic":11318,"ĠPlease":11319,"ĠPolem":11320,"ĠPOSSIBILITY":11321,"ĠPARA":11322,"ĠPlurality":11323,"Ġdismis":11324,"Ġdisappro":11325,"Ġdisadvantage":11326,"Ġdisposing":11327,"Ġdiscontinu":11328,"Ġdiscontinue":11329,"Ġdisappeared":11330,"Ġdispleases":11331,"Ġdisrepute":11332,"positions":11333,"),[":11334,"etus":11335,"etting":11336,"etched":11337,"sohn":11338,"Ġknowable":11339,"strings":11340,"striking":11341,"Ġprecl":11342,"Ġpreference":11343,"Ġprefers":11344,"Ġpreponder":11345,"Ġpreposited":11346,"Ġprecaution":11347,"Ġpremise":11348,"Ġpremonition":11349,"ĠThough":11350,"ĠThirdly":11351,"ĠThomas":11352,"Ġarouse":11353,"Ġchamp":11354,"Ġchaos":11355,"eneration":11356,"enerally":11357,"Ġrepresentative":11358,"spaces":11359,"Ġsomewhere":11360,"Ġeveryday":11361,"Ġsyntheses":11362,"ĠSing":11363,"ĠSense":11364,"ĠSEND":11365,"ĠSecond":11366,"ĠSalt":11367,"ĠSenses":11368,"ĠSpirit":11369,"ĠSciences":11370,"ĠSimilarly":11371,"ĠSUB":11372,"ĠSMAL":11373,"ĠSaturn":11374,"ĠSceptical":11375,"Ġphilanthrop":11376,"solved":11377,"ensity":11378,"ensome":11379,"predetermined":11380,"prehensible":11381,"prepared":11382,"ĠName":11383,"ĠNoumen":11384,"ĠNihil":11385,"ĠNearly":11386,"ĠNovember":11387,"oying":11388,"nesses":11389,"ĠOtherwise":11390,"ĠOWNER":11391,"ĠOctober":11392,"Ġsubdu":11393,"Ġsubsid":11394,"possibilities":11395,"imitable":11396,"Ġfrees":11397,"conditional":11398,"ĠIncl":11399,"Ġplun":11400,"Ġcertainties":11401,"Ġenduring":11402,"Ġcompleting":11403,"orting":11404,"Ġcontending":11405,"ĠGover":11406,"ĠGenerally":11407,"ĠWould":11408,"ĠWell":11409,"ĠWOR":11410,"ĠWIL":11411,"ĠWITH":11412,"ĠWidger":11413,"Ġwhenever":11414,"ployment":11415,"Ġgroup":11416,"Ġgrasp":11417,"gory":11418,"meet":11419,"Ġcontrari":11420,"Ġgold":11421,"Theological":11422,"ĠCity":11423,"ĠComp":11424,"ĠCAN":11425,"ĠCOM":11426,"ĠCartes":11427,"ĠCORO":11428,"ĠCarol":11429,"Ġowe":11430,"astically":11431,"served":11432,"forming":11433,"Ġobno":11434,"Ġobsole":11435,"Ġconnections":11436,"proves":11437,"proposed":11438,"Ġdesist":11439,"Ġdescribes":11440,"Ġdespot":11441,"Ġfounding":11442,"oldest":11443,"Ġcommences":11444,"Ġcommerce":11445,"Ġdistrust":11446,"arius":11447,"Ġfollowers":11448,"Ġemployee":11449,"Ġwashed":11450,"ÃĦÅĤS":11451,"ÃĦÅĤv":11452,"ÃĦÅĤun":11453,"Ġrationalist":11454,"Ġrationalism":11455,"withdrawn":11456,"Ġpurified":11457,"Ġremember":11458,"Ġremembered":11459,"Ġdiscord":11460,"ĠHas":11461,"ĠHad":11462,"ĠHitherto":11463,"ĠHarmon":11464,"deriv":11465,"Ġactor":11466,"Ġactuating":11467,"weaken":11468,"âĢĿ.":11469,"âĢĿ),":11470,"Ġextol":11471,"Ġextingu":11472,"Ġenunciation":11473,"Ġenlightened":11474,"Ġenemy":11475,"Ġagency":11476,"overlook":11477,"overstep":11478,"overthrow":11479,"Ġvaluel":11480,"paralogism":11481,"undertaking":11482,"Ġgrounding":11483,"medium":11484,"mediable":11485,"ĠEs":11486,"ĠEqu":11487,"ĠEdition":11488,"ĠElucid":11489,"ĠEmail":11490,"ĠEBC":11491,"ĠELEMENT":11492,"ĠReciproc":11493,"Ġterminis":11494,"Ġterrible":11495,"Ġpresume":11496,"Ġpresiding":11497,"Ġoutwe":11498,"Ġoutdated":11499,"Ġexpend":11500,"Ġexpedient":11501,"Ġexporting":11502,"woven":11503,"existed":11504,"existences":11505,"Ġamply":11506,"Ġreale":11507,"Ġrealitates":11508,"Ġentrance":11509,"ava":11510,"Ġperfections":11511,"mankind":11512,"physician":11513,"physiological":11514,"Ġattends":11515,"ogito":11516,"ĠDE":11517,"ĠDest":11518,"ĠDirect":11519,"ĠDON":11520,"ĠDOM":11521,"ĠDomain":11522,"assion":11523,"assent":11524,"assable":11525,"assistance":11526,"identity":11527,"identical":11528,"hematism":11529,"Ġfacti":11530,"determinable":11531,"cognizing":11532,"Ġimpure":11533,"Ġimpair":11534,"Ġimpelling":11535,"Ġimpenetrable":11536,"Ġimpaired":11537,"Ġimpassable":11538,"ypal":11539,"Thought":11540,"Ġcorpor":11541,"Ġconstituent":11542,"Ġpurposely":11543,"Ġherein":11544,"necessitate":11545,"disk":11546,"disjunctive":11547,"dissimilar":11548,"disappears":11549,"disinterested":11550,"disputes":11551,"Ġinfused":11552,"Ġinfancy":11553,"Ġexplication":11554,"Ġinteresting":11555,"ĠMore":11556,"ĠMatter":11557,"ĠModality":11558,"ĠMendels":11559,"ĠMAY":11560,"Ġkindness":11561,"Ġstrive":11562,"Ġstray":11563,"Ġstrain":11564,"Ġstriving":11565,"Ġhandle":11566,"Ġhandles":11567,"Ġdemerit":11568,"raised":11569,"raft":11570,"Ġconcess":11571,"Ġconcur":11572,"Ġappearing":11573,"otheology":11574,"Ġrestless":11575,"Ġanalyses":11576,"empty":11577,"Ġrefute":11578,"Ġrefused":11579,"Ġrefusing":11580,"Ġrefrain":11581,"regulate":11582,"regulated":11583,"Ġdivides":11584,"events":11585,"Ġsumm":11586,"Ġsums":11587,"undecided":11588,"ĠLest":11589,"ĠLogicians":11590,"Ġcompound":11591,"Ġcompany":11592,"Ġcompulsion":11593,"Ġcompelling":11594,"Ġcompetition":11595,"Ġcompromise":11596,"Ġcompilation":11597,"Ġadvised":11598,"Ġcontradicting":11599,"Ġdeductible":11600,"Ġassumes":11601,"Ġresiding":11602,"lude":11603,"Ġtruthfulness":11604,"Ġ11":11605,"Ġ14":11606,"mediately":11607,"Ġdecay":11608,"Ġdecried":11609,"ĠUpdated":11610,"Ġmetals":11611,"accustomed":11612,"Ġmighty":11613,"Ġsuppressed":11614,"Ġpredicating":11615,"Ġpredicables":11616,"Ġpredicaments":11617,"Ġexpressing":11618,"Ġexpressly":11619,"Ġphysician":11620,"Ġphysica":11621,"Ġworking":11622,"Inasmuch":11623,"Introd":11624,"Ġix":11625,"Ġiii":11626,"Ġconfer":11627,"Ġconfident":11628,"Ġconfusions":11629,"Ġconfusing":11630,"Ġconfidently":11631,"Ġdiscoveries":11632,"Ġclock":11633,"Ġcloud":11634,"subscribe":11635,"substitution":11636,"subordinate":11637,"ĠConcept":11638,"ĠContrib":11639,"ĠConjunction":11640,"ĠContent":11641,"ĠContact":11642,"ĠConditions":11643,"knowing":11644,"Ġindivisible":11645,"Ġindolence":11646,"Ġdegrade":11647,"Ġdefiniteness":11648,"Ġacy":11649,"Ġarrog":11650,"Ġarranges":11651,"Ġclearing":11652,"Ġimperilled":11653,"Ġregression":11654,"Ġregressively":11655,"Ġeloqu":11656,"Ġediting":11657,"Ġedifices":11658,"contend":11659,"contact":11660,"monads":11661,"Ġsolemn":11662,"Ġpersonified":11663,"Ġexerted":11664,"Ġneeding":11665,"misconception":11666,"misapprehension":11667,"Ġfinishing":11668,"Ġfinanci":11669,"Ġaccordant":11670,"Ġcontingencies":11671,"Ġwanted":11672,"Ġscale":11673,"Ġscandal":11674,"parte":11675,"parted":11676,"array":11677,"arrived":11678,"aimed":11679,"contradicts":11680,"contradictorily":11681,"Ġelemental":11682,"Ġassertorial":11683,"Ġassertorially":11684,"Ġmethodical":11685,"Ġcommanding":11686,"Ġmeanest":11687,"Ġlesson":11688,"Ġlesser":11689,"Ġlessened":11690,"ĠTHOSE":11691,"Ġoverthrow":11692,"Ġovercoming":11693,"goals":11694,"transcendentalism":11695,"Ġsolving":11696,"Ġdogma":11697,"Ġnonentity":11698,"Ġnonpropri":11699,"Ġdemonstrable":11700,"Ġrelationship":11701,"bitious":11702,"Ġequipped":11703,"Ġequilibrium":11704,"Ġidealistic":11705,"Ġidealizing":11706,"Ġcoin":11707,"Ġcoat":11708,"Ġcoar":11709,"Ġcool":11710,"Ġcoins":11711,"Ġcoerc":11712,"grity":11713,"grace":11714,"ĠPrimal":11715,"ĠPriestle":11716,"ĠSub":11717,"ĠSupposing":11718,"ĠSubst":11719,"Ġboundless":11720,"Ġconducting":11721,"mense":11722,"ailing":11723,"Ġidentification":11724,"Ġ21":11725,"Ġ23":11726,"Ġopens":11727,"Ġexpecting":11728,"Ġmisuse":11729,"Ġmisology":11730,"Ġmisrepresentation":11731,"Ġmisinter":11732,"Ġmisapplied":11733,"Ġmissed":11734,"Ġmisleads":11735,"Ġmisfortune":11736,"Ġmischief":11737,"Ġmiserably":11738,"Ġharsh":11739,"Ġpassion":11740,"Ġpassions":11741,"Ġargumentative":11742,"Ġdenying":11743,"Ġdenotes":11744,"Ġappreciated":11745,"Ġapprehensions":11746,"extends":11747,"extreme":11748,"ocate":11749,"ocks":11750,"Ġceased":11751,"Ġgenerates":11752,"Ġgeneratio":11753,"Ġobligatory":11754,"Ġremarking":11755,"Ġpromising":11756,"Ġprominent":11757,"Ġsuperficial":11758,"Ġconsciously":11759,"ĠBeings":11760,"simplicity":11761,"simultaneous":11762,"Ġawakes":11763,"blunder":11764,"blances":11765,"differ":11766,"nearer":11767,"Ġlegislator":11768,"Ġpeculiarities":11769,"Ġmaintainer":11770,"Ġaffirming":11771,"connecting":11772,"Ġunderstands":11773,"aveolens":11774,"corporeal":11775,"somewhat":11776,"Ġundone":11777,"Ġundecided":11778,"Ġundisc":11779,"Ġundeveloped":11780,"describe":11781,"desired":11782,"Ġcircuit":11783,"Ġspeech":11784,"Ġbrutes":11785,"Ġbranch":11786,"Ġbrutum":11787,"Ġbridge":11788,"happily":11789,"happened":11790,"righteous":11791,"ship":11792,"Ġignore":11793,"categorically":11794,"Ġintellectualized":11795,"Ġteleology":11796,"Ġfutile":11797,"Ġdistinctly":11798,"Ġdistinctness":11799,"brain":11800,"Ġclaiming":11801,"Ġoperative":11802,"Ġoperates":11803,"fering":11804,"ynics":11805,"Ġendeavouring":11806,"ĠAnalog":11807,"prescribed":11808,"Ġconvict":11809,"Ġconvictions":11810,"Ġcorrecting":11811,"Ġthreefold":11812,"Ġpretext":11813,"Ġdistributive":11814,"Ġparsimony":11815,"Ġparabol":11816,"Ġanalogical":11817,"sensuously":11818,"apse":11819,"examine":11820,"examined":11821,"examining":11822,"Ġinvolunt":11823,"Ġmeditation":11824,"noble":11825,"noisseurs":11826,"legality":11827,"procure":11828,"request":11829,"requiring":11830,"impenetrable":11831,"ĠUnphilosophical":11832,"Ġdynamics":11833,"Ġasking":11834,"fees":11835,"justifies":11836,"Ġtranslated":11837,"ĠExternal":11838,"ĠExtent":11839,"ĠExamples":11840,"ĠExistences":11841,"ĠExecutive":11842,"ĠExamination":11843,"remove":11844,"remote":11845,"remarks":11846,"remained":11847,"remaining":11848,"attached":11849,"attacks":11850,"caused":11851,"Ġprofundity":11852,"Ġpains":11853,"Ġpainful":11854,"Ġexcluding":11855,"Ġexclusive":11856,"Ġvainly":11857,"Ġdesigned":11858,"Ġdesignates":11859,"Ġdesignating":11860,"INCIDENTAL":11861,"asked":11862,"Ġsuccessively":11863,"compound":11864,"compressed":11865,"applies":11866,"Ġblow":11867,"respects":11868,"respecting":11869,"respective":11870,"Ġ596":11871,"orizontal":11872,"Ġmeanings":11873,"Ġmeaningless":11874,"inclined":11875,"includes":11876,"Ġthirdly":11877,"ĠArchitect":11878,"Ġraises":11879,"ftp":11880,"ificate":11881,"Ġdelivers":11882,"Ġdeline":11883,"Ġdelusions":11884,"Ġdelicate":11885,"Ġdelivered":11886,"Ġapproved":11887,"Ġapproval":11888,"Ġapprobation":11889,"consisting":11890,"Ġ*(":11891,"ĠVery":11892,"confounded":11893,"confutation":11894,"Ġreferable":11895,"Ġcheer":11896,"Ġchemist":11897,"thoughts":11898,"ĠSphere":11899,"Ġdeclined":11900,"Ġensure":11901,"Ġensures":11902,"Ġensuring":11903,"universally":11904,"Ġletters":11905,"Ġgeometer":11906,"Ġagreeably":11907,"quanta":11908,"Ġorganic":11909,"ĠJUD":11910,"Ġarbitrium":11911,"Ġsignificancy":11912,"thened":11913,"ĠKings":11914,"ĠKNOW":11915,"constituted":11916,"constituent":11917,"mathematician":11918,"ĠREPL":11919,"ĠREFUND":11920,"Ġseparates":11921,"Ġseparating":11922,"Ġ4000":11923,"Ġ4280":11924,"iterated":11925,"Ġcarelessness":11926,"worthless":11927,"ipid":11928,"ipate":11929,"metaphysicians":11930,"CEDURE":11931,"Ġoffence":11932,"insipid":11933,"divisible":11934,"possessions":11935,"ursively":11936,"Ġcreative":11937,"Ġsceptic":11938,"Ġfaulty":11939,"Ġacceptance":11940,"cogitable":11941,"cogitating":11942,"Ġwiser":11943,"Ġwisest":11944,"specific":11945,"venal":11946,"guides":11947,"Ġgenius":11948,"thinker":11949,"thinkers":11950,"changeably":11951,"Ġfavourite":11952,"Ġpropension":11953,"Ġpropounded":11954,"Ġoccasioning":11955,"Ġoccasioned":11956,"Ġoccasionally":11957,"Ġsurely":11958,"Ġdogmata":11959,"Ġdogmatists":11960,"satisfy":11961,"analysed":11962,"originated":11963,"originator":11964,"originarium":11965,"Ġgeometricians":11966,"Ġgeometrician":11967,"Ġhighway":11968,"predicated":11969,"predicaments":11970,"Ġinterference":11971,"Ġinterior":11972,"Ġinterrog":11973,"Ġinterpretation":11974,"Ġinterwoven":11975,"Ġinterfering":11976,"demonstrations":11977,"demonstratively":11978,"Ġconverting":11979,"Ġirrespective":11980,"Ġfrustr":11981,"Ġfrank":11982,"Ġframes":11983,"iminished":11984,"judges":11985,"judging":11986,"judicium":11987,"sensatio":11988,"Ġartifice":11989,"realized":11990,"realissimum":11991,"Ġcountenance":11992,"Ġcountries":11993,"advances":11994,"Ġcollect":11995,"Ġmechanically":11996,"explanations":11997,"Ġ92":11998,"Ġreducing":11999,"Ġexperiments":12000,"Ġexperimental":12001,"volunteers":12002,"discovers":12003,"matters":12004,"Ġaccessed":12005,"Ġaccessible":12006,"Ġcanons":12007,"observe":12008,"Ġurges":12009,"NDATION":12010,"Ġprudential":12011,"firstly":12012,"Ġaccidentally":12013,"Ġclassed":12014,"Ġcomprehended":12015,"Ġloses":12016,"investigating":12017,"continual":12018,"Professor":12019,"Ġdiversities":12020,"Ġdefects":12021,"attaining":12022,"Ġsketched":12023,"ĠImmortality":12024,"Ġdetection":12025,"Ġpracticable":12026,"Ġrecent":12027,"Ġrecord":12028,"Ġrecollection":12029,"Ġhumour":12030,"Ġenlarges":12031,"Ġenlarging":12032,"Ġwriter":12033,"Ġconfining":12034,"Ġascends":12035,"Ġventuring":12036,"influences":12037,"adequately":12038,"Ġsentimental":12039,"Ġbenef":12040,"Ġbenefits":12041,"Ġfirmness":12042,"Ġsucceeds":12043,"Ġstudent":12044,"Ġobscured":12045,"maximum":12046,"Ġmistaking":12047,"negations":12048,"neglect":12049,"glorious":12050,"saying":12051,"Ġdestiny":12052,"Ġlowering":12053,"ÄłAr":12054,"ĠPhalar":12055,"Ġpreserves":12056,"Ġpreservation":12057,"Ġ2003":12058,"attempting":12059,"Conceptions":12060,"affinity":12061,"drawing":12062,"Ġglim":12063,"Ġglory":12064,"psychologia":12065,"Ġengraft":12066,"ÄłPh":12067,"Ġqualified":12068,"Ġreckons":12069,"Ġstrengthening":12070,"Äłequ":12071,"Ġ70":12072,"Ġauthorizes":12073,"Ġauthorizing":12074,"Ġestimates":12075,"Ġbestowed":12076,"imagine":12077,"imagined":12078,"Ġspirituality":12079,"ĠPUBL":12080,"ĠPROBL":12081,"ĠPROCEDURE":12082,"ĠHerein":12083,"Ġreflected":12084,"regressive":12085,"regressus":12086,"Ġprofessions":12087,"Ġverify":12088,"Ġverbal":12089,"Ġguardian":12090,"operate":12091,"operative":12092,"operating":12093,"Ġ65":12094,"conditio":12095,"Ġrenamed":12096,"Ġrenounces":12097,"Ġrenounced":12098,"Ġrepul":12099,"Ġreputation":12100,"Ġreports":12101,"Ġreported":12102,"Ġhabitation":12103,"Ġincreases":12104,"Ġexcuse":12105,"Ġexcited":12106,"Ġexcusable":12107,"supplied":12108,"pretext":12109,"obligatory":12110,"Ġsearching":12111,"Ġstruck":12112,"humanity":12113,"Ġmoves":12114,"Ġoccurring":12115,"Ġblindness":12116,"Ġbehold":12117,"Ġbehalf":12118,"Ġextract":12119,"Ġdeviate":12120,"ĠChief":12121,"Ġenjoying":12122,"ĠEmpiricism":12123,"ĠEmployment":12124,"Ġstrongly":12125,"Ġstrongest":12126,"ĠLeibnitzian":12127,"difficult":12128,"unteer":12129,"define":12130,"depending":12131,"inquire":12132,"infinitely":12133,"Ġderivable":12134,"Ġtwist":12135,"Ġsuggests":12136,"Ġsuggestion":12137,"Ġsuggestions":12138,"ĠEpicureans":12139,"additions":12140,"secondly":12141,"degrees":12142,"Ġappeals":12143,"equally":12144,"equivalent":12145,"conceptus":12146,"instance":12147,"instances":12148,"Ġfortunate":12149,"ĠEveryone":12150,"Ġillustrations":12151,"Ġtransgresses":12152,"Ġtransgressing":12153,"Existence":12154,"Examples":12155,"Ġheader":12156,"Ġimitate":12157,"Ġimitating":12158,"Ġpermits":12159,"Ġadaptation":12160,"Ġsecrets":12161,"showing":12162,"attributing":12163,"requirement":12164,"Ġvanish":12165,"Ġvanishes":12166,"Ġprepares":12167,"ĠWhole":12168,"Ġsubstantive":12169,"Ġcontemplate":12170,"Ġobeys":12171,"Ġhinders":12172,"ĠINTERNAL":12173,"Ġadducing":12174,"Ġgovernor":12175,"ĠDIRECT":12176,"Ġmoderately":12177,"Ġscholar":12178,"Ġscholars":12179,"Ġscholastically":12180,"Ġrooted":12181,"directs":12182,"directing":12183,"directed":12184,"begins":12185,"singular":12186,"ACEMENT":12187,"Ġillegitimate":12188,"versa":12189,"antecedently":12190,"analytically":12191,"advantageous":12192,"Ġomnipresent":12193,"Ġomnipresence":12194,"labours":12195,"persons":12196,"personal":12197,"personality":12198,"Ġattractions":12199,"Ġsympath":12200,"Ġsymbol":12201,"Ġsympat":12202,"Ġcommunic":12203,"abstracted":12204,"oxysms":12205,"Ġ85":12206,"Ġ841":12207,"Ġinjuring":12208,"Ġinjury":12209,"Ġrejects":12210,"Ġrejection":12211,"Ġsuffers":12212,"Ġsuffices":12213,"Ġabandoned":12214,"Ġstarted":12215,"Ġevidencing":12216,"Ġconfusedly":12217,"Ġaccomplishes":12218,"generations":12219,"Ġvex":12220,"Ġveiled":12221,"Ġvehic":12222,"correctly":12223,"correctness":12224,"Ġspectata":12225,"Ġspectacle":12226,"occupies":12227,"maintains":12228,"aenomena":12229,"Ġcuriosity":12230,"comparatively":12231,"Ġtypic":12232,"conclusio":12233,"Ġaltering":12234,"Ġsettlement":12235,"Ġlegitimately":12236,"security":12237,"Ġdictation":12238,"Ġdictated":12239,"Ġlocale":12240,"Ġdeepest":12241,"Ġmeantime":12242,"Ġimparted":12243,"Ġimpartiality":12244,"ĠMaterial":12245,"commands":12246,"Ġblameless":12247,"Ġmonogram":12248,"Ġmonads":12249,"distribute":12250,"distribution":12251,"affirming":12252,"affirmations":12253,"collection":12254,"collected":12255,"modi":12256,"progressus":12257,"needing":12258,"authors":12259,"promise":12260,"promote":12261,"Ġtells":12262,"Ġlinked":12263,"constructions":12264,"Ġfulfils":12265,"Ġtender":12266,"Ġtendencies":12267,"Ġcleared":12268,"Ġresolves":12269,"Ġresolutions":12270,"Ġreplaced":12271,"Ġdrives":12272,"Ġhardness":12273,"results":12274,"Ġdeprives":12275,"Ġundertakes":12276,"Ġstops":12277,"ĠPerception":12278,"ĠPerfect":12279,"ĠPerhaps":12280,"ĠPermitted":12281,"Ġpreferable":12282,"Ġpreferred":12283,"ĠCategory":12284,"ĠCategorical":12285,"Ġpresumed":12286,"Ġambigu":12287,"Ġteachings":12288,"Ġcalculation":12289,"Ġhyperbol":12290,"incerity":12291,"enlarges":12292,"enlarging":12293,"errors":12294,"graduated":12295,"reciprocity":12296,"indispensably":12297,"moon":12298,"Ġjoining":12299,"Ġannounces":12300,"Ġannoying":12301,"ĠTranscendent":12302,"ĠTrancendent":12303,"Ġerroneously":12304,"copy":12305,"copying":12306,"country":12307,"Ġaugmentative":12308,"Ġcentury":12309,"Ġrevealed":12310,"Ġalleging":12311,"agreeable":12312,"materialiter":12313,"ĠComposition":12314,"ĠCompliance":12315,"Ġenouncement":12316,"Ġimplying":12317,"Ġdecidedly":12318,"Ġcolouring":12319,"affecting":12320,"Ġincit":12321,"Ġincumb":12322,"Ġously":12323,"smaller":12324,"constructs":12325,"constructed":12326,"individuals":12327,"Ġinstructs":12328,"Ġerects":12329,"Ġratione":12330,"Ġprincipally":12331,"sophistries":12332,"Ġattacked":12333,"Ġ501":12334,"pathologically":12335,"ULTY":12336,"opportunity":12337,"Ġwax":12338,"Ġwait":12339,"Ġwider":12340,"Ġinherence":12341,"Ġthyself":12342,"Ġthreatened":12343,"Ġthreatening":12344,"Ġfootpath":12345,"Ġfootsteps":12346,"Ġnullity":12347,"Ġconjectures":12348,"Ġhundreds":12349,"Ġpropensions":12350,"Ġviolate":12351,"profitable":12352,"ĠAlaska":12353,"Ġyouthful":12354,"ĠMeanwhile":12355,"Ġconcealment":12356,"Ġroads":12357,"ĠÃĨSTHE":12358,"ĠProofs":12359,"ĠProblematical":12360,"Ġobstinacy":12361,"ĠPhilosophical":12362,"ĠPhysics":12363,"Ġprospects":12364,"Ġhypostatize":12365,"Ġhypostatized":12366,"801":12367,"deserve":12368,"apodeictical":12369,"Beyond":12370,"CLUSION":12371,"poseless":12372,"LIABILITY":12373,"LIABLE":12374,"communio":12375,"Ġreconcile":12376,"Ġhesitation":12377,"Ġamounts":12378,"Ġstruggles":12379,"Ġstruggling":12380,"Ġflatters":12381,"Ġsovereignty":12382,"Ġmachines":12383,"Ġmachinery":12384,"Ġdespising":12385,"ĠEXCEP":12386,"ĠEXTERNAL":12387,"Ġirremediable":12388,"ĠSystematic":12389,"ĠNewby":12390,"Ġbreaks":12391,"pursuit":12392,"pursued":12393,"Ġpoor":12394,"Ġpressure":12395,"Ġruined":12396,"donation":12397,"Ġcourtes":12398,"experiment":12399,"inseparable":12400,"Ġascertaining":12401,"Ġalternation":12402,"Ġalternate":12403,"Ġalternatively":12404,"Ġruns":12405,"dispositions":12406,"Ġincompatible":12407,"Ġannexes":12408,"Ġexemption":12409,"Ġexcellence":12410,"Ġlicence":12411,"Ġlicet":12412,"Ġdetract":12413,"ĠPRINT":12414,"Ġsubstitute":12415,"Ġsubstituting":12416,"Ġ1971":12417,"Ġelaborate":12418,"Ġelaborating":12419,"Ġmoderns":12420,"Ġantinomial":12421,"Ġsolicitation":12422,"Ġsolidity":12423,"Ġinstincts":12424,"Ġdenomination":12425,"Ġspiritualism":12426,"ĠDIALECTICAL":12427,"Ġflowing":12428,"Permanence":12429,"Persuasion":12430,"classes":12431,"sympathy":12432,"designate":12433,"comprehending":12434,"comprehended":12435,"organon":12436,"cility":12437,"devised":12438,"remarking":12439,"haustible":12440,"contemplated":12441,"SECTION":12442,"SECOND":12443,"harmonize":12444,"treatment":12445,"definitely":12446,"convincing":12447,"expositions":12448,"Ġmysticism":12449,"ĠConclusion":12450,"Ġsilver":12451,"Ġinexorably":12452,"Ġinexhaustible":12453,"Ġbinds":12454,"ancients":12455,"Ġbetrayed":12456,"Ġprimeval":12457,"Ġunfortunate":12458,"Ġtrustworthy":12459,"Ġheights":12460,"Ġperplexing":12461,"ĠAbout":12462,"Ġcompassion":12463,"specifically":12464,"Ġsuffering":12465,"Ġridicule":12466,"Grant":12467,"admixture":12468,"admiration":12469,"honoured":12470,"honesty":12471,"excite":12472,"excited":12473,"Deity":12474,"cosmology":12475,"increase":12476,"introduction":12477,"transcends":12478,"exhibit":12479,"probable":12480,"ĠQuantity":12481,"heterogeneous":12482,"reckoning":12483,"secting":12484,"forthcoming":12485,"speak":12486,"Ġgratification":12487,"Produce":12488,"declarations":12489,"momenta":12490,"tonian":12491,"Ġrestrained":12492,"Ġembarrassments":12493,"Ġchiefly":12494,"ĠGrant":12495,"descent":12496,"Ġinnate":12497,"Ġinsisted":12498,"Ġbonus":12499,"Ġectypal":12500,"Ġpragmatic":12501,"Ġluxury":12502,"Ġsustain":12503,"Ġsustained":12504,"Ġcomprised":12505,"Ġhealthy":12506,"ĠAGREEMENT":12507,"Ġcharitable":12508,"ĠIntroduction":12509,"ĠGermany":12510,"Ġencourage":12511,"Ġencourages":12512,"Ġcriticize":12513,"ĠMission":12514,"majesty":12515,"Ġsurprise":12516,"Ġdeficiency":12517,"Ġpunctual":12518,"Ġpunctually":12519,"Ġstrengthens":12520,"Ġtalked":12521,"Ġastonishing":12522,"ĠMethodology":12523,"Ġdenominated":12524,"Ġfatalist":12525,"delusion":12526,"confirmation":12527,"barism":12528,"enjoyment":12529,"detailed":12530,"agonal":12531,"anthropomorphic":12532,"501":12533,"creature":12534,"creatures":12535,"testing":12536,"Ġeducation":12537,"Ġeducational":12538,"recognise":12539,"recognizes":12540,"substantia":12541,"PROVIDED":12542,"bringing":12543,"ficiency":12544,"Ġautomaton":12545,"Ġmali":12546,"Ġmalum":12547,"Ġepisyllogism":12548,"ĠINDEMNITY":12549,"Ġardent":12550,"professes":12551,"preventing":12552,"Ġpoles":12553,"Ġpolice":12554,"Ġredistribute":12555,"Ġredistributing":12556,"Ġlarger":12557,"Ġlargest":12558,"Ġricher":12559,"precepts":12560,"Ġimaginarium":12561,"Ġtheorems":12562,"Ġslip":12563,"Ġswamp":12564,"Ġpublish":12565,"Ġpublished":12566,"Ġparents":12567,"Ġinspires":12568,"Ġincorporeal":12569,"Ġmarvellous":12570,"Ġmasses":12571,"Ġtolerable":12572,"Ġtolerate":12573,"Ġrefinement":12574,"Ġprolonging":12575,"Ġprolonged":12576,"Ġratiocinant":12577,"Ġvisionary":12578,"ĠBEFORE":12579,"Ġperpetual":12580,"Ġconsulting":12581,"ĠAgainst":12582,"ĠSeat":12583,"Ġsubdivided":12584,"Ġsubdivisions":12585,"ĠWolfian":12586,"ĠCanon":12587,"ĠCognition":12588,"ĠCognitions":12589,"Ġcommercium":12590,"Ġvalues":12591,"Ġvalued":12592,"Ġsimplest":12593,"ĠDetermine":12594,"ĠDetermining":12595,"Ġresponsible":12596,"Ġresponsibility":12597,"ĠSubjective":12598,"Ġaddresses":12599,"Ġparadoxical":12600,"Ġchemists":12601,"Ġfacility":12602,"Ġtautological":12603,"Ġbeneficence":12604,"Ġwavering":12605,"Ġarchetypal":12606,"Ġarchetypes":12607,"beneficial":12608,"Ġpotential":12609,"available":12610,"flown":12611,"doctrines":12612,"doctrinal":12613,"authorized":12614,"cultivated":12615,"framed":12616,"ratione":12617,"sketch":12618,"sentiments":12619,"reconciled":12620,"requisite":12621,"exercising":12622,"Philosophical":12623,"1887":12624,"Caius":12625,"Causality":12626,"diversity":12627,"diversities":12628,"master":12629,"mastery":12630,"temptation":12631,"temptations":12632,"Ġfluid":12633,"settlement":12634,"strength":12635,"strengthened":12636,"iverance":12637,"performing":12638,"abandoning":12639,"abandoned":12640,"private":12641,"privilege":12642,"Ġarticulation":12643,"obscure":12644,"obscurity":12645,"impulse":12646,"impulses":12647,"Idealism":12648,"functions":12649,"parents":12650,"Ġmountain":12651,"Ġmountains":12652,"Ġdrops":12653,"plainly":12654,"Ġadversary":12655,"Ġcardinal":12656,"Ġsalts":12657,"Ġsanct":12658,"Ġsanctions":12659,"Ġseduced":12660,"Ġsmoke":12661,"Ġsmooth":12662,"Ġsoftware":12663,"Ġincapac":12664,"Ġincapacity":12665,"Ġmilitates":12666,"Ġflatten":12667,"Ġelucidate":12668,"Ġreverses":12669,"Ġdiameter":12670,"Ġdiagonal":12671,"Ġlatent":12672,"Ġlimbs":12673,"Ġhastily":12674,"Ġunconsciously":12675,"Ġmelts":12676,"Ġshadows":12677,"Ġappetite":12678,"Ġyea":12679,"ĠPGLAF":12680,"ĠPostulate":12681,"ĠPostulates":12682,"Ġarguing":12683,"ĠSchematism":12684,"Ġsubreptions":12685,"Ġsubreptio":12686,"ĠCauses":12687,"ĠCausality":12688,"ĠCertainly":12689,"ĠCosmical":12690,"ĠCosmology":12691,"ĠRedistribution":12692,"ĠRedistributing":12693,"Ġconfounding":12694,"Ġindividuum":12695,"Ġheroes":12696,"Ġfalsity":12697,"Ġ5682":12698,"Ġ5683":12699,"Ġadmirers":12700,"Ġsignalize":12701,"transgression":12702,"ĠWhoever":12703,"Ġsharpen":12704,"Ġpoisons":12705,"ĠDISTRIBUTE":12706,"ĠDISTRIBUTOR":12707,"Concluding":12708,"5683":12709,"architectonic":12710,"humiliates":12711,"laborious":12712,"ithmetic":12713,"sensualizing":12714,"Epicurean":12715,"Morality":12716,"Stoics":12717,"azard":12718,"calculation":12719,"destination":12720,"easily":12721,"elevated":12722,"facility":12723,"familiar":12724,"loving":12725,"penetrating":12726,"wisdom":12727,"warranties":12728,"inozism":12729,"instructed":12730,"enumerate":12731,"threatens":12732,"embarrassment":12733,"conjectured":12734,"confines":12735,"convenience":12736,"primary":12737,"speculations":12738,"serviceable":12739,"mysticism":12740,"PLEASE":12741,"scholastic":12742,"circumstances":12743,"6221541":12744,"Wolfian":12745,"motherly":12746,"Ġadequacy":12747,"Ġindiscernibles":12748,"animals":12749,"constantly":12750,"ademical":12751,"adapted":12752,"ĠEDITION":12753,"Ġappertaining":12754,"undoubtedly":12755,"granting":12756,"consequentiae":12757,"Ġtears":12758,"Ġtheologians":12759,"Ġwandering":12760,"Ġcandour":12761,"Ġcitizen":12762,"Ġsagacity":12763,"Ġincomprehensibility":12764,"Ġinstrument":12765,"Ġincontrovertibly":12766,"Ġbroke":12767,"Ġthirteen":12768,"Ġthwarting":12769,"Ġmingles":12770,"Ġfantastic":12771,"Ġnominally":12772,"Ġeclipses":12773,"Ġliquet":12774,"Ġlanguages":12775,"Ġweariness":12776,"Ġforgetting":12777,"Ġsupposititious":12778,"Ġsuddenly":12779,"Ġalkali":12780,"Ġunsolicited":12781,"Ġunquestionably":12782,"Ġempiricist":12783,"Ġembellishments":12784,"Ġtradesman":12785,"ĠBecause":12786,"Ġimmediatae":12787,"Ġnovelty":12788,"ĠFaculty":12789,"ĠFOUNDATION":12790,"ĠAdditional":12791,"Ġaccusation":12792,"ĠPrecisely":12793,"ĠParalogisms":12794,"Ġdissipate":12795,"Ġdisappointment":12796,"Ġarmoury":12797,"Ġphantoms":12798,"ĠIntellect":12799,"ĠGregory":12800,"ĠClue":12801,"ĠCopernicus":12802,"Ġobliterated":12803,"Ġdiscretum":12804,"ĠHistory":12805,"ĠHypothesis":12806,"Ġenvy":12807,"Ġenigma":12808,"ĠEvents":12809,"Ġtertium":12810,"Ġentrusted":12811,"Ġimpotence":12812,"Ġshallowness":12813,"Ġinflexible":12814,"ĠLatin":12815,"Ġdecrease":12816,"Ġilluminated":12817,"ĠOntological":12818,"Ġdegraded":12819,"Ġmisleading":12820,"Ġsurrounded":12821,"Ġsurreptitiously":12822,"Ġindisputable":12823,"ĠImperatives":12824,"Ġdetails":12825,"Ġprosyllogisms":12826,"Ġdeviations":12827,"ĠDiscovery":12828,"Ġtreasures":12829,"ĠNegation":12830,"ĠOriginally":12831,"Ġzealous":12832,"Ġsteadfastness":12833,"Ġsilenced":12834,"ĠAbbott":12835,"Ġauthenticated":12836,"Ġastronomers":12837,"Ġeconomical":12838,"Ġgerm":12839,"ĠIRS":12840,"ĠPHILOSO":12841,"ĠRIGHT":12842,"struggle":12843,"escape":12844,"Ġducat":12845,"Ġallege":12846,"omnipotence":12847,"Ġatheistic":12848,"Ġoptical":12849,"Ġpushed":12850,"Ġnisi":12851,"Ġconditio":12852,"defence":12853,"Substances":12854,"Ġcapital":12855,"indubitably":12856,"Aristotle":12857,"Criticism":12858,"Categories":12859,"DAMAGE":12860,"GRAPH":12861,"Juvenal":12862,"Meanwhile":12863,"Pleasure":12864,"Possibility":12865,"Particular":12866,"Revenue":12867,"Things":12868,"Until":12869,"busy":12870,"civilized":12871,"dollars":12872,"fanaticism":12873,"fictitious":12874,"fruitful":12875,"hindrances":12876,"hopes":12877,"mundus":12878,"movable":12879,"pobox":12880,"soundness":12881,"twofold":12882,"victory":12883,"welfare":12884,"Ġaverage":12885,"Ġaequivoca":12886,"repeated":12887,"resemblances":12888,"reluctantly":12889,"recommendations":12890,"encouragement":12891,"alleged":12892,"Ġnetwork":12893,"Ġdictionis":12894,"starry":12895,"omnitudo":12896,"ectypa":12897,"theorem":12898,"improvement":12899,"Ġlibitum":12900,"ibiblio":12901,"persisted":12902,"perpetually":12903,"perplexity":12904,"conjunctio":12905,"Ġintegrity":12906,"detrimental":12907,"pragmatic":12908,"suppositio":12909,"excellent":12910,"acceptation":12911,"behoof":12912,"ortunities":12913,"commencing":12914,"paradoxical":12915,"obstacles":12916,"overer":12917,"Prototypon":12918,"opponent":12919,"TRADEMARK":12920,"Ġtibi":12921,"Ġwalks":12922,"Ġcunning":12923,"Ġcathartic":12924,"Ġcubic":12925,"Ġcrowded":12926,"Ġinanimate":12927,"Ġinexplicable":12928,"Ġinestimable":12929,"Ġinhabitants":12930,"Ġinsensibly":12931,"Ġthreshold":12932,"Ġdiligence":12933,"Ġdialetic":12934,"Ġbequeath":12935,"Ġwholes":12936,"Ġhostile":12937,"Ġaspirations":12938,"Ġlaugh":12939,"Ġlibrary":12940,"Ġwearied":12941,"Ġforbear":12942,"Ġsupremacy":12943,"Ġgbnewby":12944,"Ġprolixity":12945,"Ġdeletions":12946,"Ġintimidation":12947,"Ġhaphazard":12948,"Ġunshaken":12949,"Ġunqualified":12950,"Ġunexceptionable":12951,"Ġunsettled":12952,"Ġunalterable":12953,"Ġcaelo":12954,"Ġraindrops":12955,"Ġtriangles":12956,"ĠBerkeley":12957,"Ġpermanently":12958,"Ġnoblest":12959,"ĠFACULTY":12960,"ĠFebruary":12961,"Ġcognizant":12962,"ĠACTUAL":12963,"ĠAldarondo":12964,"ĠPolemics":12965,"ĠPARAGRAPH":12966,"ĠSMALL":12967,"Ġphilanthropist":12968,"ĠNoumena":12969,"Ġsubdued":12970,"Ġsubsidiary":12971,"ĠGovernor":12972,"ĠWORK":12973,"ĠWILL":12974,"Ġcontrariwise":12975,"ĠCartesian":12976,"ĠCOROLLARY":12977,"ĠCarolina":12978,"Ġobnoxious":12979,"Ġobsolete":12980,"ĠHarmony":12981,"Ġvalueless":12982,"ĠElucidation":12983,"ĠEBCDIC":12984,"ĠELEMENTS":12985,"ĠDirector":12986,"ĠDOMAIN":12987,"Ġcorporation":12988,"ĠMendelssohn":12989,"ĠContributions":12990,"Ġeloquent":12991,"Ġfinancial":12992,"Ġnonproprietary":12993,"Ġcoercion":12994,"ĠPriestley":12995,"ĠSubstance":12996,"Ġmisinterpretation":12997,"Ġundiscovered":12998,"ĠAnalogies":12999,"Ġparabola":13000,"Ġinvoluntarily":13001,"ĠArchitectonic":13002,"ĠJUDGEMENT":13003,"ĠKingsmill":13004,"ĠREPLACEMENT":13005,"Ġfrankness":13006,"ĠPhalaris":13007,"ĠPUBLIC":13008,"ĠPROBLEM":13009,"Ġ84116":13010,"Ġhyperbolic":13011,"ĠTrancendentale":13012,"Ġincumbent":13013,"ĠÃĨSTHETIC":13014,"ĠEXCEPT":13015,"Ġcourtesy":13016,"Ġave":13017,"Ġail":13018,"Ġaking":13019,"Ġsion":13020,"Ġpir":13021,"Ġms":13022,"Ġith":13023,"Ġites":13024,"Ġiting":13025,"Ġitas":13026,"Ġither":13027,"Ġular":13028,"Ġond":13029,"Ġling":13030,"Ġged":13031,"Ġors":13032,"ÄłJ":13033,"Äłill":13034,"Äłcl":13035,"Äłfin":13036,"Äłser":13037,"Äłmed":13038,"ÄłRE":13039,"Äłleg":13040,"Äłpur":13041,"Äłconce":13042,"Äłgl":13043,"Äłpret":13044,"Ġify":13045,"Ġified":13046,"Ġark":13047,"Ġarch":13048,"ĠOU":13049,"ÃĦÅĤC":13050,"ÃĦÅĤr":13051,"ÃĦÅĤw":13052,"ÃĦÅĤdis":13053,"Ġeness":13054,"ĠEM":13055,"Ġtermin":13056,"Äłins":13057,"Äłrem":13058,"ÄłAn":13059,"Äłexp":13060,"ÄłPro":13061,"Ġolog":13062,"Äładm":13063,"bted":13064,"leness":13065,"ucid":13066,"Ġience":13067,"Ġime":13068,"Ġiate":13069,"Ġician":13070,"Ġaces":13071,"Ġained":13072,"Ġove":13073,"Ġode":13074,"Ġoft":13075,"Ġcul":13076,"Ġcious":13077,"Ġsect":13078,"Ġpect":13079,"Ġbal":13080,"Ġision":13081,"Ġitable":13082,"Ġdu":13083,"Ġudes":13084,"idic":13085,"Ġges":13086,"ĠIC":13087,"Äłes":13088,"Äłed":13089,"Äłid":13090,"Äłog":13091,"Äłec":13092,"Äłve":13093,"Äław":13094,"Äłart":13095,"Äłet":13096,"Äłte":13097,"Äłro":13098,"Äłear":13099,"Äłphys":13100,"Äłdetermin":13101,"Äłlaw":13102,"Äłbl":13103,"Äłne":13104,"Äłap":13105,"Äłno":13106,"Äłprov":13107,"Äłvol":13108,"ÄłSu":13109,"ÄłPr":13110,"Äłcontinu":13111,"Äłindis":13112,"Äłcommun":13113,"ÄłUn":13114,"Ġatis":13115,"Ġatio":13116,"Ġatively":13117,"Ġstit":13118,"Ġstem":13119,"Ġque":13120,"soph":13121,"Ġars":13122,"ĠCE":13123,"ÃĦÅĤa":13124,"Ġened":13125,"ĠEN":13126,"Ġention":13127,"rap":13128,"Ġior":13129,"Ġius":13130,"Ġert":13131,"Ġansc":13132,"Ġutation":13133,"Äłinc":13134,"Äłinst":13135,"Äłcal":13136,"Äłsum":13137,"Äłfa":13138,"Äłpass":13139,"ĠÃĥ":13140,"Äłbene":13141,"Ġurs":13142,"Äłconv":13143,"Ġordin":13144,"ÄłDe":13145,"Ġctive":13146,"Ġounce":13147,"Ġwards":13148,"Ã¢Ä¢Ä¿":13149,"BOL":13150,"NIC":13151,"Sol":13152,"bt":13153,"lvan":13154,"nos":13155,"Äī":13156,"Ġ.":13157,"ĠÄł":13158,"Ġiz":13159,"Ġern":13160,"Ġires":13161,"Ġirm":13162,"Ġicable":13163,"Ġxi":13164,"Ġief":13165,"Ġired":13166,"Ġizes":13167,"Ġtle":13168,"Ġale":13169,"Ġade":13170,"Ġains":13171,"Ġole":13172,"Ġook":13173,"Ġson":13174,"Ġsist":13175,"Ġines":13176,"Ġince":13177,"Ġff":13178,"Ġffici":13179,"Ġner":13180,"Ġety":13181,"Ġitive":13182,"Ġitude":13183,"Ġitio":13184,"omin":13185,"arp":13186,"Ġull":13187,"Ġuring":13188,"ivum":13189,"Ġange":13190,"pted":13191,"ĠIT":13192,"Äłom":13193,"Äłwith":13194,"Äłthere":13195,"Äłdo":13196,"Äłanaly":13197,"Äłorigin":13198,"Äłassert":13199,"Äłcomb":13200,"Äłsym":13201,"Ġrust":13202,"Ġraw":13203,"Ġrough":13204,"Ġempt":13205,"Ġimin":13206,"Ġuses":13207,"ffer":13208,"Ġsel":13209,"Ġmort":13210,"ĠAM":13211,"ĠATION":13212,"Ġjoy":13213,"Ġjunction":13214,"Ġjoined":13215,"Ġples":13216,"ismis":13217,"ÃĦÅĤM":13218,"ÃĦÅĤe":13219,"Ġentia":13220,"Ġmatical":13221,"Ġigh":13222,"Ġery":13223,"Ġack":13224,"Ġants":13225,"Ġingly":13226,"REM":13227,"scr":13228,"Äłdef":13229,"Äłconcl":13230,"ÄłAN":13231,"ÄłPer":13232,"Äłvari":13233,"Äłdisp":13234,"ÄłCON":13235,"errone":13236,"Ġould":13237,"Ġough":13238,"Ġosm":13239,"ÄłÄłÄłÄłÄłÄłÄłÄłÄłÄłÄłÄłÄłÄłÄłÄłÄłÄłÄłÄłÄłÄłÄłÄł":13240,"ÃĦÅĤÃĦÅĤÃĦÅĤÃĦÅĤÃĦÅĤÃĦÅĤÃĦÅĤÃĦÅĤÃĦÅĤÃĦÅĤÃĦÅĤÃĦÅĤÃĦÅĤÃĦÅĤÃĦÅĤÃĦÅĤ":13241,"piritual":13242,"Ġakes":13243,"ĠÃ¢Ä¢Ä¶":13244,"AND":13245,"GIN":13246,"IOM":13247,"IBOL":13248,"LLI":13249,"Mont":13250,"Ok":13251,"PER":13252,"Wiz":13253,"aver":13254,"hall":13255,"mount":13256,"rin":13257,"ris":13258,"uck":13259,"Â¦":13260,"Ġ)":13261,"Ġ/":13262,"Ġich":13263,"Ġhen":13264,"Ġnder":13265,"Ġie":13266,"Ġivers":13267,"Ġxim":13268,"ĠÄłÄłÄłÄł":13269,"Ġization":13270,"Ġicians":13271,"Ġibly":13272,"Ġtil":13273,"Ġties":13274,"Ġaly":13275,"Ġath":13276,"Ġaint":13277,"Ġoly":13278,"Ġoll":13279,"Ġood":13280,"Ġoph":13281,"Ġote":13282,"Ġount":13283,"Ġcess":13284,"Ġcel":13285,"Ġsible":13286,"Ġps":13287,"Ġpend":13288,"Ġpict":13289,"Ġink":13290,"Ġbi":13291,"Ġbject":13292,"Ġnight":13293,"lej":13294,"Ġhat":13295,"Ġhing":13296,"Ġases":13297,"Ġasure":13298,"Ġug":13299,"Ġuous":13300,"ospect":13301,"Ġanch":13302,"Ġonomy":13303,"Ġgh":13304,"Ġgone":13305,"Ġgement":13306,"Äłple":13307,"Äłum":13308,"Äłof":13309,"Äłest":13310,"Äłord":13311,"Äłhere":13312,"Äłmat":13313,"Äłobject":13314,"Äłreason":13315,"Äłcontradict":13316,"Äłcomple":13317,"Äłdif":13318,"Äłwhere":13319,"Äłintellig":13320,"ÄłTH":13321,"Äłval":13322,"Äłneg":13323,"Äłimag":13324,"Äłoblig":13325,"Äłdesign":13326,"ambig":13327,"deal":13328,"hers":13329,"Ġhemat":13330,"Ġiment":13331,"Ġimate":13332,"Ġusions":13333,"pharm":13334,"Ġstood":13335,"acqu":13336,"etamorph":13337,"serv":13338,"ÃĦÅĤper":13339,"ÃĦÅĤch":13340,"ÃĦÅĤpre":13341,"ÃĦÅĤsub":13342,"achuse":13343,"ĠES":13344,"sylvan":13345,"Ġential":13346,"angle":13347,"Ġrespond":13348,"Ġient":13349,"Ġild":13350,"Ġiable":13351,"iqueSol":13352,"Ġovert":13353,"Ġceived":13354,"Äłinde":13355,"Äłcol":13356,"Äłren":13357,"Äłrecogn":13358,"Äłsch":13359,"Äłsatisf":13360,"Ġmedi":13361,"Äłfall":13362,"Ġulate":13363,"Äłpun":13364,"Äłmy":13365,"Äłmist":13366,"Äłmag":13367,
[...]
